// Automatically generated header file
// Date: 2024-04-23 08:48:27.874389
// Quantized model exported from pdk_Cosine_lr0.001_BitMnist_PerTensor_2bitsym_RMS_width16_16_16_bs128_epochs60.pth
// Generated by exportquant.py

#include <stdint.h>

#ifndef BITNETMCU_MODEL_H
#define BITNETMCU_MODEL_H

// Number of layers
#define NUM_LAYERS 4

// Maximum number of activations per layer
#define MAX_N_ACTIVATIONS 16

// Layer: L1
// QuantType: 2bitsym
#define L1_active
#define L1_bitperweight 2
#define L1_incoming_weights 64
#define L1_outgoing_weights 16
const uint8_t L1_weights[] = {0xe5, 0x6f, 0xdb, 0xeb, 0xeb, 0xaa, 0x6d, 0xab, 0x6f, 0xe5, 0x6a, 0x9a, 0x67, 0xe6, 0xaf, 0xa6, 0x57, 0xe7, 0x57, 0x66, 0xeb, 0x6a, 0xe7, 0xaa, 0xeb, 0x99, 0xaa, 0x5a, 0x6b, 0xfa, 0xb5, 0xbd, 0x56, 0xab, 0xed, 0xaa, 0xa9, 0xa7, 0xa6, 0xa9, 0xaa, 0xab, 0xea, 0xb6, 0xf5, 0xa9, 0xab, 0x77, 0xea, 0xa5, 0x5a, 0xfa, 0xfb, 0xa5, 0x6a, 0xbe, 0xab, 0xa6, 0x97, 0xe5, 0x7a, 0xa9, 0x6d, 0xda, 0xfa, 0xab, 0xed, 0x99, 0xb9, 0xaa, 0xea, 0xea, 0x7e, 0xba, 0xa6, 0x6a, 0xd5, 0xef, 0xb6, 0xa9, 0xfa, 0xad, 0xea, 0xa7, 0xaa, 0x96, 0xbd, 0x6a, 0x7a, 0xa9, 0x6b, 0xe9, 0xae, 0xaa, 0xaa, 0x9e, 0x9d, 0xfe, 0xfa, 0xbb, 0x9a, 0xaa, 0x6a, 0x96, 0xbb, 0x9b, 0x97, 0xa6, 0xaa, 0xaa, 0x5e, 0xaa, 0xaa, 0xab, 0x66, 0xbd, 0xaa, 0x6a, 0xef, 0xaa, 0xee, 0xae, 0x6a, 0x5a, 0x57, 0xeb, 0xaa, 0x9a, 0xf9, 0xab, 0xa9, 0x59, 0xda, 0x9a, 0xfa, 0xab, 0xef, 0x9a, 0xaa, 0x67, 0x95, 0x6a, 0xf6, 0xaa, 0xae, 0xa6, 0xba, 0xd6, 0xe9, 0x9a, 0xaa, 0x6e, 0x6a, 0xa9, 0x6e, 0x6a, 0xea, 0x97, 0xe5, 0x56, 0xda, 0xa9, 0xea, 0xeb, 0xee, 0xaa, 0xa9, 0xf6, 0x6a, 0x6a, 0xaa, 0xaa, 0xef, 0xab, 0x7a, 0xa9, 0xab, 0xae, 0xfa, 0xb9, 0xf6, 0x9f, 0xda, 0xb9, 0x6e, 0xbe, 0x96, 0xb9, 0xe7, 0x65, 0x7a, 0x6f, 0x6e, 0xbd, 0xb9, 0xaa, 0x6a, 0x66, 0xaa, 0xaa, 0xa7, 0x6b, 0xa6, 0x5a, 0xea, 0xab, 0x7a, 0xa6, 0xeb, 0xdf, 0xaa, 0x6a, 0xad, 0x6e, 0xd6, 0xaa, 0x7f, 0xd9, 0xea, 0xaa, 0xea, 0xbb, 0xaa, 0x9e, 0x96, 0xa7, 0xa9, 0x5b, 0xea, 0xaa, 0x59, 0xbb, 0x7a, 0xbe, 0xb6, 0x9f, 0x7f, 0x57, 0xef, 0x67, 0x9e, 0xd6, 0x9a, 0xfe, 0xea, 0xba, 0x7a, 0xa6, 0xab, 0xeb, 0xe5, 0xab, 0xd9, 0x6d, 0x6a, 0x96};
//first channel is topmost bit

// Layer: L2
// QuantType: 2bitsym
#define L2_active
#define L2_bitperweight 2
#define L2_incoming_weights 16
#define L2_outgoing_weights 16
const uint8_t L2_weights[] = {0xda, 0xb6, 0xd6, 0x6e, 0x6a, 0x6e, 0xee, 0xab, 0xa5, 0xd6, 0xaa, 0xeb, 0x6e, 0xaa, 0x9e, 0xb9, 0x5e, 0xaa, 0xba, 0x7a, 0xa9, 0xf6, 0xa7, 0x97, 0xaa, 0xe9, 0xae, 0x6f, 0xeb, 0xb6, 0xdf, 0xfa, 0xea, 0xbb, 0xaa, 0xb6, 0xa6, 0xb6, 0xba, 0xa9, 0x9a, 0xe9, 0x6b, 0x9a, 0xa9, 0xaa, 0x6a, 0xba, 0xae, 0x9a, 0xae, 0xab, 0xa5, 0xa6, 0x69, 0xa5, 0x9a, 0xbb, 0x5e, 0xaa, 0xfa, 0xae, 0xbb, 0xa7};
//first channel is topmost bit

// Layer: L3
// QuantType: 2bitsym
#define L3_active
#define L3_bitperweight 2
#define L3_incoming_weights 16
#define L3_outgoing_weights 16
const uint8_t L3_weights[] = {0x6a, 0x9e, 0xaa, 0xa9, 0x6a, 0x9a, 0xba, 0xae, 0xaa, 0xae, 0xad, 0xda, 0xba, 0x9a, 0xaa, 0x9b, 0xad, 0xaa, 0x6a, 0xfa, 0x65, 0xed, 0xd9, 0xae, 0x7d, 0xaa, 0xab, 0xae, 0xbf, 0xae, 0xaa, 0x9a, 0xad, 0x6e, 0xba, 0xab, 0xdb, 0xae, 0xad, 0xaa, 0x7a, 0xee, 0x9a, 0xb9, 0xa5, 0xaa, 0xba, 0xeb, 0xbe, 0xbe, 0xee, 0xab, 0xaf, 0xae, 0xbd, 0xba, 0x79, 0xaa, 0x79, 0xab, 0xea, 0xa9, 0x9a, 0xae};
//first channel is topmost bit

// Layer: L4
// QuantType: 2bitsym
#define L4_active
#define L4_bitperweight 2
#define L4_incoming_weights 16
#define L4_outgoing_weights 10
const uint8_t L4_weights[] = {0x7f, 0xba, 0xee, 0xab, 0xb9, 0xae, 0x66, 0xfb, 0x5a, 0xd5, 0xbd, 0xdb, 0xea, 0xdb, 0x9f, 0x5b, 0xee, 0xd5, 0x6b, 0x9e, 0xbf, 0xea, 0x7b, 0x9b, 0xba, 0xeb, 0xea, 0xfa, 0xba, 0xdb, 0xea, 0xaa, 0xa6, 0x79, 0x97, 0x6e, 0x69, 0xde, 0xeb, 0xda};
//first channel is topmost bit

#endif
