// Automatically generated header file
// Date: 2024-06-01 14:49:33.990261
// Quantized model exported from prune12_Cosine_lr0.001_Aug_BitMnist_PerTensor_4bit_RMS_width64_64_64_bs128_epochs60.pth
// Generated by exportquant.py

#include <stdint.h>

#ifndef BITNETMCU_MODEL_H
#define BITNETMCU_MODEL_H

// Number of layers
#define NUM_LAYERS 4

// Maximum number of activations per layer
#define MAX_N_ACTIVATIONS 64

// Layer: L1
// QuantType: 4bit
#define L1_active
#define L1_bitperweight 12
#define L1_incoming_weights 256
#define L1_outgoing_weights 64
const uint32_t L1_weights[] = {
	0x30344334,0x00000000,0x66655044,0x00000000,0x43332247,0x00000000,0x76344330,0x00000000,
	0x00300200,0x00000000,0x10000000,0x00000000,0x340f0000,0x00000000,0x00000000,0x00000000,
	0x31200000,0x00000000,0x00000e00,0x00000000,0x02000000,0x00000000,0x20000fe0,0x00000000,
	0x30000010,0x00000000,0x000000ef,0x00000000,0x40012010,0x00000000,0x20000ef0,0x00000000,
	0x40e00000,0x00000000,0x00e00400,0x00000000,0x5000e000,0x00000000,0xe0002534,0x00000000,
	0x5330000e,0x00000000,0x11111013,0x00000000,0x43600204,0x00000000,0x56734002,0x00000000,
	0x00122322,0x00000000,0x2ed0fcc1,0x00000000,0x00aedec8,0x00000000,0x888888b0,0x00000000,
	0x0eca8888,0x00000000,0x88889cd0,0x00000000,0x300dc989,0x00000000,0x9aaddf30,0x00000000,
	0x02000020,0x00000000,0x0000e220,0x00000000,0x2000000e,0x00000000,0x00000002,0x00000000,
	0x10000001,0x00000000,0x20d00f00,0x00000000,0x000f0000,0x00000000,0x0000e000,0x00000000,
	0x00d00000,0x00000000,0x000000d0,0x00000000,0x0dd00200,0x00000000,0xde022001,0x00000000,
	0x00cc3212,0x00000000,0xeacd0442,0x00000000,0x0c980357,0x00000000,0x20edc003,0x00000000,
	0x10888847,0x00000000,0x4000de03,0x00000000,0x16088883,0x00000000,0x65000b00,0x00000000,
	0x3776fcaa,0x00000000,0x0100dcf0,0x00000000,0x35677730,0x00000000,0xe0000030,0x00000000,
	0x00201000,0x00000000,0x2000ef00,0x00000000,0x000ee000,0x00000000,0x0000e001,0x00000000,
	0x000e00f0,0x00000000,0x10000100,0x00000000,0x00033030,0x00000000,0x43203023,0x00000000,
	0xddb00d00,0x00000000,0xedd0d0dc,0x00000000,0xcced00d0,0x00000000,0x00000fec,0x00000000,
	0xde0cdb00,0x00000000,0x00d000e0,0x00000000,0x0d0e0e00,0x00000000,0x0d0000e0,0x00000000,
	0xd00ddfde,0x00000000,0x0f000eed,0x00000000,0xe300dc0b,0x00000000,0xade00edd,0x00000000,
	0xf5110009,0x00000000,0xcbd0fddd,0x00000000,0x03320016,0x00000000,0x52030000,0x00000000,
	0xf0000467,0x00000000,0x54023460,0x00000000,0xf0335457,0x00000000,0x42635672,0x00000000,
	0xe0000454,0x00000000,0x21422460,0x00000000,0xc00f0000,0x00000000,0x01021230,0x00000000,
	0x0000d000,0x00000000,0x00002000,0x00000000,0xd0000000,0x00000000,0x434102ed,0x00000000,
	0xcd030353,0x00000000,0x120300c0,0x00000000,0x0ee001f0,0x00000000,0x01030ecb,0x00000000,
	0x000ff000,0x00000000,0x0f000000,0x00000000,0xf0000f00,0x00000000,0x001f0eff,0x00000000,
	0x0f000000,0x00000000,0x0de0000f,0x00000000,0xf0000ea9,0x00000000,0x00000000,0x00000000,
	0xee0b0000,0x00000000,0xc0100000,0x00000000,0x0f0a0000,0x00000000,0x00000000,0x00000000,
	0x1000000c,0x00000000,0x00000000,0x00000000,0xef10050e,0x00000000,0x80b0f002,0x00000000,
	0xe0300040,0x00000000,0xa0d01002,0x00000000,0x00400060,0x00000000,0x000b0000,0x00000000,
	0x01200000,0x00000000,0x00f00d00,0x00000000,0xf00d0e0a,0x00000000,0x9f120000,0x00000000,
	0x00000a00,0x00000000,0x00037000,0x00000000,0xf0000000,0x00000000,0xe0002500,0x00000000,
	0x0e00000e,0x00000000,0x00050200,0x00000000,0x0fed00f0,0x00000000,0x00011f0f,0x00000000,
	0x0033433f,0x00000000,0x0b0e2233,0x00000000,0x04444400,0x00000000,0xfbec0020,0x00000000,
	0x43677620,0x00000000,0x0d00f023,0x00000000,0x04222333,0x00000000,0x10c00e20,0x00000000,
	0x00000005,0x00000000,0x2ec00040,0x00000000,0x0088b003,0x00000000,0x0fe02004,0x00000000,
	0x00cd220c,0x00000000,0xe0000000,0x00000000,0x000644c0,0x00000000,0x0000a376,0x00000000,
	0x0d0ecac0,0x00000000,0x03330655,0x00000000,0x0ccaaf03,0x00000000,0x57777763,0x00000000,
	0xecd00330,0x00000000,0x00452523,0x00000000,0x00047220,0x00000000,0xd888acd0,0x00000000,
	0x00004020,0x00000000,0x0b8ba99c,0x00000000,0x20100002,0x00000000,0x320cbba0,0x00000000,
	0x00000f10,0x00000000,0x11fdbd00,0x00000000,0x00000ed0,0x00000000,0x0400e020,0x00000000,
	0x00032267,0x00000000,0x53030030,0x00000000,0x20000006,0x00000000,0x50100000,0x00000000,
	0x30d99889,0x00000000,0x00001002,0x00000000,0x20dac888,0x00000000,0xf0002fd0,0x00000000,
	0x2232110c,0x00000000,0xcb0000e0,0x00000000,0x35777777,0x00000000,0x500020d0,0x00000000,
	0x06777452,0x00000000,0x20000e00,0x00000000,0x0ebb888b,0x00000000,0x00000f00,0x00000000,
	0x0b8abe04,0x00000000,0x0000e000,0x00000000,0x0bf04202,0x00000000,0x00000203,0x00000000,
	0x00400000,0x00000000,0x00002000,0x00000000,0x20000000,0x00000000,0x00110003,0x00000000,
	0x11400000,0x00000000,0x00000ff0,0x00000000,0x30000000,0x00000000,0x000f0e00,0x00000000,
	0x01000001,0x00000000,0x0000dc03,0x00000000,0x210d0000,0x00000000,0xdfd00004,0x00000000,
	0x33043022,0x00000000,0x12430342,0x00000000,0x3430f001,0x00000000,0x21400204,0x00000000,
	0x32300020,0x00000000,0x00000003,0x00000000,0x42010f02,0x00000000,0x10202013,0x00000000,
	0x30010003,0x00000000,0x300de002,0x00000000,0x23000001,0x00000000,0x4009d002,0x00000000,
	0x0030d00d,0x00000000,0x47e8d002,0x00000000,0x1000e04b,0x00000000,0x4708f002,0x00000000,
	0x20d0d12a,0x00000000,0x470b0303,0x00000000,0x0001020b,0x00000000,0x77ca0000,0x00000000,
	0x300010ac,0x00000000,0x70cd0002,0x00000000,0x030000c0,0x00000000,0x75400000,0x00000000,
	0x0000ede0,0x00000000,0x34400002,0x00000000,0x000cb000,0x00000000,0x03122002,0x00000000,
	0x400ccc00,0x00000000,0x02043023,0x00000000,0x2300dd02,0x00000000,0x23001034,0x00000000,
	0x22002021,0x00000000,0x00000323,0x00000000,0x02102432,0x00000000,0x22220022,0x00000000,
	0x22000121,0x00000000,0x22223130,0x00000000,0x00000102,0x00000000,0x00021205,0x00000000,
	0x00d00012,0x00000000,0x00000400,0x00000000,0xeca00334,0x00000000,0x22100000,0x00000000,
	0xda88abc7,0x00000000,0x42130000,0x00000000,0xed88888b,0x00000000,0x70000000,0x00000000,
	0x200e8888,0x00000000,0x90200000,0x00000000,0x257760eb,0x00000000,0xd002000f,0x00000000,
	0x00214663,0x00000000,0x0000000e,0x00000000,0x0bc00de0,0x00000000,0x0000200e,0x00000000,
	0x0ddd0000,0x00000000,0x000e00f0,0x00000000,0x20000000,0x00000000,0x0000f0f0,0x00000000,
	0x02220000,0x00000000,0x000000f2,0x00000000,0x02200000,0x00000000,0x00d00003,0x00000000,
	0x0c0cddef,0x00000000,0x453210c0,0x00000000,0xc0ddd007,0x00000000,0x7742100c,0x00000000,
	0xcd0e0136,0x00000000,0x52000000,0x00000000,0xd0f00567,0x00000000,0x700b0000,0x00000000,
	0xe0002777,0x00000000,0x1edcdb00,0x00000000,0x04346768,0x00000000,0xa00f0000,0x00000000,
	0x057720cb,0x00000000,0xe61c0000,0x00000000,0x3355d0d1,0x00000000,0x00c00a00,0x00000000,
	0x1110d00f,0x00000000,0xe000a0e0,0x00000000,0x001c00fd,0x00000000,0x0f000e0d,0x00000000,
	0x00d0000e,0x00000000,0xdf030000,0x00000000,0x00f00e00,0x00000000,0xe0004000,0x00000000,
	0xd0fff000,0x00000000,0x00000400,0x00000000,0xd0ee00d0,0x00000000,0x0000c00d,0x00000000,
	0x0cdee0df,0x00000000,0xe00300dd,0x00000000,0x00c00000,0x00000000,0x00000cc0,0x00000000,
	0x23000120,0x00000000,0x02350202,0x00000000,0x21010000,0x00000000,0x00050002,0x00000000,
	0x32000c00,0x00000000,0xe4400003,0x00000000,0x200000f0,0x00000000,0x34033402,0x00000000,
	0x01011030,0x00000000,0x060e00e1,0x00000000,0x00000044,0x00000000,0x00000002,0x00000000,
	0x10000000,0x00000000,0xc2000000,0x00000000,0x00c00000,0x00000000,0xe0002f04,0x00000000,
	0x00d005d9,0x00000000,0x000b0002,0x00000000,0x0000d0a9,0x00000000,0x000de000,0x00000000,
	0x1000001a,0x00000000,0x000e2e14,0x00000000,0x0000e701,0x00000000,0xba000333,0x00000000,
	0x0d000073,0x00000000,0x00005441,0x00000000,0x00090003,0x00000000,0x25076110,0x00000000,
	0x0000a804,0x00000000,0x02770e00,0x00000000,0x230cf00e,0x00000000,0x03400f00,0x00000000,
	0x020300c9,0x00000000,0xc2425200,0x00000000,0x03430c88,0x00000000,0xd4533220,0x00000000,
	0x04330888,0x00000000,0x03542032,0x00000000,0x03540888,0x00000000,0x740000c0,0x00000000,
	0x04440880,0x00000000,0x74ceddc0,0x00000000,0x24500883,0x00000000,0x70c00002,0x00000000,
	0x00020cc4,0x00000000,0x4b001400,0x00000000,0x0f000004,0x00000000,0x1d030000,0x00000000,
	0x00003002,0x00000000,0xdf000020,0x00000000,0x00000000,0x00000000,0x00000100,0x00000000,
	0x0e40f000,0x00000000,0x00000000,0x00000000,0x00200000,0x00000000,0x0e000e00,0x00000000,
	0x00de00f0,0x00000000,0x00000000,0x00000000,0x00f00000,0x00000000,0x00000000,0x00000000,
	0x3200011f,0x00000000,0x00000000,0x00000000,0x20000000,0x00000000,0x0000e000,0x00000000,
	0x0d000000,0x00000000,0x0000e0ee,0x00000000,0x0000d001,0x00000000,0x00d0e000,0x00000000,
	0x000ed00e,0x00000000,0x0d00e00c,0x00000000,0xd0d00e0e,0x00000000,0x00f00000,0x00000000,
	0x00cdfefd,0x00000000,0xe0ee0000,0x00000000,0x0ca0fe00,0x00000000,0xeec00e00,0x00000000,
	0x0cd0f00c,0x00000000,0xcdd0dffc,0x00000000,0x000000e0,0x00000000,0xecbecdbc,0x00000000,
	0x2341f0b0,0x00000000,0xd00ebb80,0x00000000,0x47673231,0x00000000,0x22210020,0x00000000,
	0x23646777,0x00000000,0x77774774,0x00000000,0x00000220,0x00000000,0x27757775,0x00000000,
	0x000d0eee,0x00000000,0xce045763,0x00000000,0x0db0d000,0x00000000,0xdcbdc032,0x00000000,
	0x0d0000e0,0x00000000,0xded8cd00,0x00000000,0x00000000,0x00000000,0x000c0d00,0x00000000,
	0x02322213,0x00000000,0x00cd0000,0x00000000,0x00023234,0x00000000,0x43fbcce0,0x00000000,
	0x30000002,0x00000000,0x440fa8c1,0x00000000,0x00040fdc,0x00000000,0x2430a890,0x00000000,
	0x0000f00b,0x00000000,0x1663d890,0x00000000,0x0000020b,0x00000000,0xa753888d,0x00000000,
	0x0300200b,0x00000000,0x077188ce,0x00000000,0x0000e0fd,0x00000000,0x37398b00,0x00000000,
	0x30000def,0x00000000,0x22dbd230,0x00000000,0x3100e050,0x00000000,0x00d00350,0x00000000,
	0x32000200,0x00000000,0x00003210,0x00000000,0x300040f0,0x00000000,0x00000002,0x00000000,
	0x532000d0,0x00000000,0x00000000,0x00000000,0x43200000,0x00000000,0x000e0002,0x00000000,
	0x02234000,0x00000000,0x0f030d00,0x00000000,0x03030000,0x00000000,0x0000d010,0x00000000,
	0x2300000e,0x00000000,0xec000024,0x00000000,0x02020dbc,0x00000000,0x0000e001,0x00000000,
	0x04200efd,0x00000000,0xf3130000,0x00000000,0x03120ebc,0x00000000,0xe3000000,0x00000000,
	0x4010200d,0x00000000,0xf00000d0,0x00000000,0x54000cdb,0x00000000,0xcafc888d,0x00000000,
	0x440a1075,0x00000000,0xec88888c,0x00000000,0x54033533,0x00000000,0x00b8889b,0x00000000,
	0x43102234,0x00000000,0x02664000,0x00000000,0x20322421,0x00000000,0x22321502,0x00000000,
	0x00032230,0x00000000,0x00224000,0x00000000,0x00f00000,0x00000000,0x00003000,0x00000000,
	0x00ee0003,0x00000000,0x4000d002,0x00000000,0x00d00011,0x00000000,0x20000000,0x00000000,
	0x2210d000,0x00000000,0x60030030,0x00000000,0x02440000,0x00000000,0x00022203,0x00000000,
	0x00002000,0x00000000,0x00000000,0x00000000,0x00045565,0x00000000,0x411000dc,0x00000000,
	0xd0077777,0x00000000,0x5423310d,0x00000000,0x0c002677,0x00000000,0x75220200,0x00000000,
	0xcdd20d98,0x00000000,0xd0010000,0x00000000,0x9aa88888,0x00000000,0x8b00000d,0x00000000,
	0xbacafcf6,0x00000000,0x00e000f0,0x00000000,0x02657643,0x00000000,0x20e00000,0x00000000,
	0x043100d0,0x00000000,0x000f0e00,0x00000000,0x1400000f,0x00000000,0x00000000,0x00000000,
	0x00000000,0x00000000,0x0e000030,0x00000000,0xd0030000,0x00000000,0x00000000,0x00000000,
	0x000f0000,0x00000000,0x00000f00,0x00000000,0x00c0f000,0x00000000,0x000010dc,0x00000000,
	0x000d0000,0x00000000,0x10000d0c,0x00000000,0xcc0d111e,0x00000000,0x023000db,0x00000000,
	0x00000136,0x00000000,0x30d00002,0x00000000,0x10e00576,0x00000000,0x0cb03010,0x00000000,
	0x00eb0675,0x00000000,0x88e46501,0x00000000,0x00cbd773,0x00000000,0x88544100,0x00000000,
	0x0009c770,0x00000000,0x8e500ec0,0x00000000,0x000c807e,0x00000000,0x843e0ec0,0x00000000,
	0x2002e070,0x00000000,0x930e0e03,0x00000000,0x0f010040,0x00000000,0xf0000342,0x00000000,
	0x0f001020,0x00000000,0x000000f1,0x00000000,0x00000000,0x00000000,0x00102000,0x00000000,
	0x00001000,0x00000000,0x000fe000,0x00000000,0x00000000,0x00000000,0x00f000e0,0x00000000,
	0x00000000,0x00000000,0x00f0e0d0,0x00000000,0x0d000001,0x00000000,0x00000000,0x00000000,
	0x0000f000,0x00000000,0x00000000,0x00000000,0x00001000,0x00000000,0xe0010000,0x00000000,
	0x00000000,0x00000000,0x00000200,0x00000000,0x00000000,0x00000000,0x00013020,0x00000000,
	0x20001000,0x00000000,0x00001202,0x00000000,0x00000000,0x00000000,0x00000000,0x00000000,
	0x0e000000,0x00000000,0x000000f0,0x00000000,0x01000000,0x00000000,0x00000e00,0x00000000,
	0x300f0000,0x00000000,0x00000100,0x00000000,0x2000dcde,0x00000000,0xe0000010,0x00000000,
	0x20624741,0x00000000,0x21000000,0x00000000,0x00065777,0x00000000,0x52322000,0x00000000,
	0xec8888dc,0x00000000,0xe0000200,0x00000000,0x0d888888,0x00000000,0xcff0e000,0x00000000,
	0x01210035,0x00000000,0x20000000,0x00000000,0x22376420,0x00000000,0x00000000,0x00000000,
	0x00032002,0x00000000,0x000400e0,0x00000000,0x30000000,0x00000000,0x0f0ef000,0x00000000,
	0x00000000,0x00000000,0x000e0010,0x00000000,0x00101020,0x00000000,0x00000001,0x00000000,
	0x00000020,0x00000000,0xd0010401,0x00000000,0x000000b0,0x00000000,0x00000022,0x00000000,
	0x1d0e2300,0x00000000,0x00000020,0x00000000,0x0bd10000,0x00000000,0xd0100031,0x00000000,
	0xcb888888,0x00000000,0x82040000,0x00000000,0xdb888880,0x00000000,0x34200301,0x00000000,
	0xfc156775,0x00000000,0x10002022,0x00000000,0x00534230,0x00000000,0x00002022,0x00000000,
	0x05310d00,0x00000000,0xef000ed2,0x00000000,0x02420000,0x00000000,0x020fe200,0x00000000,
	0x10000003,0x00000000,0x20122401,0x00000000,0x000cf0f0,0x00000000,0x00014020,0x00000000,
	0x00000010,0x00000000,0x0f014200,0x00000000,0x00000000,0x00000000,0x00000120,0x00000000,
	0xcbedcccd,0x00000000,0xe0000fdc,0x00000000,0xdccc0000,0x00000000,0x00002000,0x00000000,
	0xce0d00ed,0x00000000,0x00103450,0x00000000,0xe0e03000,0x00000000,0x00221264,0x00000000,
	0xf2024600,0x00000000,0xd0403254,0x00000000,0xe3437763,0x00000000,0x8cd00423,0x00000000,
	0x04545677,0x00000000,0x00c02520,0x00000000,0x03300026,0x00000000,0x5dc243b0,0x00000000,
	0xce030005,0x00000000,0x0edddaab,0x00000000,0xbdf0e004,0x00000000,0x0c0db9d0,0x00000000,
	0xeeee0dc0,0x00000000,0x0003010e,0x00000000,0xecdde000,0x00000000,0x00045040,0x00000000,
	0xddee0000,0x00000000,0x00000450,0x00000000,0xdee04004,0x00000000,0x0000350d,0x00000000,
	0xcc000032,0x00000000,0x20250f0c,0x00000000,0xcceeeed0,0x00000000,0x00200e0e,0x00000000,
	0x00000002,0x00000000,0x43300000,0x00000000,0x00042322,0x00000000,0x01030000,0x00000000,
	0x04400220,0x00000000,0x000d0002,0x00000000,0x000000e0,0x00000000,0x00000000,0x00000000,
	0x33002002,0x00000000,0x00000001,0x00000000,0x32000433,0x00000000,0x3f000030,0x00000000,
	0x04646542,0x00000000,0x0110230f,0x00000000,0x02433000,0x00000000,0x45365000,0x00000000,
	0x00000ee4,0x00000000,0x40352002,0x00000000,0x0cc0f044,0x00000000,0x43309000,0x00000000,
	0x0aabbef0,0x00000000,0x0b8989cd,0x00000000,0x00c99888,0x00000000,0x8888bac0,0x00000000,
	0xf00dfb99,0x00000000,0xadcde0e0,0x00000000,0xfe000ee0,0x00000000,0x0e00f000,0x00000000,
	0x0000000d,0x00000000,0xd00e0000,0x00000000,0x00000ded,0x00000000,0xfe0d0000,0x00000000,
	0x30030031,0x00000000,0x30420000,0x00000000,0x00000000,0x00000000,0x00300000,0x00000000,
	0x00000000,0x00000000,0x00000dd0,0x00000000,0x00300000,0x00000000,0x000100e0,0x00000000,
	0x03000011,0x00000000,0x0ede0200,0x00000000,0x00000262,0x00000000,0x04064642,0x00000000,
	0x0000f003,0x00000000,0x24773454,0x00000000,0x00000300,0x00000000,0x4000c043,0x00000000,
	0x0d02200e,0x00000000,0xfccdce00,0x00000000,0x0d02011d,0x00000000,0xde0eabae,0x00000000,
	0xdf000020,0x00000000,0xe02b8ab0,0x00000000,0x0000ed02,0x00000000,0x20088cce,0x00000000,
	0x03000e02,0x00000000,0x01e88d00,0x00000000,0x00231000,0x00000000,0x0e889e00,0x00000000,
	0x20240340,0x00000000,0xba880000,0x00000000,0x02435000,0x00000000,0xda9ce000,0x00000000,
	0xed00e0fe,0x00000000,0x0e0e0e00,0x00000000,0x000e0020,0x00000000,0x0f000000,0x00000000,
	0xfef0000f,0x00000000,0x00c0000f,0x00000000,0xd0000d00,0x00000000,0x001001e0,0x00000000,
	0x0d0d0000,0x00000000,0x2000d00d,0x00000000,0x0e000000,0x00000000,0x00030000,0x00000000,
	0xc000000d,0x00000000,0x0010000f,0x00000000,0x0f000000,0x00000000,0x0000df00,0x00000000,
	0x00000000,0x00000000,0x1fede003,0x00000000,0x00000010,0x00000000,0x0efd0642,0x00000000,
	0x000d20f0,0x00000000,0xeee03330,0x00000000,0x020d0cca,0x00000000,0xcd254330,0x00000000,
	0x04440024,0x00000000,0x67776500,0x00000000,0x03777777,0x00000000,0x7774000e,0x00000000,
	0x00115665,0x00000000,0x010bbb00,0x00000000,0x0000b898,0x00000000,0x8888cced,0x00000000,
	0xddde0001,0x00000000,0x100dcdc0,0x00000000,0xedf02202,0x00000000,0x2100000d,0x00000000,
	0xc0000002,0x00000000,0x01100e0e,0x00000000,0x00000000,0x00000000,0x320e0000,0x00000000,
	0x00001005,0x00000000,0x21300000,0x00000000,0x00000013,0x00000000,0x00130000,0x00000000,
	0x00000002,0x00000000,0x0c000000,0x00000000,0x0e000344,0x00000000,0xff000113,0x00000000,
	0xe0000074,0x00000000,0xb00f2322,0x00000000,0x0421577a,0x00000000,0x8fafd020,0x00000000,
	0x03035758,0x00000000,0x80d000d0,0x00000000,0x04343708,0x00000000,0xdce000bd,0x00000000,
	0x0554210e,0x00000000,0xdb000dbc,0x00000000,0x00412310,0x00000000,0xa0bfdcdd,0x00000000,
	0x0f003000,0x00000000,0x0dcdecbc,0x00000000,0xecd00400,0x00000000,0x50eeaccb,0x00000000,
	0x32021000,0x00000000,0x02000032,0x00000000,0x03210cdf,0x00000000,0x00033003,0x00000000,
	0x32001000,0x00000000,0x42120013,0x00000000,0x00030000,0x00000000,0x20021000,0x00000000,
	0x00110034,0x00000000,0x2f20e000,0x00000000,0x20567749,0x00000000,0xb00f0000,0x00000000,
	0x00770888,0x00000000,0x000ced0d,0x00000000,0xeed88884,0x00000000,0x4ecc0c00,0x00000000,
	0xe9888841,0x00000000,0x31000001,0x00000000,0xe8890502,0x00000000,0x43402030,0x00000000,
	0x0ce050ed,0x00000000,0xf0142230,0x00000000,0x0000200e,0x00000000,0xf0132243,0x00000000,
	0x10011004,0x00000000,0x00000200,0x00000000,0x0e000000,0x00000000,0x0eeed030,0x00000000,
	0x3300000b,0x00000000,0x000ee023,0x00000000,0x03200012,0x00000000,0x00000200,0x00000000,
	0x66065676,0x00000000,0x65424305,0x00000000,0x40332221,0x00000000,0x21112023,0x00000000,
	0x54000c00,0x00000000,0x00030324,0x00000000,0x00000001,0x00000000,0x00000200,0x00000000,
	0x00000000,0x00000000,0x30200000,0x00000000,0x0f00f000,0x00000000,0x00000030,0x00000000,
	0x00000000,0x00000000,0x00000232,0x00000000,0x00200031,0x00000000,0x00000204,0x00000000,
	0x4422f201,0x00000000,0x00001042,0x00000000,0x50124230,0x00000000,0x30000102,0x00000000,
	0x31020007,0x00000000,0x741250b0,0x00000000,0x0dd0300d,0x00000000,0xdbdaa98b,0x00000000,
	0x0c888888,0x00000000,0x88888890,0x00000000,0x0ec88888,0x00000000,0x88cb9df0,0x00000000,
	0x000cca00,0x00000000,0xd0e00035,0x00000000,0x35000000,0x00000000,0x32033555,0x00000000,
	0x00002000,0x00000000,0x02050030,0x00000000,0x225000f0,0x00000000,0xe0356400,0x00000000,
	0x04500020,0x00000000,0x00034203,0x00000000,0x33300000,0x00000000,0xef044300,0x00000000,
	0x20200003,0x00000000,0xf03300c0,0x00000000,0x03130f00,0x00000000,0x07400e0e,0x00000000,
	0x23100e0d,0x00000000,0x063009c0,0x00000000,0x0023000f,0x00000000,0x33ffbaee,0x00000000,
	0x02224000,0x00000000,0x500b8d00,0x00000000,0x1110ef06,0x00000000,0x4c89e000,0x00000000,
	0x220ccd57,0x00000000,0xd8a00033,0x00000000,0x3000e375,0x00000000,0x89300003,0x00000000,
	0x00000452,0x00000000,0x8c030de0,0x00000000,0x00f40031,0x00000000,0xbac000e2,0x00000000,
	0x00005064,0x00000000,0xdece0003,0x00000000,0x00002230,0x00000000,0xdcce1222,0x00000000,
	0x02000033,0x00000000,0x000ed002,0x00000000,0x20202303,0x00000000,0x000d0000,0x00000000,
	0x200010fe,0x00000000,0xc98dcdce,0x00000000,0x0023000a,0x00000000,0xa8bdfd00,0x00000000,
	0x01000c03,0x00000000,0x2000e0ef,0x00000000,0x0fe0d042,0x00000000,0x0300d430,0x00000000,
	0x00002000,0x00000000,0x00040002,0x00000000,0x00000000,0x00000000,0x3010ed00,0x00000000,
	0x20000d02,0x00000000,0x0400c010,0x00000000,0x20000010,0x00000000,0xfc0df100,0x00000000,
	0x10445773,0x00000000,0x3de0e000,0x00000000,0x00002454,0x00000000,0x00000332,0x00000000,
	0x00888888,0x00000000,0x9f001200,0x00000000,0x00b88889,0x00000000,0x00003322,0x00000000,
	0x20000007,0x00000000,0x13130300,0x00000000,0x20647662,0x00000000,0x24343000,0x00000000,
	0x02300000,0x00000000,0x00000000,0x00000000,0x2000000e,0x00000000,0x00000e00,0x00000000,
	0x00300090,0x00000000,0xe0000000,0x00000000,0x000000b0,0x00000000,0x00000000,0x00000000,
	0x330000ec,0x00000000,0x00e00300,0x00000000,0x000bddd0,0x00000000,0x20000000,0x00000000,
	0x3320021e,0x00000000,0xa0000000,0x00000000,0x00423508,0x00000000,0x92000000,0x00000000,
	0x00453f88,0x00000000,0x3500340f,0x00000000,0xeef08888,0x00000000,0x77431003,0x00000000,
	0xcba88884,0x00000000,0x76330043,0x00000000,0xd98ab000,0x00000000,0x26243364,0x00000000,
	0x0db00000,0x00000000,0x00345350,0x00000000,0x0ee22f00,0x00000000,0x03033500,0x00000000,
	0x00011000,0x00000000,0x00130003,0x00000000,0x20003000,0x00000000,0x2000f000,0x00000000,
	0x00000000,0x00000000,0x00000023,0x00000000,0x32000300,0x00000000,0x00d00000,0x00000000,
	0x02000433,0x00000000,0x520ceed1,0x00000000,0x30200005,0x00000000,0x6400d0c0,0x00000000,
	0x00001000,0x00000000,0x464220d0,0x00000000,0x0000000a,0x00000000,0x065760cc,0x00000000,
	0x3400ff0c,0x00000000,0x8a2774bc,0x00000000,0x300cdd0d,0x00000000,0xbd27608d,0x00000000,
	0x00000e00,0x00000000,0xe047288e,0x00000000,0x0000f0df,0x00000000,0xd043dace,0x00000000,
	0x00ee0000,0x00000000,0x000ecc00,0x00000000,0x00000000,0x00000000,0x00bdcd00,0x00000000,
	0x00f0e002,0x00000000,0x100eef02,0x00000000,0x040000f0,0x00000000,0x0000e003,0x00000000,
	0x00330000,0x00000000,0x5b001000,0x00000000,0x30030000,0x00000000,0x0f0e0200,0x00000000,
	0x43444400,0x00000000,0x00000320,0x00000000,0x44004430,0x00000000,0x00d03043,0x00000000,
	0x05463332,0x00000000,0x10200040,0x00000000,0x04523d00,0x00000000,0x0000f400,0x00000000,
	0x04000000,0x00000000,0x0e000000,0x00000000,0x04000000,0x00000000,0x0f03d000,0x00000000,
	0x31000200,0x00000000,0x0000e000,0x00000000,0x0f000000,0x00000000,0x0e322435,0x00000000,
	0x00e00002,0x00000000,0x00000033,0x00000000,0x00000001,0x00000000,0x00cf0032,0x00000000,
	0x01200040,0x00000000,0x0d000002,0x00000000,0x20000464,0x00000000,0x00110000,0x00000000,
	0x2ddef320,0x00000000,0x25410cb0,0x00000000,0x00988b03,0x00000000,0x20fccd00,0x00000000,
	0x30088888,0x00000000,0x88889c00,0x00000000,0x0010b888,0x00000000,0x888bee02,0x00000000,
	0x00300e00,0x00000000,0x00000300,0x00000000,0x32000d00,0x00000000,0x00333000,0x00000000,
	0x30000000,0x00000000,0x2300fec0,0x00000000,0x0000d00d,0x00000000,0xeb898bce,0x00000000,
	0x00000000,0x00000000,0x02574434,0x00000000,0x00001004,0x00000000,0x77777776,0x00000000,
	0x000000fc,0x00000000,0x88bbf033,0x00000000,0x00000f00,0x00000000,0xfb88888c,0x00000000,
	0xe00000f3,0x00000000,0x24400dcd,0x00000000,0x00000300,0x00000000,0x0011100d,0x00000000,
	0x00000000,0x00000000,0x030300f0,0x00000000,0xffee0202,0x00000000,0x0000030e,0x00000000,
	0x00f00000,0x00000000,0x00001020,0x00000000,0x00000020,0x00000000,0x00000122,0x00000000,
	0x302d0000,0x00000000,0x00001000,0x00000000,0x00000000,0x00000000,0x22000203,0x00000000,
	0xccee00ed,0x00000000,0xccccdcdd,0x00000000,0x0c04764d,0x00000000,0xa0d0eddc,0x00000000,
	0xde467677,0x00000000,0x20000ee0,0x00000000,0x02557566,0x00000000,0x30edfedd,0x00000000,
	0xe5763400,0x00000000,0xec0cbbbb,0x00000000,0x03740024,0x00000000,0xfcec9bbc,0x00000000,
	0xf4000473,0x00000000,0xfecbaabd,0x00000000,0xeed0041a,0x00000000,0x9000deee,0x00000000,
	0xe0f00008,0x00000000,0xd014020e,0x00000000,0xd0002dbb,0x00000000,0x12012210,0x00000000,
	0xe0130dc0,0x00000000,0xe0000240,0x00000000,0x04000012,0x00000000,0x000ab054,0x00000000,
	0x34303000,0x00000000,0x0eaac220,0x00000000,0x00343330,0x00000000,0x0c00100f,0x00000000,
	0xe0035000,0x00000000,0x5234120c,0x00000000,0xd0000063,0x00000000,0x34440f00,0x00000000,
	0x00000ec0,0x00000000,0x00001000,0x00000000,0x000ddef0,0x00000000,0x22220423,0x00000000,
	0x20dd0000,0x00000000,0x46645520,0x00000000,0x200e0003,0x00000000,0x46300ded,0x00000000,
	0x00e00000,0x00000000,0x8888888b,0x00000000,0x000000dc,0x00000000,0xd8888889,0x00000000,
	0x0e000004,0x00000000,0x05453200,0x00000000,0x0e000000,0x00000000,0x02034350,0x00000000,
	0x00010000,0x00000000,0x20300130,0x00000000,0x20000000,0x00000000,0x00000044,0x00000000,
	0x00001100,0x00000000,0x00000000,0x00000000,0x00000230,0x00000000,0x400d0000,0x00000000,
	0x00002000,0x00000000,0x0000d002,0x00000000,0x00ce000f,0x00000000,0x0e000020,0x00000000,
	0x00000000,0x00000000,0x02010203,0x00000000,0x33222200,0x00000000,0x10000300,0x00000000,
	0x00000eed,0x00000000,0xbbdee000,0x00000000,0x0200edca,0x00000000,0xa8a9bd00,0x00000000,
	0x000ceddb,0x00000000,0xcebabde0,0x00000000,0x00bbfcce,0x00000000,0x0000c000,0x00000000,
	0x00dddfef,0x00000000,0xec0ec0f0,0x00000000,0x00cdedc0,0x00000000,0x01010010,0x00000000,
	0x00b90014,0x00000000,0x0ded0003,0x00000000,0x0000dec8,0x00000000,0x88b01553,0x00000000,
	0x000eba98,0x00000000,0xe0746443,0x00000000,0x00200006,0x00000000,0x77202c01,0x00000000,
	0x03243437,0x00000000,0x74000000,0x00000000,0x05600100,0x00000000,0x00502000,0x00000000,
	0x3755f0c0,0x00000000,0x00022210,0x00000000,0x20240f30,0x00000000,0x12346343,0x00000000,
	0x00003212,0x00000000,0x20242432,0x00000000,0x00302123,0x00000000,0x43443402,0x00000000,
	0x0d0d0ec0,0x00000000,0xcdbccd00,0x00000000,0xddc00f00,0x00000000,0xdcccdcb0,0x00000000,
	0xd0c00000,0x00000000,0xccccccc0,0x00000000,0x000c0000,0x00000000,0xfc000bad,0x00000000,
	0x00000000,0x00000000,0xf0c00000,0x00000000,0x00000fdb,0x00000000,0xcec000ed,0x00000000,
	0x0ddddb9c,0x00000000,0xf0d3030d,0x00000000,0xedc0b000,0x00000000,0x00034300,0x00000000,
	0x02002350,0x00000000,0x00330000,0x00000000,0x33215520,0x00000000,0x0e21de00,0x00000000,
	0x24120200,0x00000000,0x00000000,0x00000000,0xe0325576,0x00000000,0x524000ee,0x00000000,
	0xe2033445,0x00000000,0x3100240d,0x00000000,0x00004232,0x00000000,0x13244300,0x00000000,
	0x0000f003,0x00000000,0x4155530d,0x00000000,0xd0010023,0x00000000,0x31422000,0x00000000,
	0x0f0000ef,0x00000000,0x0f003300,0x00000000,0x00e0c9d0,0x00000000,0x00000000,0x00000000,
	0x000e9804,0x00000000,0x000c0000,0x00000000,0x00ec8826,0x00000000,0x00100340,0x00000000,
	0x000e8837,0x00000000,0x00000055,0x00000000,0x000f8804,0x00000000,0x0f0e2074,0x00000000,
	0x0eec8894,0x00000000,0xddde0067,0x00000000,0x00cdfce3,0x00000000,0x1ecea045,0x00000000,
	0x00002430,0x00000000,0x0feee331,0x00000000,0x0032300f,0x00000000,0x00536232,0x00000000,
	0x0206400c,0x00000000,0x53200020,0x00000000,0x02244413,0x00000000,0x41400243,0x00000000,
	0x00000122,0x00000000,0x12010000,0x00000000,0x00003420,0x00000000,0x10013000,0x00000000,
	0x000e0d04,0x00000000,0x00000000,0x00000000,0x000eddfd,0x00000000,0xe0000000,0x00000000,
	0x00200003,0x00000000,0x04443230,0x00000000,0x000fed00,0x00000000,0x00000000,0x00000000,
	0x00cb9888,0x00000000,0xbdbdf000,0x00000000,0x3fe88888,0x00000000,0x88ac0000,0x00000000,
	0x000ba888,0x00000000,0x88afe00f,0x00000000,0x00040b88,0x00000000,0x89000001,0x00000000,
	0x0003343f,0x00000000,0x34020010,0x00000000,0x04400257,0x00000000,0x73102f13,0x00000000,
	0x32000000,0x00000000,0x00d00004,0x00000000,0x0f0000fe,0x00000000,0x00000000,0x00000000,
	0x0000ee00,0x00000000,0xf0100240,0x00000000,0x01300000,0x00000000,0x00003200,0x00000000,
	0x02240200,0x00000000,0x00000000,0x00000000,0x24021000,0x00000000,0xe1000000,0x00000000,
	0x2020000e,0x00000000,0xf0003303,0x00000000,0x03201030,0x00000000,0x10432200,0x00000000,
	0x23004404,0x00000000,0x30023202,0x00000000,0x33300200,0x00000000,0xd1000000,0x00000000,
	0x00000300,0x00000000,0x00000000,0x00000000,0x0000000d,0x00000000,0x02000000,0x00000000,
	0x00050033,0x00000000,0x00000000,0x00000000,0x00d00304,0x00000000,0x00000000,0x00000000,
	0x0300e0e0,0x00000000,0x1000f023,0x00000000,0x0000cee3,0x00000000,0x52400000,0x00000000,
	0x300ea006,0x00000000,0x20044001,0x00000000,0x30eb8d54,0x00000000,0x20003020,0x00000000,
	0x00e98814,0x00000000,0x10020231,0x00000000,0x00c888d0,0x00000000,0x00000340,0x00000000,
	0x20fa88a0,0x00000000,0x00400223,0x00000000,0x030c889b,0x00000000,0xd0244003,0x00000000,
	0x3000b88b,0x00000000,0x00000534,0x00000000,0x30000ddc,0x00000000,0x00203530,0x00000000,
	0x20000003,0x00000000,0x5500d000,0x00000000,0x000eeb07,0x00000000,0x77b8a000,0x00000000,
	0x2000da07,0x00000000,0x7088a023,0x00000000,0x020ef907,0x00000000,0x79884732,0x00000000,
	0x00112be7,0x00000000,0x68805642,0x00000000,0x00030ec5,0x00000000,0x28144131,0x00000000,
	0x00e00f05,0x00000000,0xed033000,0x00000000,0x00e00001,0x00000000,0x00000c00,0x00000000,
	0x00010200,0x00000000,0x00000d00,0x00000000,0x03001000,0x00000000,0x00000020,0x00000000,
	0x1e000f00,0x00000000,0x00002000,0x00000000,0x00000000,0x00000000,0x000f0000,0x00000000,
	0x00000000,0x00000000,0x0000fed0,0x00000000,0x00000000,0x00000000,0x0002efd0,0x00000000,
	0x2e000000,0x00000000,0x0000f002,0x00000000,0x00000000,0x00000000,0x0200f000,0x00000000,
	0x00000ed0,0x00000000,0x00000000,0x00000000,0x0000eccd,0x00000000,0xd0000000,0x00000000,
	0x00e0fdad,0x00000000,0x00042010,0x00000000,0x00ded0e0,0x00000000,0x00020000,0x00000000,
	0x200e0b00,0x00000000,0x00000000,0x00000000,0x20000000,0x00000000,0x00000100,0x00000000,
	0x0050230f,0x00000000,0xfef00022,0x00000000,0x057650dc,0x00000000,0x00000140,0x00000000,
	0x0000b880,0x00000000,0x3d002400,0x00000000,0x0d888837,0x00000000,0x0c002600,0x00000000,
	0x0a888477,0x00000000,0xedaacdf0,0x00000000,0x0abe3362,0x00000000,0x00f98b00,0x00000000,
	0x00020242,0x00000000,0x54300f00,0x00000000,0x00400545,0x00000000,0x55777750,0x00000000,
	0x00200114,0x00000000,0x34377700,0x00000000,0x01130331,0x00000000,0x00145530,0x00000000,
	0xdcd00000,0x00000000,0x00e00000,0x00000000,0x00023000,0x00000000,0x0bedcc0c,0x00000000,
	0x00e00000,0x00000000,0x1f0ccbd0,0x00000000,0x00001a00,0x00000000,0x100dabd0,0x00000000,
	0x02300000,0x00000000,0x10c0add0,0x00000000,0x01400ef0,0x00000000,0x0d0000d0,0x00000000,
	0x00000dbf,0x00000000,0x0c00f1db,0x00000000,0x03250080,0x00000000,0x00d1dc9d,0x00000000,
	0x43151ba0,0x00000000,0xddc0e0b0,0x00000000,0x44450a80,0x00000000,0x0f0f1000,0x00000000,
	0x5747588e,0x00000000,0x0100440d,0x00000000,0x44377300,0x00000000,0x00e01100,0x00000000,
	0x25377500,0x00000000,0x40000000,0x00000000,0x22777511,0x00000000,0xf00ee000,0x00000000,
	0x00345630,0x00000000,0x00bd000c,0x00000000,0x00125560,0x00000000,0xfe00ded0,0x00000000,
	0x02200000,0x00000000,0x00022000,0x00000000,0x0000ff0f,0x00000000,0x40000010,0x00000000,
	0x0300f000,0x00000000,0x0000f000,0x00000000,0x202100df,0x00000000,0xe3030000,0x00000000,
	0x00000000,0x00000000,0x02f00000,0x00000000,0x00000000,0x00000000,0x00001dd0,0x00000000,
	0x0000020f,0x00000000,0xc030f000,0x00000000,0x00010002,0x00000000,0xee330001,0x00000000,
	0x1030b004,0x00000000,0x8c540151,0x00000000,0x000f0030,0x00000000,0x89701400,0x00000000,
	0x0d00133b,0x00000000,0x8d7000fe,0x00000000,0x002462d8,0x00000000,0x807540ed,0x00000000,
	0x0103009c,0x00000000,0xb77334ee,0x00000000,0x000ca88a,0x00000000,0x043254f0,0x00000000,
	0x0ecb9ab0,0x00000000,0x02560000,0x00000000,0x1000ab00,0x00000000,0xf0450020,0x00000000,
	0xc0dbaced,0x00000000,0xce20e0ed,0x00000000,0x0ebbbbfe,0x00000000,0x0000000d,0x00000000,
	0xdedcff00,0x00000000,0x00010f00,0x00000000,0xdcce0321,0x00000000,0xf00e00e0,0x00000000,
	0xe0cf3340,0x00000000,0x00000f00,0x00000000,0x02012730,0x00000000,0x0eddc000,0x00000000,
	0x423247a8,0x00000000,0xf00d00e0,0x00000000,0x43235788,0x00000000,0x41000000,0x00000000,
	0x3524738b,0x00000000,0x40e00030,0x00000000,0x34446280,0x00000000,0x30e10040,0x00000000,
	0x02313000,0x00000000,0x0d00fe42,0x00000000,0x00005110,0x00000000,0x000de000,0x00000000,
	0x00250110,0x00000000,0x000e0030,0x00000000,0x00000001,0x00000000,0x00020200,0x00000000,
	0x00030000,0x00000000,0x00003300,0x00000000,0xcef00000,0x00000000,0x00f030d0,0x00000000,
	0x0032000e,0x00000000,0x00000032,0x00000000,0x030000f0,0x00000000,0x00000003,0x00000000,
	0x03005000,0x00000000,0x002400e0,0x00000000,0x00052020,0x00000000,0x20102200,0x00000000,
	0x00011100,0x00000000,0x00320002,0x00000000,0x032262ec,0x00000000,0x0e030011,0x00000000,
	0x00004453,0x00000000,0x33302000,0x00000000,0x00cd0277,0x00000000,0x43220200,0x00000000,
	0xd088888d,0x00000000,0x32000000,0x00000000,0x00a88888,0x00000000,0x80000000,0x00000000,
	0x0047601f,0x00000000,0xad000000,0x00000000,0xe0f02432,0x00000000,0x0ed00020,0x00000000,
	0x0000cdd0,0x00000000,0x00000f00,0x00000000,0x00cc0000,0x00000000,0x0fe04002,0x00000000,
	0x00000001,0x00000000,0xc0f00000,0x00000000,0x0220013f,0x00000000,0x00f00000,0x00000000,
	0xcc0000b0,0x00000000,0x0c0cc00c,0x00000000,0xb000dcb0,0x00000000,0xcb000000,0x00000000,
	0xcb0de000,0x00000000,0xce00d0d0,0x00000000,0x00c0d000,0x00000000,0x0eec00c0,0x00000000,
	0xb000e001,0x00000000,0x20c00e00,0x00000000,0xc0d0c005,0x00000000,0x620000b0,0x00000000,
	0x00000004,0x00000000,0x1231230d,0x00000000,0x0000400e,0x00000000,0x03220fd0,0x00000000,
	0xc013dee0,0x00000000,0x00010e00,0x00000000,0x00000000,0x00000000,0x0ccee011,0x00000000,
	0x00010e00,0x00000000,0xdac00350,0x00000000,0x0d0dcb89,0x00000000,0x89000300,0x00000000,
	0x0dedce9a,0x00000000,0xd0204230,0x00000000,0x00f01042,0x00000000,0x4534322d,0x00000000,
	0x01077777,0x00000000,0x77674200,0x00000000,0x00137777,0x00000000,0x77653000,0x00000000,
	0x02100000,0x00000000,0x00d02100,0x00000000,0x3000bbca,0x00000000,0xa9dc0000,0x00000000,
	0x000dbdb9,0x00000000,0x8b0cc000,0x00000000,0x200bdc8d,0x00000000,0xd8d9bee0,0x00000000,
	0x00ccfd00,0x00000000,0x000a0020,0x00000000,0x1dbef037,0x00000000,0x43000f00,0x00000000,
	0x1ed02263,0x00000000,0x00350000,0x00000000,0x2000534e,0x00000000,0xc040f0e1,0x00000000,
	0x20f0030b,0x00000000,0xc0400020,0x00000000,0x2000004a,0x00000000,0xd4200332,0x00000000,
	0x00dfed00,0x00000000,0x360f0002,0x00000000,0x0eed0054,0x00000000,0x50000020,0x00000000,
	0x02d00223,0x00000000,0x40e0f003,0x00000000,0x12002122,0x00000000,0x02dc0032,0x00000000,
	0x00406333,0x00000000,0x10000024,0x00000000,0x30025424,0x00000000,0x04045313,0x00000000,
	0x00200000,0x00000000,0xe0e00000,0x00000000,0x2010000e,0x00000000,0xfccfe000,0x00000000,
	0x0000d0cd,0x00000000,0xec0e0020,0x00000000,0x20f00100,0x00000000,0x37776665,0x00000000,
	0x00000026,0x00000000,0x77777763,0x00000000,0x000e000c,0x00000000,0xc8888efe,0x00000000,
	0x1000000f,0x00000000,0xca98889b,0x00000000,0x00fe0000,0x00000000,0x346501cd,0x00000000,
	0x00000000,0x00000000,0x0001030e,0x00000000,0x00000000,0x00000000,0x00000230,0x00000000,
	0x00e00000,0x00000000,0x00010000,0x00000000,0x00000000,0x00000000,0x00000000,0x00000000,
	0x00000000,0x00000000,0x20000003,0x00000000,0x220000f0,0x00000000,0x00f00000,0x00000000,
	0x00100f22,0x00000000,0x00000000,0x00000000,0x22000000,0x00000000,0x00000120,0x00000000,
	0x24403020,0x00000000,0x0e022033,0x00000000,0x0033220e,0x00000000,0xd9cd0043,0x00000000,
	0x33200fc8,0x00000000,0xbbd00330,0x00000000,0x0220ec88,0x00000000,0x8a433025,0x00000000,
	0x0000b988,0x00000000,0x84424f03,0x00000000,0x40e98eb8,0x00000000,0x373000e0,0x00000000,
	0x0009f006,0x00000000,0x75000000,0x00000000,0x00c90034,0x00000000,0x0cd00005,0x00000000,
	0x01000000,0x00000000,0xedee0f06,0x00000000,0x00004000,0x00000000,0x0000e003,0x00000000,
	0x0130d000,0x00000000,0x0000ff12,0x00000000,0x01000035,0x00000000,0x00d00013,0x00000000,
	0x00d014f2,0x00000000,0x10b00f55,0x00000000,0x0043f002,0x00000000,0x30003470,0x00000000,
	0x00330422,0x00000000,0x44565240,0x00000000,0x00030004,0x00000000,0x05430303,0x00000000,
	0x00cccbde,0x00000000,0xe00000dd,0x00000000,0x0000def0,0x00000000,0x00021100,0x00000000,
	0xc0d00000,0x00000000,0xae000000,0x00000000,0x00000111,0x00000000,0xe0102242,0x00000000,
	0x000efe32,0x00000000,0xddf00333,0x00000000,0x00ddde05,0x00000000,0xfcd04443,0x00000000,
	0xc00eedab,0x00000000,0xb0366630,0x00000000,0x000e2c80,0x00000000,0x57775000,0x00000000,
	0x0d0e00e4,0x00000000,0x7650dabc,0x00000000,0xb0c00000,0x00000000,0x70b8bded,0x00000000,
	0x00000001,0x00000000,0x000020f0,0x00000000,0x001200fc,0x00000000,0x11334600,0x00000000,
	0xd0135000,0x00000000,0x00012400,0x00000000,0x00000e0f,0x00000000,0x0ef00000,0x00000000,
	0x00034100,0x00000000,0x00000b0b,0x00000000,0x00000000,0x00000000,0x0d00000d,0x00000000,
	0x0200000d,0x00000000,0xdd000f00,0x00000000,0x00e00000,0x00000000,0x02d00000,0x00000000,
	0xfef00100,0x00000000,0xf00ed000,0x00000000,0x00f00100,0x00000000,0x0000030f,0x00000000,
	0x00000000,0x00000000,0x00e00010,0x00000000,0x0000f000,0x00000000,0x00300400,0x00000000,
	0x0f020020,0x00000000,0x00003000,0x00000000,0x00e00ecb,0x00000000,0xcdffffdb,0x00000000,
	0x0c888888,0x00000000,0x88add88a,0x00000000,0x0fdf30ea,0x00000000,0xca98888b,0x00000000,
	0x06475330,0x00000000,0xd888989d,0x00000000,0x07465567,0x00000000,0x77402000,0x00000000,
	0x05230314,0x00000000,0x77733453,0x00000000,0x00000004,0x00000000,0x14477760,0x00000000,
	0x0000700f,0x00000000,0x01377650,0x00000000,0x0e00000f,0x00000000,0xfde03300,0x00000000,
	0x0c00c000,0x00000000,0x00000d0c,0x00000000,0xcc0c0000,0x00000000,0x22000210,0x00000000,
	0xd0000000,0x00000000,0x33023300,0x00000000,0xcd000000,0x00000000,0x23004300,0x00000000,
	0x01300000,0x00000000,0x33043650,0x00000000,0x002600d0,0x00000000,0x75500034,0x00000000,
	0xd2222025,0x00000000,0x35210004,0x00000000,0xd2223330,0x00000000,0x02101300,0x00000000,
	0x02747730,0x00000000,0x02210000,0x00000000,0x00324300,0x00000000,0x131200ed,0x00000000,
	0xdd03000f,0x00000000,0xffbcdcdd,0x00000000,0xcd0e0fe0,0x00000000,0xecdcccee,0x00000000,
	0xcdc0cde0,0x00000000,0x00000edc,0x00000000,0xdb0dc0e0,0x00000000,0x0001000d,0x00000000,
	0xcdc0d00d,0x00000000,0x30e3000d,0x00000000,0xccd0dc0e,0x00000000,0xe0f000cc,0x00000000,
	0x00022002,0x00000000,0x04502000,0x00000000,0x000000dc,0x00000000,0x27750c0e,0x00000000,
	0x000330c8,0x00000000,0x0772990f,0x00000000,0x000040d8,0x00000000,0x47488be0,0x00000000,
	0x000e4608,0x00000000,0x07088003,0x00000000,0x0cbd0208,0x00000000,0x44980704,0x00000000,
	0x000eb30b,0x00000000,0x00af2333,0x00000000,0x00100241,0x00000000,0x00264301,0x00000000,
	0x233332f0,0x00000000,0x00020012,0x00000000,0x452120e0,0x00000000,0x00000003,0x00000000,
	0x010ebee0,0x00000000,0x00000020,0x00000000,0x000e0002,0x00000000,0x010e0ff0,0x00000000,
	0xe0000e00,0x00000000,0x000030d0,0x00000000,0x000010e0,0x00000000,0x000000e0,0x00000000,
	0x0ee02000,0x00000000,0x000bc0de,0x00000000,0x00000000,0x00000000,0x0e00ee00,0x00000000,
	0xccdcbbbd,0x00000000,0xee00cee0,0x00000000,0xd0dbcbc0,0x00000000,0x0420ed0d,0x00000000,
	0x0d0de212,0x00000000,0x37500f0e,0x00000000,0x0def0000,0x00000000,0x773000ee,0x00000000,
	0xd0ff0000,0x00000000,0x62002000,0x00000000,0x00000300,0x00000000,0x30e2000e,0x00000000,
	0x00011040,0x00000000,0x0e000bbb,0x00000000,0x0000100e,0x00000000,0x000009bb,0x00000000,
	0x00000000,0x00000000,0x1d0ffacb,0x00000000,0x00000004,0x00000000,0x0000ed00,0x00000000,
	0x0000d0e0,0x00000000,0x00e0c000,0x00000000,0x00232400,0x00000000,0x00000320,0x00000000,
	0x24577333,0x00000000,0x00011760,0x00000000,0x02436330,0x00000000,0xe1345550,0x00000000,
	0x00000010,0x00000000,0x03300fe0,0x00000000,0xc000f000,0x00000000,0x00f0e0dd,0x00000000,
	0x000e000e,0x00000000,0x00433000,0x00000000,0x00000000,0x00000000,0x00334300,0x00000000,
	0x0001000f,0x00000000,0x00223220,0x00000000,0x00000e00,0x00000000,0x0e511000,0x00000000,
	0x00020010,0x00000000,0xe8742000,0x00000000,0x01003fd3,0x00000000,0xa8762db0,0x00000000,
	0x1000d006,0x00000000,0x88750cc1,0x00000000,0x10000015,0x00000000,0x8d73dee0,0x00000000,
	0x0001113f,0x00000000,0x8540d003,0x00000000,0x000020ec,0x00000000,0xe30e0003,0x00000000,
	0x000300c0,0x00000000,0x33000020,0x00000000,0x20400cd4,0x00000000,0x10d00300,0x00000000,
	0x3400ad04,0x00000000,0x22000200,0x00000000,0x00ec0000,0x00000000,0x00b0d000,0x00000000,
	0x00dc0020,0x00000000,0x010c0000,0x00000000,0x00000000,0x00000000,0x10000d0e,0x00000000,
	0x00c0d0d0,0x00000000,0xec000000,0x00000000,0xfc00ceed,0x00000000,0xddf00000,0x00000000,
	0x0000f0de,0x00000000,0x00001000,0x00000000,0x0b000000,0x00000000,0x22300350,0x00000000,
	0x00e00f02,0x00000000,0x00241370,0x00000000,0x00d0000e,0x00000000,0x00442551,0x00000000,
	0x00f00000,0x00000000,0xc8b36771,0x00000000,0x00030000,0x00000000,0x08807654,0x00000000,
	0x00200002,0x00000000,0x38827742,0x00000000,0x0c0e20e3,0x00000000,0xe8876420,0x00000000,
	0x00ded010,0x00000000,0xff057010,0x00000000,0x00cfe000,0x00000000,0xf0434000,0x00000000,
	0x0000c000,0x00000000,0x10c00012,0x00000000,0x00d2ef03,0x00000000,0x0ce00011,0x00000000,
	0x00000000,0x00000000,0xffec0100,0x00000000,0x0011e012,0x00000000,0xf000d000,0x00000000,
	0x02010d00,0x00000000,0x00000002,0x00000000,0x121ca9be,0x00000000,0x00ff0000,0x00000000,
	0x0200e988,0x00000000,0xbd00d000,0x00000000,0x22467775,0x00000000,0x00002000,0x00000000,
	0x23677777,0x00000000,0x73000000,0x00000000,0x016642d0,0x00000000,0x20100000,0x00000000,
	0x00888888,0x00000000,0xf0100000,0x00000000,0x0a8cde23,0x00000000,0x00000002,0x00000000,
	0x0e006200,0x00000000,0x0d000110,0x00000000,0x00420000,0x00000000,0x00000000,0x00000000,
	0x30000000,0x00000000,0x00000000,0x00000000,0x30f00000,0x00000000,0x10000001,0x00000000,
	0x00000000,0x00000000,0x0000e000,0x00000000,0x00200000,0x00000000,0x000fde00,0x00000000,
	0x100d0000,0x00000000,0x00010002,0x00000000,0x1000000c,0x00000000,0x00000000,0x00000000,
	0xc0003640,0x00000000,0x00000ecb,0x00000000,0x0cf37751,0x00000000,0xee0debcc,0x00000000,
	0xd047760d,0x00000000,0xce0fdaa0,0x00000000,0xd06777eb,0x00000000,0x000feb0d,0x00000000,
	0xd2377788,0x00000000,0x10ee0300,0x00000000,0x02267588,0x00000000,0x3d022210,0x00000000,
	0x2342748c,0x00000000,0x10000200,0x00000000,0x00005790,0x00000000,0x0e0e0dd0,0x00000000,
	0x00000400,0x00000000,0xe0000eee,0x00000000,0xd01f0100,0x00000000,0xe00fc00e,0x00000000,
	0xef000200,0x00000000,0x0000020f,0x00000000,0xd0000300,0x00000000,0x30000100,0x00000000,
	0xd0e00000,0x00000000,0x000000f0,0x00000000,0x000f0000,0x00000000,0x20000f0d,0x00000000,
	0xd0d00000,0x00000000,0x00e000de,0x00000000,0xe0dd0ff0,0x00000000,0x00000f00,0x00000000,
	0x20320003,0x00000000,0x30330032,0x00000000,0x303000f0,0x00000000,0x4230f000,0x00000000,
	0x300010f0,0x00000000,0x2000e020,0x00000000,0x330001e0,0x00000000,0x000bc000,0x00000000,
	0x00300030,0x00000000,0x00eeef00,0x00000000,0x02300000,0x00000000,0x198cdc00,0x00000000,
	0x20000103,0x00000000,0x488efef0,0x00000000,0x31030002,0x00000000,0x78800030,0x00000000,
	0x01303105,0x00000000,0x78900c00,0x00000000,0x32321007,0x00000000,0x48c01202,0x00000000,
	0x03432007,0x00000000,0x28a0e000,0x00000000,0x0040ee06,0x00000000,0x2cabbd00,0x00000000,
	0x300ccd02,0x00000000,0x500cee00,0x00000000,0x20ee0001,0x00000000,0x0060ed00,0x00000000,
	0x200ef004,0x00000000,0x53500000,0x00000000,0x0000eef0,0x00000000,0x1063f000,0x00000000,
	0x30243500,0x00000000,0x23332023,0x00000000,0x002342ed,0x00000000,0x00300e00,0x00000000,
	0x40035fbb,0x00000000,0x50ed0001,0x00000000,0x320200be,0x00000000,0x00e00ed0,0x00000000,
	0x000042ba,0x00000000,0xffbdd090,0x00000000,0x10323010,0x00000000,0x530000dd,0x00000000,
	0x34576506,0x00000000,0x746540ee,0x00000000,0x14301fc3,0x00000000,0x42476330,0x00000000,
	0x410fbaf0,0x00000000,0x00053400,0x00000000,0x20300dd0,0x00000000,0x00054040,0x00000000,
	0x00246415,0x00000000,0x34205000,0x00000000,0x00003300,0x00000000,0x3020eac0,0x00000000,
	0x00bdd0d0,0x00000000,0x041008c0,0x00000000,0x00d0de00,0x00000000,0x6001bb02,0x00000000,
	0x001d0d00,0x00000000,0x002e0d23,0x00000000,0x32020205,0x00000000,0x40000022,0x00000000,
	0x10303530,0x00000000,0x0bdc0000,0x00000000,0x02024430,0x00000000,0xeea9c000,0x00000000,
	0x03233052,0x00000000,0x30fdac00,0x00000000,0x20430123,0x00000000,0x52ec8b02,0x00000000,
	0x03300023,0x00000000,0x71e88000,0x00000000,0x03040e03,0x00000000,0x75888000,0x00000000,
	0x20340db7,0x00000000,0x7088cf00,0x00000000,0x00203006,0x00000000,0x7aab2022,0x00000000,
	0xe0002123,0x00000000,0xcae05010,0x00000000,0x0000000f,0x00000000,0xd000d000,0x00000000,
	0x100100ed,0x00000000,0x001000ee,0x00000000,0x10000000,0x00000000,0x00000000,0x00000000,
	0x0000f000,0x00000000,0xfe000f00,0x00000000,0x0100000e,0x00000000,0xfd002001,0x00000000,
	0x00003310,0x00000000,0x01c0ee00,0x00000000,0x00000420,0x00000000,0x00e00000,0x00000000,
	0x0004200d,0x00000000,0x00fe0043,0x00000000,0x03000a8b,0x00000000,0xc0000102,0x00000000,
	0x3010098d,0x00000000,0x04200002,0x00000000,0x21003f8d,0x00000000,0x00252424,0x00000000,
	0x31f03888,0x00000000,0xd3343312,0x00000000,0x20000888,0x00000000,0xd7020024,0x00000000,
	0x20000b88,0x00000000,0x5740de02,0x00000000,0x00000c8d,0x00000000,0x7320dc02,0x00000000,
	0x00020ca0,0x00000000,0x00000f00,0x00000000,0x00034000,0x00000000,0x00240000,0x00000000,
	0x00004400,0x00000000,0x00040400,0x00000000,0x0000fe00,0x00000000,0x04300f00,0x00000000,
	0x30000200,0x00000000,0x20020f00,0x00000000,0x300ed000,0x00000000,0x0000fd04,0x00000000,
	0x400000e0,0x00000000,0x00d00000,0x00000000,0x44030001,0x00000000,0x00d12003,0x00000000,
	0x00000000,0x00000000,0x00000000,0x00000000,0x00100000,0x00000000,0x00000020,0x00000000,
	0x0310e00d,0x00000000,0x0000000f,0x00000000,0x2001000f,0x00000000,0x10010000,0x00000000,
	0x00000000,0x00000000,0x00000020,0x00000000,0x11310000,0x00000000,0xefee000d,0x00000000,
	0x2232f0d0,0x00000000,0xc0000de0,0x00000000,0x00477332,0x00000000,0x32232000,0x00000000,
	0x0df03677,0x00000000,0x33021120,0x00000000,0x08888888,0x00000000,0xbc000030,0x00000000,
	0xb988888a,0x00000000,0xd0ef0003,0x00000000,0x00e00444,0x00000000,0x4000f000,0x00000000,
	0x23777620,0x00000000,0x00000f00,0x00000000,0x00500000,0x00000000,0x0000f200,0x00000000,
	0x0000d0f0,0x00000000,0x00000020,0x00000000,0x200000ee,0x00000000,0x00000020,0x00000000,
	0x03001010,0x00000000,0x0e003202,0x00000000,0x00200000,0x00000000,0xbb000002,0x00000000,
	0x02000e00,0x00000000,0x00000034,0x00000000,0x000e0e00,0x00000000,0x00012300,0x00000000,
	0x20000000,0x00000000,0xc0dedef0,0x00000000,0x000110ce,0x00000000,0x02000f00,0x00000000,
	0x023500de,0x00000000,0xf2563235,0x00000000,0x0000320a,0x00000000,0x88d05333,0x00000000,
	0x34011361,0x00000000,0x8888c200,0x00000000,0x20000277,0x00000000,0x3b88888d,0x00000000,
	0x0f00cd57,0x00000000,0x30e8888b,0x00000000,0x30000ff4,0x00000000,0x503088cc,0x00000000,
	0x02303000,0x00000000,0x0012cadd,0x00000000,0x20000242,0x00000000,0x1220fc00,0x00000000,
	0x02003013,0x00000000,0x0450fe00,0x00000000,0x23232233,0x00000000,0x33000030,0x00000000,
	0xeeddd045,0x00000000,0x6560fece,0x00000000,0xc00e0003,0x00000000,0x677620ee,0x00000000,
	0xdd000fca,0x00000000,0x0777440e,0x00000000,0xee0fddee,0x00000000,0xb1777400,0x00000000,
	0xe0fdd000,0x00000000,0xed677742,0x00000000,0xdefef0ee,0x00000000,0xcbc47740,0x00000000,
	0xd020000d,0x00000000,0x0dc02562,0x00000000,0x00000000,0x00000000,0x00000403,0x00000000,
	0x0300e000,0x00000000,0xdb000000,0x00000000,0x0000e000,0x00000000,0x00000010,0x00000000,
	0x00003000,0x00000000,0xd000000f,0x00000000,0x00003000,0x00000000,0x0e0c0000,0x00000000,
	0x0000100e,0x00000000,0xf000ee00,0x00000000,0xd0000210,0x00000000,0x000f00d0,0x00000000,
	0xed000000,0x00000000,0xc000000c,0x00000000,0xdc000f00,0x00000000,0x000edddd,0x00000000,
}; //first channel is topmost bit

// Layer: L2
// QuantType: 4bit
#define L2_active
#define L2_bitperweight 12
#define L2_incoming_weights 64
#define L2_outgoing_weights 64
const uint32_t L2_weights[] = {
	0x0bf02048,0x00000000,0x04004005,0x00000000,0x00d40db0,0x00000000,0xe30000ee,0x00000000,
	0x0030e03e,0x00000000,0x5530d0f0,0x00000000,0x00000360,0x00000000,0x6540dd90,0x00000000,
	0x0300c0d3,0x00000000,0xe09d0560,0x00000000,0x0fca21d0,0x00000000,0xcc001240,0x00000000,
	0x0c40700d,0x00000000,0x10f6000d,0x00000000,0x0d0e0b04,0x00000000,0x9b500002,0x00000000,
	0xc030503d,0x00000000,0xb00350cf,0x00000000,0x00edfb00,0x00000000,0x03c40c0b,0x00000000,
	0x8ae00074,0x00000000,0x030dd0d2,0x00000000,0xad0203d0,0x00000000,0x45501df0,0x00000000,
	0x0000f03c,0x00000000,0x20c41c0e,0x00000000,0x0e000008,0x00000000,0x001800e0,0x00000000,
	0xc0000cea,0x00000000,0x43700600,0x00000000,0xe3300000,0x00000000,0x05d00004,0x00000000,
	0xc5000730,0x00000000,0x80040064,0x00000000,0x430d00b4,0x00000000,0x030c000e,0x00000000,
	0xa433d02c,0x00000000,0x00c5e000,0x00000000,0x06000005,0x00000000,0x0000035e,0x00000000,
	0x400000e5,0x00000000,0x00d0b2c4,0x00000000,0x20040000,0x00000000,0x0080d605,0x00000000,
	0x9cb0000c,0x00000000,0x0000c0cd,0x00000000,0x00450000,0x00000000,0xdd5d033c,0x00000000,
	0x2c2030cf,0x00000000,0xd000ee05,0x00000000,0x8d500d74,0x00000000,0x00d0e0d0,0x00000000,
	0x00000325,0x00000000,0x380000bd,0x00000000,0x51050dc0,0x00000000,0x30000a00,0x00000000,
	0xc2300b30,0x00000000,0xb03000a7,0x00000000,0x02200e20,0x00000000,0x0300c0b0,0x00000000,
	0xf0600370,0x00000000,0x00000081,0x00000000,0x0fb4b529,0x00000000,0x7b02500e,0x00000000,
	0x40bd3000,0x00000000,0xe0e03010,0x00000000,0x70030480,0x00000000,0x00d000c0,0x00000000,
	0xc3002920,0x00000000,0xc3e540c0,0x00000000,0x00040200,0x00000000,0xa3d40704,0x00000000,
	0x55b00002,0x00000000,0x2200e003,0x00000000,0x700c0782,0x00000000,0x08000050,0x00000000,
	0x30d30c00,0x00000000,0x00035030,0x00000000,0x04c00d00,0x00000000,0x3000373d,0x00000000,
	0x0d00a000,0x00000000,0x0300d100,0x00000000,0xc03d0308,0x00000000,0x08080000,0x00000000,
	0x38040400,0x00000000,0x020b6401,0x00000000,0xc0020040,0x00000000,0x083e6ec0,0x00000000,
	0x00040500,0x00000000,0x00d3c670,0x00000000,0x0020d000,0x00000000,0x4e000f80,0x00000000,
	0x2a006c00,0x00000000,0x300d5088,0x00000000,0x00f3b0d7,0x00000000,0x0d00d0e2,0x00000000,
	0x050e3a00,0x00000000,0x000320a0,0x00000000,0x48e4280a,0x00000000,0x03605cbe,0x00000000,
	0x6e0dbb08,0x00000000,0x080db000,0x00000000,0x0b4d000a,0x00000000,0x350000e0,0x00000000,
	0x600d3090,0x00000000,0x0f0004c1,0x00000000,0xa30005e7,0x00000000,0x7e040000,0x00000000,
	0x0c01e52d,0x00000000,0x4c000000,0x00000000,0x00f40d0b,0x00000000,0x0c035d00,0x00000000,
	0x4000ecca,0x00000000,0x0603d003,0x00000000,0x000323eb,0x00000000,0x6c00300e,0x00000000,
	0x2000941a,0x00000000,0x20c9b000,0x00000000,0xe000dd30,0x00000000,0x580e58c0,0x00000000,
	0x0240cc03,0x00000000,0x00c00f0c,0x00000000,0xd02d000b,0x00000000,0x00000090,0x00000000,
	0x8050b4b0,0x00000000,0xdd04f08b,0x00000000,0x303b3000,0x00000000,0x00000042,0x00000000,
	0x5f00ae34,0x00000000,0x0f0d0000,0x00000000,0xa700543b,0x00000000,0x0000c00f,0x00000000,
	0xa9fce000,0x00000000,0x00010abd,0x00000000,0x005000fb,0x00000000,0x2404fd00,0x00000000,
	0x2ae00900,0x00000000,0x002d0802,0x00000000,0xf03f0000,0x00000000,0x00d035a4,0x00000000,
	0x04068000,0x00000000,0x00e0b900,0x00000000,0x3d00400e,0x00000000,0x50900db3,0x00000000,
	0x0a00c90a,0x00000000,0x204002b0,0x00000000,0x880e0008,0x00000000,0x000d05d0,0x00000000,
	0x0040e55f,0x00000000,0x506b0003,0x00000000,0xed0d3309,0x00000000,0x300de993,0x00000000,
	0x66000005,0x00000000,0x000c00c0,0x00000000,0x40000300,0x00000000,0x0900000c,0x00000000,
	0xb000ad20,0x00000000,0x00064deb,0x00000000,0x3b000000,0x00000000,0x10007200,0x00000000,
	0xe0006250,0x00000000,0x00008795,0x00000000,0x0850005c,0x00000000,0x0000e395,0x00000000,
	0xcb004470,0x00000000,0x0000008c,0x00000000,0x0080be80,0x00000000,0x02d30048,0x00000000,
	0x3d0045dd,0x00000000,0x0093307b,0x00000000,0x0000e003,0x00000000,0x20300000,0x00000000,
	0x400d00b3,0x00000000,0x0b00000d,0x00000000,0x06000007,0x00000000,0xb040d007,0x00000000,
	0x93000250,0x00000000,0x00b0300e,0x00000000,0x000f3d0c,0x00000000,0x85c02c40,0x00000000,
	0x000c0cbe,0x00000000,0xd002e030,0x00000000,0x0d0a0004,0x00000000,0x33470000,0x00000000,
	0x00000700,0x00000000,0xb0d00e7e,0x00000000,0x17c00003,0x00000000,0x003d0052,0x00000000,
	0x0230800c,0x00000000,0x20a40e2c,0x00000000,0x2000fe07,0x00000000,0x80030000,0x00000000,
	0x070000c0,0x00000000,0xe0090900,0x00000000,0xd04030b5,0x00000000,0x0d06f409,0x00000000,
	0x00050b00,0x00000000,0x20af0000,0x00000000,0x3a100ba0,0x00000000,0xbc00007d,0x00000000,
	0x0930000a,0x00000000,0x00074040,0x00000000,0xe40ca005,0x00000000,0x00d4d072,0x00000000,
	0x00000c20,0x00000000,0x0e0a0030,0x00000000,0x06c302b1,0x00000000,0xe1e40020,0x00000000,
	0x8000d00d,0x00000000,0x0020e0ca,0x00000000,0x00002000,0x00000000,0xbf7c0a00,0x00000000,
	0x0000430d,0x00000000,0x04602403,0x00000000,0x003fc030,0x00000000,0xc41040ad,0x00000000,
	0x03000000,0x00000000,0x40fa0dd3,0x00000000,0x8c2d0050,0x00000000,0x00005420,0x00000000,
	0x80d00504,0x00000000,0x003c0300,0x00000000,0xd8000050,0x00000000,0x20c0f803,0x00000000,
	0x0000d040,0x00000000,0xe02ba043,0x00000000,0xa92ee000,0x00000000,0x03030000,0x00000000,
	0x00d30630,0x00000000,0x00ec0d00,0x00000000,0x40b0e00c,0x00000000,0x04000860,0x00000000,
	0x800001c6,0x00000000,0x0c044587,0x00000000,0x0a403d0d,0x00000000,0xd010d0d0,0x00000000,
	0x00002040,0x00000000,0x00f0000c,0x00000000,0x34b7c000,0x00000000,0x500d010b,0x00000000,
	0x44d00007,0x00000000,0x0001ed02,0x00000000,0x8d6000d3,0x00000000,0x7f00c161,0x00000000,
	0x7ee5a000,0x00000000,0x00920c70,0x00000000,0x000e0080,0x00000000,0x0000dc09,0x00000000,
	0x00e230a0,0x00000000,0x00000e00,0x00000000,0x00060030,0x00000000,0x603d23f0,0x00000000,
	0x13f020b3,0x00000000,0x403c4002,0x00000000,0xe40a0d00,0x00000000,0x502cae0e,0x00000000,
	0x5000f100,0x00000000,0xb2bf534c,0x00000000,0x03002324,0x00000000,0x0000c000,0x00000000,
	0xbaedd02e,0x00000000,0xd0d00cd0,0x00000000,0xb03330d5,0x00000000,0x80070000,0x00000000,
	0x0f20c033,0x00000000,0xd0077030,0x00000000,0x60c00c08,0x00000000,0x0d0b0c8e,0x00000000,
	0xc0010d00,0x00000000,0x0020d08e,0x00000000,0x04030540,0x00000000,0x00040106,0x00000000,
	0xd03a0000,0x00000000,0x20e06c0e,0x00000000,0x08000000,0x00000000,0x8043300c,0x00000000,
	0x432cc0d3,0x00000000,0xfe040000,0x00000000,0x7e0a0200,0x00000000,0x000da000,0x00000000,
	0x50000020,0x00000000,0x00060bcb,0x00000000,0x820ec002,0x00000000,0x000034a0,0x00000000,
	0x003430d0,0x00000000,0x0e0000c4,0x00000000,0x07eb4000,0x00000000,0x03f0e1c0,0x00000000,
	0x73200000,0x00000000,0x000c0000,0x00000000,0xd0090700,0x00000000,0x0de0d624,0x00000000,
	0x0040e004,0x00000000,0x00003003,0x00000000,0x09003000,0x00000000,0x0eee0050,0x00000000,
	0x90c06000,0x00000000,0x00000c0f,0x00000000,0xb0f00b0a,0x00000000,0x000050d0,0x00000000,
	0x00000a20,0x00000000,0x4c0580be,0x00000000,0x38e00200,0x00000000,0x0009d5e5,0x00000000,
	0x00d06000,0x00000000,0x53d008f0,0x00000000,0xe000d0a7,0x00000000,0x0c053dbc,0x00000000,
	0xf0a00040,0x00000000,0x00540e30,0x00000000,0x0ce0d400,0x00000000,0x20e20000,0x00000000,
	0x4e20c848,0x00000000,0x4250e2c2,0x00000000,0x08c04000,0x00000000,0x0d0000e0,0x00000000,
	0x73028021,0x00000000,0x004c0d00,0x00000000,0x00000b09,0x00000000,0xd4000000,0x00000000,
	0xb50d0e00,0x00000000,0x4a00b0dc,0x00000000,0x00e00cc1,0x00000000,0xbefe0c6a,0x00000000,
	0x0500459b,0x00000000,0xd000d660,0x00000000,0x000ffa30,0x00000000,0x8d087000,0x00000000,
	0x0db1304d,0x00000000,0x000b0050,0x00000000,0xb40e0002,0x00000000,0x00063320,0x00000000,
	0x00e05407,0x00000000,0x100b3047,0x00000000,0x0c000000,0x00000000,0x04003901,0x00000000,
	0x0c013008,0x00000000,0x20cead0a,0x00000000,0x05c00305,0x00000000,0x100e0e00,0x00000000,
	0xe04040b0,0x00000000,0x303905d1,0x00000000,0xad080955,0x00000000,0xc02d0ce0,0x00000000,
	0x02400900,0x00000000,0x0040c0a6,0x00000000,0x2c00000e,0x00000000,0xe00d000c,0x00000000,
	0x3003e250,0x00000000,0x02440000,0x00000000,0x00320038,0x00000000,0x500b016a,0x00000000,
	0x833d0008,0x00000000,0x20d2e2eb,0x00000000,0x1de00c1c,0x00000000,0x80300e50,0x00000000,
	0x322003b0,0x00000000,0x1029e054,0x00000000,0x06080000,0x00000000,0xc00f0c70,0x00000000,
	0xc0010405,0x00000000,0x0b00d00a,0x00000000,0xaa0e00c0,0x00000000,0xb1b60a04,0x00000000,
	0x0e0770c2,0x00000000,0x070f0400,0x00000000,0xd08df053,0x00000000,0x004a05f0,0x00000000,
	0x4e004f04,0x00000000,0x0100e0b0,0x00000000,0x068d200c,0x00000000,0x0003400c,0x00000000,
	0x6e007021,0x00000000,0x000e000b,0x00000000,0x50c7b040,0x00000000,0x34cd020d,0x00000000,
	0xe00040de,0x00000000,0x02501002,0x00000000,0x34040852,0x00000000,0x00000800,0x00000000,
	0x0ea03203,0x00000000,0x31e20a04,0x00000000,0x4b02b0c0,0x00000000,0x00043c40,0x00000000,
	0xcc20030a,0x00000000,0x00bb000e,0x00000000,0x10007003,0x00000000,0x8050090e,0x00000000,
	0x02cb50f0,0x00000000,0x80da0044,0x00000000,0x000f0e04,0x00000000,0xc053d060,0x00000000,
	0x00400ee6,0x00000000,0x00e0c540,0x00000000,0x004f2020,0x00000000,0x0b349072,0x00000000,
	0x60000300,0x00000000,0x0d040d70,0x00000000,0x00000a80,0x00000000,0x4e0b004a,0x00000000,
	0x0c000e50,0x00000000,0x007e00e0,0x00000000,0x90ee0030,0x00000000,0x000000d0,0x00000000,
	0xa0033423,0x00000000,0x00800eb3,0x00000000,0x5b000f0c,0x00000000,0xa2d278ad,0x00000000,
	0x00000e00,0x00000000,0x0d000000,0x00000000,0x0c68a000,0x00000000,0x00e40000,0x00000000,
	0xc0000005,0x00000000,0x0c0050e4,0x00000000,0x050f40e0,0x00000000,0x20d0cf00,0x00000000,
	0x07a00407,0x00000000,0x00200d00,0x00000000,0x40c00000,0x00000000,0x750f0050,0x00000000,
	0x08e03e0c,0x00000000,0x0000b040,0x00000000,0x000f3000,0x00000000,0xb6006330,0x00000000,
	0x0b5000ec,0x00000000,0x3000000c,0x00000000,0x7c3000d0,0x00000000,0x8b600e01,0x00000000,
	0xc4bce0f0,0x00000000,0xcd053000,0x00000000,0x0000000f,0x00000000,0x0d04f701,0x00000000,
	0xc0b60020,0x00000000,0x000c000d,0x00000000,0xe4060d54,0x00000000,0x8405000c,0x00000000,
	0xc29d6d45,0x00000000,0x00040b04,0x00000000,0x05020000,0x00000000,0x03020500,0x00000000,
	0x00404600,0x00000000,0xa0000050,0x00000000,0x00d5da00,0x00000000,0x0eb0d000,0x00000000,
	0x00e00064,0x00000000,0x0005dcd0,0x00000000,0xd052c297,0x00000000,0x82100400,0x00000000,
	0x01005007,0x00000000,0x0a200bf0,0x00000000,0x9a04c049,0x00000000,0x04060205,0x00000000,
	0x0eaced40,0x00000000,0x00000003,0x00000000,0x93c0480e,0x00000000,0xf000f030,0x00000000,
	0x2bd04009,0x00000000,0x00203a40,0x00000000,0x90000430,0x00000000,0x400930d2,0x00000000,
	0x02000000,0x00000000,0x08095203,0x00000000,0x00200000,0x00000000,0xd0000bc6,0x00000000,
	0xca020109,0x00000000,0x0000004f,0x00000000,0x06000406,0x00000000,0x0d540000,0x00000000,
	0x04f02406,0x00000000,0x00007c01,0x00000000,0x2580e000,0x00000000,0x00000e02,0x00000000,
	0x0000bd0d,0x00000000,0x2042a002,0x00000000,0x000e0240,0x00000000,0x000cb070,0x00000000,
	0x1d001430,0x00000000,0x20002074,0x00000000,0xc20008dd,0x00000000,0x00fb703b,0x00000000,
	0x05000b07,0x00000000,0x4000200d,0x00000000,0x5d0330ea,0x00000000,0xe00c50b5,0x00000000,
	0x30d0a0ce,0x00000000,0x00c44000,0x00000000,0x200c0e60,0x00000000,0x00e004d0,0x00000000,
	0xd0003074,0x00000000,0x00000100,0x00000000,0x0f030d80,0x00000000,0xb6b4200f,0x00000000,
	0xe00c0030,0x00000000,0x04000400,0x00000000,0x00040500,0x00000000,0x060ec00e,0x00000000,
	0xffa40000,0x00000000,0x006ec006,0x00000000,0x00005000,0x00000000,0x90040b00,0x00000000,
	0x39ed4b4e,0x00000000,0xe3600335,0x00000000,0xe0000460,0x00000000,0x000ed05e,0x00000000,
	0xc0400040,0x00000000,0x08033d01,0x00000000,0x3000bc0f,0x00000000,0xa2000de0,0x00000000,
	0x00000000,0x00000000,0x27000000,0x00000000,0x00400340,0x00000000,0x13ede500,0x00000000,
}; //first channel is topmost bit

// Layer: L3
// QuantType: 4bit
#define L3_active
#define L3_bitperweight 12
#define L3_incoming_weights 64
#define L3_outgoing_weights 64
const uint32_t L3_weights[] = {
	0xb2d2f020,0x00000000,0xf3fe1cf0,0x00000000,0xe0d19e0f,0x00000000,0x5e20320e,0x00000000,
	0xedee1cfe,0x00000000,0xe2d1f02b,0x00000000,0x122f320c,0x00000000,0x30f4eb2b,0x00000000,
	0xbc013101,0x00000000,0x6213f3ed,0x00000000,0xfcee11a0,0x00000000,0xc2fc11f3,0x00000000,
	0xf004ff53,0x00000000,0xc1f0f2c7,0x00000000,0xed112e21,0x00000000,0xdf02201d,0x00000000,
	0xefd00060,0x00000000,0xc0e4ddf0,0x00000000,0x40dfb100,0x00000000,0x3e13ed53,0x00000000,
	0xbe0e3eee,0x00000000,0x3e3130ed,0x00000000,0x12e0fef0,0x00000000,0x11dff0ff,0x00000000,
	0xf2d0d2ea,0x00000000,0xfb122132,0x00000000,0x1d4f03dd,0x00000000,0xcf1fffc2,0x00000000,
	0x2222fbcf,0x00000000,0x33302100,0x00000000,0x32d1e2eb,0x00000000,0xd21e0fb0,0x00000000,
	0x4f3b1f04,0x00000000,0x640bfe3e,0x00000000,0xfd11c11d,0x00000000,0xfe1cfc0e,0x00000000,
	0x3f001115,0x00000000,0xd1df0052,0x00000000,0x1b1f1d2b,0x00000000,0x410ea003,0x00000000,
	0x4301ee00,0x00000000,0xcd240321,0x00000000,0x012b32ff,0x00000000,0xa1014fdf,0x00000000,
	0xe1f23cfe,0x00000000,0xd15eb21f,0x00000000,0xdc23ddb1,0x00000000,0xf43fe0cf,0x00000000,
	0xc2fc20eb,0x00000000,0x3ffb1123,0x00000000,0xf0d3f0f2,0x00000000,0x2d0ebdd0,0x00000000,
	0x502f0f2c,0x00000000,0x111af221,0x00000000,0x20cf12d0,0x00000000,0x402b00fd,0x00000000,
	0xe1b221d1,0x00000000,0x12f01f10,0x00000000,0xe0b00204,0x00000000,0x3f0d4411,0x00000000,
	0xffc00f3d,0x00000000,0x0dc1ea12,0x00000000,0x11a1402f,0x00000000,0x2f220b20,0x00000000,
	0x21e0ddf1,0x00000000,0xfd43324f,0x00000000,0xf24f1d28,0x00000000,0xed23e0c1,0x00000000,
	0xebfb1023,0x00000000,0x01f2bf21,0x00000000,0x02ef1d2e,0x00000000,0xd21f001e,0x00000000,
	0x31223f2f,0x00000000,0xefe00bfb,0x00000000,0xcdfeb132,0x00000000,0xc2f2c2f0,0x00000000,
	0xef00f021,0x00000000,0xeebd13fe,0x00000000,0x02c10023,0x00000000,0x1bd3d112,0x00000000,
	0x11223df1,0x00000000,0xc30410cf,0x00000000,0xb21fb14c,0x00000000,0x12300e2e,0x00000000,
	0xb1eff11f,0x00000000,0x3f31340f,0x00000000,0x0df0b0e4,0x00000000,0xbe0f1413,0x00000000,
	0x10c222e9,0x00000000,0x02231f30,0x00000000,0xd40ed22f,0x00000000,0xcd124e33,0x00000000,
	0x8ee114de,0x00000000,0x1d21f3d1,0x00000000,0xe00f1210,0x00000000,0xfec14310,0x00000000,
	0xf1f1fddd,0x00000000,0x24fdf1f2,0x00000000,0xf1200c2c,0x00000000,0xde2deb10,0x00000000,
	0x0f2322bb,0x00000000,0x2c3e22ee,0x00000000,0x2a1f33fa,0x00000000,0x5e0d20f0,0x00000000,
	0x00fc433c,0x00000000,0xeefffdf0,0x00000000,0x2f8c2314,0x00000000,0xc0cde5a1,0x00000000,
	0x0222fcfe,0x00000000,0x33edf7f2,0x00000000,0x31efb104,0x00000000,0xe0ff11ee,0x00000000,
	0x2e0d31f0,0x00000000,0xd00c434d,0x00000000,0x2d21e0ed,0x00000000,0x03cefef1,0x00000000,
	0xfc0d2ef4,0x00000000,0xf2f10222,0x00000000,0xd4100fcf,0x00000000,0xce011fcd,0x00000000,
	0xe0ffe112,0x00000000,0xa80e0124,0x00000000,0x32311b1d,0x00000000,0x0ee2ec0f,0x00000000,
	0x2c2d3ed2,0x00000000,0x231023ea,0x00000000,0x013310be,0x00000000,0xe2ded1ee,0x00000000,
	0xe0122ed2,0x00000000,0x23300ff1,0x00000000,0x10f3ec0c,0x00000000,0x2c3fc21e,0x00000000,
	0xc1f2d0a2,0x00000000,0x4df41eef,0x00000000,0x1f3d40de,0x00000000,0x1e413e02,0x00000000,
	0x00001ef2,0x00000000,0xf3ce0eec,0x00000000,0x1eefe02f,0x00000000,0xe33d4361,0x00000000,
	0xeefff103,0x00000000,0x13fe0e32,0x00000000,0x03f14220,0x00000000,0xff12e0d2,0x00000000,
	0xf1d11eff,0x00000000,0x0cc3000d,0x00000000,0xbd23d3fd,0x00000000,0x100130e2,0x00000000,
	0x0ecefa21,0x00000000,0x5ef240e1,0x00000000,0xf41e3edf,0x00000000,0x1ed50200,0x00000000,
	0x2e3f1113,0x00000000,0x4f0b0204,0x00000000,0x0c222a19,0x00000000,0xe0ed11fd,0x00000000,
	0x2e00f133,0x00000000,0xff204e22,0x00000000,0xef510e0f,0x00000000,0x3e24f1e2,0x00000000,
	0x0f00fffe,0x00000000,0x0f00f01f,0x00000000,0x00e0f00f,0x00000000,0x0e00f11e,0x00000000,
	0xff0eff00,0x00000000,0x0e1e11fe,0x00000000,0xffffffff,0x00000000,0xefe00f0f,0x00000000,
	0x2022e010,0x00000000,0x44e0ef02,0x00000000,0x40203e2a,0x00000000,0x0d10e00b,0x00000000,
	0x220092f3,0x00000000,0x6ef16101,0x00000000,0x003c0e0c,0x00000000,0x1ce221f2,0x00000000,
	0x2414edf0,0x00000000,0xff3f2000,0x00000000,0xf2412f10,0x00000000,0xde225be0,0x00000000,
	0x10e1c351,0x00000000,0x125face3,0x00000000,0x0a4dfa3c,0x00000000,0x13f01010,0x00000000,
	0x0ddf12db,0x00000000,0xd1010e2f,0x00000000,0x111e821d,0x00000000,0xf1f22a23,0x00000000,
	0x9ed01fd2,0x00000000,0x1f0f42ff,0x00000000,0xe5e012dd,0x00000000,0xffd02e1e,0x00000000,
	0x20111bdb,0x00000000,0xe2c00012,0x00000000,0x32dce102,0x00000000,0xb20ee9ef,0x00000000,
	0xfe11003f,0x00000000,0x33112220,0x00000000,0xde03ed10,0x00000000,0x20daf232,0x00000000,
	0xe4e34100,0x00000000,0x1df05024,0x00000000,0x0d0f5213,0x00000000,0x3dcb1bdf,0x00000000,
	0x12e13e10,0x00000000,0x1d2bf000,0x00000000,0x2fff3ed0,0x00000000,0x531cfcdd,0x00000000,
	0xf23201e2,0x00000000,0xf256e212,0x00000000,0x8f2b5e12,0x00000000,0xdf43f010,0x00000000,
	0xafbc2e11,0x00000000,0xa12fde31,0x00000000,0xee500ea9,0x00000000,0xef41011f,0x00000000,
	0xecfcee1b,0x00000000,0x2e1212ea,0x00000000,0x11fe11d2,0x00000000,0xb2f2de11,0x00000000,
	0x022210fe,0x00000000,0x41fed31f,0x00000000,0x0da30033,0x00000000,0xf132e23f,0x00000000,
	0x035932f1,0x00000000,0x2010decf,0x00000000,0xfff121f3,0x00000000,0xe11b550c,0x00000000,
	0x312ceed1,0x00000000,0xd1bd11ee,0x00000000,0x4ffe32f0,0x00000000,0x2e2e1020,0x00000000,
	0x0a20d45e,0x00000000,0xedbec2d2,0x00000000,0x210132f1,0x00000000,0x21dfd032,0x00000000,
	0x3030fe00,0x00000000,0xf1df18e0,0x00000000,0x0214f2c2,0x00000000,0xf29fe0ee,0x00000000,
	0xf4ee02d2,0x00000000,0x133d315d,0x00000000,0xaef011f1,0x00000000,0x00c1ef30,0x00000000,
	0xf4c1ef3d,0x00000000,0x9ebb9910,0x00000000,0x10dd4f01,0x00000000,0x503f3f0d,0x00000000,
	0x1800fc01,0x00000000,0x11d2f3ff,0x00000000,0x001042f2,0x00000000,0xb2f2200f,0x00000000,
	0x0403ec22,0x00000000,0x11dda0e3,0x00000000,0xdd13110f,0x00000000,0x12e1e121,0x00000000,
	0x04f3e0ff,0x00000000,0xd03131e0,0x00000000,0xd34e4210,0x00000000,0x18f2c2f3,0x00000000,
	0x1ef00e00,0x00000000,0x011cedd1,0x00000000,0x3e30fdc2,0x00000000,0xf45e0b0a,0x00000000,
	0x5e032034,0x00000000,0xde1b531f,0x00000000,0xed4ddebb,0x00000000,0xf2fc13db,0x00000000,
	0xd0e20b12,0x00000000,0x1d032000,0x00000000,0xfd0feca3,0x00000000,0xb122ef01,0x00000000,
	0xfd401235,0x00000000,0x30bf2ece,0x00000000,0x1e12f0f1,0x00000000,0x111ee3ff,0x00000000,
	0x04d09e01,0x00000000,0x09d31ee0,0x00000000,0xd0dbc132,0x00000000,0x0b11ef12,0x00000000,
	0x1e4f2035,0x00000000,0x1e0e12fe,0x00000000,0x2ef2addb,0x00000000,0x02ff0000,0x00000000,
	0xe1f10f11,0x00000000,0xccf3f1df,0x00000000,0xffd1c252,0x00000000,0xee1ec200,0x00000000,
	0x0e304e42,0x00000000,0xfde0bbde,0x00000000,0x03feed21,0x00000000,0x0f3335f2,0x00000000,
	0xf20de4e3,0x00000000,0xd031f611,0x00000000,0xfe3eebf2,0x00000000,0xe2f1c122,0x00000000,
	0x010013ce,0x00000000,0x022f1201,0x00000000,0x00d44f01,0x00000000,0x1c11f1ff,0x00000000,
	0x22f020f0,0x00000000,0xb1b0c80d,0x00000000,0x300f24cc,0x00000000,0x7e2e1ff0,0x00000000,
	0x1d2cef13,0x00000000,0x0ee5021f,0x00000000,0xec2f21ed,0x00000000,0xe58f12c4,0x00000000,
	0x1c1211f2,0x00000000,0xe1b01ff4,0x00000000,0xce11dde2,0x00000000,0x04e2b2ec,0x00000000,
	0xe321f2e2,0x00000000,0xd344ff01,0x00000000,0xcddfbf1b,0x00000000,0x30310003,0x00000000,
	0xaed00ded,0x00000000,0xec13ee6f,0x00000000,0x12fe3001,0x00000000,0x0e321e2f,0x00000000,
	0xdfd0edfe,0x00000000,0x03110dce,0x00000000,0x0290202d,0x00000000,0xd03ee322,0x00000000,
	0xfe0fc1ae,0x00000000,0x3fd04de0,0x00000000,0xf30e423e,0x00000000,0x4ef0431f,0x00000000,
	0x0fd0dc0e,0x00000000,0xf0eb1ef0,0x00000000,0x14d2ff10,0x00000000,0x1cf1fb1e,0x00000000,
	0x214d21ef,0x00000000,0x305e142f,0x00000000,0xf00e400f,0x00000000,0x220f2e02,0x00000000,
	0xffff3010,0x00000000,0x0df0430d,0x00000000,0xfdff2b9f,0x00000000,0xe4d920b1,0x00000000,
	0x0e000d13,0x00000000,0xf10013e2,0x00000000,0xb021cb02,0x00000000,0xfe131ffd,0x00000000,
	0xe1d1131d,0x00000000,0xfdc3afc2,0x00000000,0x0032012e,0x00000000,0x132fbfdf,0x00000000,
	0x2e4d0f2e,0x00000000,0x2ff04fad,0x00000000,0x34e1a3dc,0x00000000,0xee1e1f00,0x00000000,
	0xce1f0011,0x00000000,0x3fd3f1d3,0x00000000,0x0ebee0af,0x00000000,0x1f0ed011,0x00000000,
	0xe1043b2b,0x00000000,0x23e0f400,0x00000000,0xc114ff02,0x00000000,0x20faf204,0x00000000,
	0xcbe030e0,0x00000000,0x5fc1012f,0x00000000,0x1c0d2180,0x00000000,0x10fcff0f,0x00000000,
	0x2132f01d,0x00000000,0x1aff1de5,0x00000000,0x1e0bd302,0x00000000,0x0e21f964,0x00000000,
	0x2c0d123d,0x00000000,0xe0fc0cdf,0x00000000,0x21c02131,0x00000000,0x03e0ce11,0x00000000,
	0x1b0ad22f,0x00000000,0x02a21f0e,0x00000000,0x01d02f40,0x00000000,0x2f81c521,0x00000000,
	0xf0def43e,0x00000000,0x0bbfd104,0x00000000,0x61d300fc,0x00000000,0x0c0ece1f,0x00000000,
	0x2f2c0dfd,0x00000000,0x4e131101,0x00000000,0xde21040d,0x00000000,0xefed33d3,0x00000000,
	0x22f2de0f,0x00000000,0xfd311df0,0x00000000,0x000d5142,0x00000000,0xc04f0fbe,0x00000000,
	0x111d9f2f,0x00000000,0x4d1df22e,0x00000000,0x2d0cb11f,0x00000000,0x302f1011,0x00000000,
	0xdfd4f311,0x00000000,0xdd0e054f,0x00000000,0x13e1b0cf,0x00000000,0x2f02fdf4,0x00000000,
	0xfef03b1f,0x00000000,0x2301222d,0x00000000,0xf31230d2,0x00000000,0xe3d02fef,0x00000000,
	0x2011e004,0x00000000,0xe400001f,0x00000000,0xbf20bf0b,0x00000000,0x03e22b90,0x00000000,
	0xb1c220d1,0x00000000,0xa3f0282e,0x00000000,0x212f21ea,0x00000000,0xd134fb1b,0x00000000,
	0x30fc21be,0x00000000,0x050d02eb,0x00000000,0xf1f2fef3,0x00000000,0x0fe4e4c3,0x00000000,
	0x1f21fe12,0x00000000,0x02ce002e,0x00000000,0x42ede31d,0x00000000,0x1f21111f,0x00000000,
	0xe0e202e0,0x00000000,0xff300041,0x00000000,0x0fffef02,0x00000000,0x011f1001,0x00000000,
	0x208d40e1,0x00000000,0xe2bf2c3f,0x00000000,0x141f41f2,0x00000000,0x11142d4e,0x00000000,
	0xe1f22dfb,0x00000000,0xbbeee2f3,0x00000000,0x23df23e4,0x00000000,0xc2ed2dff,0x00000000,
	0x02ef1cbe,0x00000000,0x2e232cff,0x00000000,0xbf11c3cf,0x00000000,0xc12ffbc3,0x00000000,
	0x4f1b1014,0x00000000,0xf21f513f,0x00000000,0x3c240eec,0x00000000,0xbfcf0122,0x00000000,
	0x1b1f0234,0x00000000,0xce01f022,0x00000000,0xa01dfc2f,0x00000000,0x2e10e22d,0x00000000,
	0x2fe1ef2d,0x00000000,0x23e53b24,0x00000000,0x5ef2421c,0x00000000,0xce0cf1e1,0x00000000,
	0x0212e2b1,0x00000000,0x1b0020a4,0x00000000,0xfcefcf2d,0x00000000,0x2fbc2fc3,0x00000000,
	0xceecd1fd,0x00000000,0xd8fe0143,0x00000000,0x33a01f00,0x00000000,0x4b01102d,0x00000000,
	0x1b3d2d30,0x00000000,0xd09ef2ff,0x00000000,0x045200ac,0x00000000,0xd0d2e0de,0x00000000,
	0x2b0cfb2d,0x00000000,0xbda2b4ee,0x00000000,0x63001103,0x00000000,0xe2f1d1c2,0x00000000,
	0xda32fe11,0x00000000,0xe10fd1e1,0x00000000,0x1ff1b0f1,0x00000000,0x0d3ae40e,0x00000000,
	0x1f205fe1,0x00000000,0xf130fd0b,0x00000000,0xf10df004,0x00000000,0x132004fe,0x00000000,
	0x0e0bb0fb,0x00000000,0x1100d0fe,0x00000000,0x1bdf0c13,0x00000000,0x10ffe142,0x00000000,
	0x02221314,0x00000000,0x0f0e40f1,0x00000000,0xff00feee,0x00000000,0x10efe211,0x00000000,
	0xf4bf0ec2,0x00000000,0x0de5fdd3,0x00000000,0xb0202122,0x00000000,0x2ffc1f10,0x00000000,
	0x1f2eff20,0x00000000,0x3132ee0e,0x00000000,0xfece4225,0x00000000,0xdf4004f1,0x00000000,
	0x11ef0012,0x00000000,0xf5ede522,0x00000000,0x01001d03,0x00000000,0x04e2e32d,0x00000000,
	0x210ce41f,0x00000000,0xcd1f01e0,0x00000000,0x14e11105,0x00000000,0x0024c1de,0x00000000,
	0xf00ab410,0x00000000,0x51f22f40,0x00000000,0x11dcc022,0x00000000,0x13ee1232,0x00000000,
	0x393dcf11,0x00000000,0xdd1aee12,0x00000000,0x036e29f9,0x00000000,0xe1e375df,0x00000000,
	0xffdc0220,0x00000000,0xa1ff3202,0x00000000,0xd04ffa0f,0x00000000,0x1303b20e,0x00000000,
	0x2a3412fe,0x00000000,0xe1002f3f,0x00000000,0xa33fb1ea,0x00000000,0x3f021e11,0x00000000,
	0x11c1ed20,0x00000000,0xeef1cd8f,0x00000000,0xdc50dfd2,0x00000000,0xc22320d1,0x00000000,
}; //first channel is topmost bit

// Layer: L4
// QuantType: 4bit
#define L4_active
#define L4_bitperweight 12
#define L4_incoming_weights 64
#define L4_outgoing_weights 10
const uint32_t L4_weights[] = {
	0xf0d204c0,0x00000000,0x20a3fee4,0x00000000,0xbe010d3f,0x00000000,0xe02fedd0,0x00000000,
	0x4d0ecbd3,0x00000000,0xf0ddeec0,0x00000000,0xb03ddee2,0x00000000,0xfee0eb03,0x00000000,
	0xd3ec4ce3,0x00000000,0x0dfbfdc0,0x00000000,0xf213f03e,0x00000000,0x1e031122,0x00000000,
	0xf9dc402b,0x00000000,0xedde10df,0x00000000,0x0ddffe1b,0x00000000,0x1bff1e5f,0x00000000,
	0xe1f0e2e1,0x00000000,0x0ff133df,0x00000000,0x1bfe0ecc,0x00000000,0x3113e2d2,0x00000000,
	0x0d2fdd3f,0x00000000,0xef1d23ce,0x00000000,0xc0dfe4e0,0x00000000,0xe3d11fbf,0x00000000,
	0xede20e33,0x00000000,0xeeee10ee,0x00000000,0xeeed0ffc,0x00000000,0x040f3f4d,0x00000000,
	0xeedd03ed,0x00000000,0x21e31fee,0x00000000,0x01d41efd,0x00000000,0xd2010eef,0x00000000,
	0xde0dc0fc,0x00000000,0xf11eddee,0x00000000,0x2fe102dd,0x00000000,0xcef010df,0x00000000,
	0xd4340ffe,0x00000000,0x0d1d1f32,0x00000000,0xef0fc0f1,0x00000000,0xee12d2c3,0x00000000,
	0x4f2f0ed2,0x00000000,0x02b2fd1e,0x00000000,0x13000ef2,0x00000000,0xcfcecc10,0x00000000,
	0xefef11e3,0x00000000,0x2fe1fffd,0x00000000,0xe212300d,0x00000000,0xded0fddd,0x00000000,
	0x02f10fdd,0x00000000,0x4defde42,0x00000000,0xbe120ce3,0x00000000,0xe0ed1efc,0x00000000,
	0xf2d2ea2f,0x00000000,0xca40cdcc,0x00000000,0x914a1051,0x00000000,0x00e0bffd,0x00000000,
	0xbecded1e,0x00000000,0x2420f3de,0x00000000,0x0f0c0e2d,0x00000000,0x2e3021d2,0x00000000,
	0xce001d02,0x00000000,0xf1defb2f,0x00000000,0x2c11febf,0x00000000,0x1f4e23d1,0x00000000,
	0x20300e0d,0x00000000,0xdd3eed12,0x00000000,0xdfdf0d00,0x00000000,0xfffbd2fe,0x00000000,
	0x2ee220ee,0x00000000,0xc2f31d01,0x00000000,0xd2de02fe,0x00000000,0x4deffeec,0x00000000,
	0xddf1d1fe,0x00000000,0xc1214dfd,0x00000000,0x203013f1,0x00000000,0xfdebef00,0x00000000,
	0xe1edd1e1,0x00000000,0x23f0ee22,0x00000000,0x3fdeedc3,0x00000000,0xddfcf102,0x00000000,
}; //first channel is topmost bit

#endif
