// Automatically generated header file
// Date: 2024-04-17 10:36:13.667413
// Quantized model exported from a11_Opt12k_cos_Aug_BitMnist_PerTensor_4bitsym_RMS_width64_64_0_lr0.001_decay0.1_stepsize10_bs128_epochs60.pth
// Generated by exportquant.py

#include <stdint.h>

// Layer: L1
// QuantType: 4bitsym
#define L1_active
#define L1_bitperweight 4
#define L1_incoming_weights 256
#define L1_outgoing_weights 64
uint32_t L1_weights[] = {0x12112, 0x30898811, 0x22000002, 0x540cca02, 0x218989a0, 0x55aefd02, 0x11888a99, 0x75affd01, 0x280990b8, 0x77fff032, 0x118080b8, 0x73ff9422, 0x21088899, 0x79f92211, 0x20000000, 0x49842010, 0x888890, 0x89010900, 0x11010100, 0x91001201, 0x1808091, 0x801080, 0x10818092, 0x801aa098, 0x20088890, 0x80899998, 0x21010088, 0x89809c98, 0x20000800, 0x9889801, 0x108888, 0x10999011, 0x9a800811, 0xaacca9a8, 0xa9813677, 0x589acb9a, 0x90146777, 0x75310cba, 0x9a233354, 0x57740aba, 0x99109adc, 0xb36641a9, 0x8989cddc, 0xacc80289, 0x98a90838, 0x8a880098, 0x80091219, 0x99898a90, 0x80098998, 0x10980890, 0x88899080, 0x888a088, 0x88aa8008, 0x89889108, 0x8800888, 0x8890900, 0x911100, 0x9919018, 0x98819080, 0x98820998, 0x99019822, 0x81019889, 0x99980090, 0x1888888, 0x220128c, 0xdd888012, 0x1023311e, 0xfffa8011, 0x22234021, 0xfffe9810, 0x13221330, 0xcffda00, 0x22201213, 0x18dffb92, 0x320a9812, 0x18bffc80, 0x22800988, 0x110cfe80, 0x22122100, 0x2018eb20, 0x22000980, 0x10c908, 0x1899a808, 0x81882, 0x28098008, 0x800, 0x20900028, 0x888880, 0x981008, 0x8800, 0x1080010, 0x88080980, 0x12800088, 0x8008910, 0x2008080, 0x1012000, 0x99aa999a, 0x88088998, 0xa9a9cb92, 0x99898, 0x98bab802, 0x10000988, 0x9aa81220, 0x10988a8, 0xaaa80239, 0x2a89a81, 0x9998854d, 0xa908aa81, 0x9801373f, 0xe9308991, 0x1230176f, 0xe9080100, 0x1431254c, 0xb8980900, 0x433449e, 0x90a08b08, 0x1246320b, 0x88888809, 0x2330128a, 0x9a98099a, 0x11180318, 0x8801899, 0x1200418, 0x88a08899, 0x98031810, 0x908a89a, 0x89890802, 0x11999aaa, 0x99a09113, 0x564189aa, 0x8a8a8988, 0x3676328a, 0x99998abb, 0xc2777509, 0x99ba999a, 0xcc577618, 0x9ccbca99, 0xad977731, 0xabbbaa89, 0xbea36422, 0xa8012898, 0x9ab02122, 0x4320988, 0x8b112200, 0x1229b989, 0xa80080b8, 0x88890099, 0x88110881, 0x80880008, 0x8001010, 0x98000110, 0x88008008, 0x90831089, 0x89908000, 0x98811018, 0x89a99009, 0x8a880180, 0x80998999, 0x88989008, 0x89a88a9, 0xaaa88008, 0x811099a9, 0x8b913419, 0x11209a9b, 0x9882528a, 0x21890a99, 0x910474c0, 0x2899aaaa, 0x912375e0, 0x18a089a8, 0x833672f8, 0x2b88120a, 0x4367ef9, 0x39088118, 0x3047ef0, 0xa09a988, 0x1213ac0, 0x1b1a9aaa, 0x112109a8, 0x9899a8ba, 0x209828a, 0x88988898, 0x2081280, 0x80011109, 0x90a11002, 0x9809388, 0xa8801818, 0x89009a, 0x98980109, 0x11b00999, 0x99898881, 0x11a88a99, 0x88180999, 0x10001100, 0x81088a89, 0x80021018, 0x8898118, 0x80188a01, 0x10889899, 0xb8009111, 0x81131109, 0x9a800880, 0x80812288, 0xb9880889, 0x800a90a0, 0x8b9aa800, 0x1a1090, 0x9a90221, 0x80029a3, 0x2a118333, 0x88010fa7, 0x28218001, 0x18aeff57, 0x1800ab91, 0xadffd75, 0x108abc98, 0x8abfe812, 0x32089922, 0x9ada103, 0x44212341, 0x89d902, 0x25354421, 0x80090881, 0x12354210, 0x80800890, 0x2211200, 0x898008, 0x23221110, 0x9080309, 0x11112028, 0x88011010, 0x1100881, 0x8bba0990, 0x111901, 0x9bca88a8, 0x33000211, 0x8acbca08, 0x42322433, 0x99cefce, 0x37288142, 0x90089bff, 0xe4330900, 0x9801228f, 0xf8441088, 0xa99a1199, 0xcc321208, 0x9b8bba9a, 0xaa112329, 0x9ca00808, 0xaaa14189, 0x889ab989, 0x8aa14109, 0x89a909, 0x98923219, 0x18089b99, 0x99001118, 0x111010, 0x20100088, 0x8080122, 0x10089080, 0x88acc, 0xcdcba989, 0x9bff, 0xfffebc98, 0x1022321, 0x83810098, 0x11277, 0x77528208, 0x12810800, 0x20010220, 0x1a80aac, 0xb9080111, 0x89989902, 0x81000011, 0x8b, 0x99880080, 0x80000010, 0x8880181, 0xa91101, 0x18080800, 0x90998a9, 0x98800800, 0x11108010, 0x80888808, 0x10089801, 0xa8810808, 0x180181, 0x21000011, 0x12001898, 0x13210112, 0x189aaaa0, 0x2108aa81, 0x8aec882, 0x208cfd98, 0xadf8120, 0xaddb8988, 0xbfe8389, 0xba924333, 0x8cff370a, 0x32253474, 0x9acd36b8, 0x23120247, 0x18bb2609, 0xabca03, 0x880839a, 0x880b8a80, 0x8988019a, 0x808aa90, 0x89981199, 0x8aa98881, 0x81a80881, 0x908a8020, 0x8a11128, 0x91098821, 0x9090012, 0x818a9021, 0x11108980, 0x20000110, 0x11088801, 0x10012012, 0x21208012, 0x2210111, 0x21080998, 0x12418980, 0x20898889, 0x353ac88, 0x9098bb, 0x3749dba, 0x1818808a, 0xc7759ee9, 0x1810088b, 0xf770efe9, 0x888880c, 0xb769ff80, 0x999, 0x52de032, 0x202808, 0x28a1221, 0x11880089, 0x1012102, 0x21881180, 0x88118010, 0x31088898, 0x80001880, 0x13800001, 0x89800a88, 0x12098999, 0x999b90, 0x11181191, 0x809a981, 0x2888888, 0x99888011, 0x10888088, 0x8008008, 0x80889899, 0x900112, 0x10a8a008, 0x99088101, 0x8988890, 0x88000800, 0x9a90980, 0x1002800, 0x8880008a, 0xa9980089, 0x80a11000, 0x89b890ab, 0x88898888, 0x9a989eeb, 0x909a082, 0x80bfffda, 0x89818888, 0x22101811, 0x11110, 0x45777775, 0x88089, 0x85777775, 0x890808a, 0xcc036772, 0x8901018, 0xadfc9811, 0x10810800, 0x9fedb81, 0x10808008, 0x909ac998, 0x80808889, 0x80990999, 0x880908b9, 0x188a9000, 0x88aacb, 0x1100a89, 0x889b099a, 0x20089900, 0x98a9a981, 0x32111080, 0x90891810, 0x2181300, 0x88900199, 0x12018100, 0x810090b, 0xbb988821, 0xaa18, 0xcfcb1342, 0x898aa034, 0x8cc80100, 0x99a102, 0x29bc99a1, 0x33899218, 0x221bda03, 0x34440232, 0x33318231, 0x13441455, 0x55753431, 0x80102503, 0x21334331, 0x8889acab, 0x99012108, 0x9090880, 0x80889, 0x99811080, 0x12010808, 0x91180008, 0x81080010, 0x1808021, 0x21881809, 0x80000008, 0x2810080, 0x1223218b, 0x90928110, 0x82332189, 0x1543418, 0x8989814, 0x4425228a, 0x8aaca813, 0x31088aba, 0x9cca8334, 0x30aaa8ba, 0xaacaa822, 0x21808019, 0xa9dbcccb, 0x81000a09, 0x89999aba, 0x908089a8, 0x88008880, 0x19808ab9, 0x1101, 0x100199a8, 0x80011008, 0x18a998a9, 0x1181908, 0x18801881, 0x11990008, 0x880101, 0x18098019, 0x80000088, 0x88998088, 0x80990801, 0x18910888, 0x80018090, 0x10118200, 0x8000990, 0x11001009, 0x89888980, 0x898881, 0x8810890a, 0x18998801, 0xb9188010, 0x8024644a, 0xd0200108, 0x22669ff, 0xb30a8081, 0x1111ffff, 0x33980000, 0xbffff1, 0x60008001, 0x9bdffe85, 0x1219a880, 0x19bba842, 0x21200801, 0x9890120, 0x23201881, 0x10081011, 0x8010000, 0x1011188, 0x8a808081, 0x11100908, 0x11180301, 0x8880a100, 0x8800800, 0x19099898, 0x80099901, 0x8880000, 0x80008800, 0x88800110, 0x9081180, 0x880100a9, 0x88888000, 0x8a010899, 0x20198008, 0x89c90465, 0x2a988089, 0x8afffffa, 0xb9008888, 0x8acfffff, 0xb1208089, 0x1810bb03, 0x42000800, 0x12255773, 0x18000800, 0x22232321, 0x81000001, 0x11210a9a, 0x98a01211, 0x11111222, 0x22322201, 0x12222032, 0x11100012, 0x2121002, 0x91101901, 0x21081021, 0x11008080, 0x22908002, 0x210000, 0x1280224, 0x21210980, 0x22081101, 0x3221988, 0x12342989, 0x81263100, 0x2101, 0x23220001, 0x9991354, 0x454188a0, 0x8acddccb, 0x9dffeec9, 0x8aabbeff, 0xfffffec9, 0x9899aba, 0xdcdebcb8, 0xba899a, 0x9989aa88, 0x818999, 0x80298908, 0x18818080, 0x888810, 0x80212111, 0x18981180, 0x23428, 0x98981200, 0x200880, 0x8a818120, 0x1808a88a, 0x98188901, 0x8ab9802, 0x42a800a8, 0x99803263, 0xaf9350b8, 0x92389ef, 0xe1672beb, 0x89cdee8, 0x7740ded9, 0x8da9036, 0x30ccd980, 0x11134311, 0xa9998221, 0x1101899, 0x88900922, 0x11010109, 0x11810012, 0x8818, 0x80802103, 0x9098a88, 0x98008000, 0x11000110, 0xa1908880, 0x2188899, 0x98089000, 0x31121210, 0x120321, 0x42221888, 0x9008021, 0x2201028a, 0xa99a8811, 0x12281199, 0x189033, 0x12202102, 0x34344123, 0x23392021, 0xafffdc91, 0x21180010, 0x30dfffd9, 0x11909900, 0x1568dcc0, 0x38890218, 0xa2551b91, 0x20802810, 0xc0331a10, 0x31881018, 0x82321913, 0x22008991, 0x37411a13, 0x228a0b80, 0x25229c82, 0x35428820, 0x8acba11, 0x24302335, 0x80131, 0x3443180a, 0x18812112, 0x12102018, 0x88080202, 0x880988, 0x80080101, 0x10898110, 0x989811, 0x1090980, 0x80008800, 0x29090889, 0x9098880, 0x218008a0, 0x98088888, 0x88809909, 0x90888880, 0x8a90080, 0xa918a81, 0x9809881, 0x8a89001, 0x20880180, 0x18a90233, 0x1428899a, 0xaa801233, 0x14621188, 0x33656432, 0x12144567, 0x77763008, 0x18082411, 0x108aaa88, 0x8bdeeff, 0xffffeb81, 0x2098dfff, 0xfffdc800, 0x99898010, 0x8008090, 0xa9013343, 0x22111088, 0x88146331, 0x21241808, 0x98254410, 0x25110800, 0x1245511, 0x20000090, 0x81545520, 0x83339ada, 0x82401825, 0x672dffd9, 0x80089935, 0x2dffebba, 0x99800889, 0xfeea0018, 0x981090bf, 0xc8980101, 0x9002099c, 0x99909029, 0x98898800, 0x8981889, 0x89aa898a, 0x98810988, 0x98988888, 0x8808aa99, 0x8998080a, 0x9089aa9a, 0x98a8bbaa, 0x99898a99, 0xaaaa9a89, 0x9baa99a9, 0xaa998801, 0x89998009, 0xbb989800, 0x9121019, 0xaaa08883, 0x12300121, 0xa8808024, 0x12212120, 0x89988132, 0x89908921, 0x88900221, 0xa99888, 0x80011131, 0x81232118, 0x80212188, 0x2320aa00, 0x1333208, 0x908a9011, 0xa1042418, 0xbb9a8018, 0x99088218, 0x89909228, 0x98800100, 0x9801318, 0xa9080180, 0x90118a, 0x9a808010, 0x8889088b, 0xaa988989, 0x80099a99, 0x21201aa9, 0x90241310, 0x3209de8, 0x22112212, 0x1200efd1, 0x28131882, 0x2419ff94, 0x3020a981, 0x221cff16, 0xa8a8890, 0x132dff17, 0x8c181001, 0x111bfb37, 0xab280083, 0x1118ba66, 0xd9180101, 0x2101a862, 0xd0180880, 0x19a012a, 0x98198090, 0x9a819a, 0x88808000, 0x800000, 0x8810181, 0x88989800, 0x80808001, 0x1098812a, 0x1880800, 0x128a0810, 0x80989811, 0x20001888, 0x88080011, 0x12011088, 0x8080001, 0x11110000, 0x8898088, 0x10002001, 0x880100, 0x10808100, 0x2202101, 0x9811121, 0x10088000, 0x8821100, 0x8911020, 0x8a912222, 0x11288228, 0xafeb224, 0x10818800, 0x19effffc, 0xaa080a98, 0x10bffff, 0xdbaaa890, 0x1347643, 0x18989088, 0x10882110, 0x8b988889, 0x89a9a8, 0x8a088888, 0x819810, 0x1a9aa801, 0x80880200, 0x89bb8001, 0x1800820, 0x9aa88121, 0x81002102, 0x1110101, 0x1010420, 0x101808, 0x8200022, 0xa08a010, 0x12211800, 0x18800000, 0x18800, 0x8998998, 0x8901222, 0x82288119, 0x89a08034, 0x266231, 0x111145, 0xffff1100, 0x140233, 0xcffffcba, 0x10981380, 0x8afffdb, 0x189a999a, 0x8919eecc, 0x23208088, 0x18cea, 0x111809, 0x80310ab8, 0x10989008, 0x98022a81, 0x18800189, 0x80810081, 0x810808, 0x880018, 0x990890a9, 0x88188900, 0x99988899, 0x10228088, 0x99800999, 0x80000809, 0x98011989, 0x80120899, 0x89808990, 0x80811890, 0x8a0a0009, 0x8a211000, 0xaa98918a, 0xad431318, 0x99118999, 0x9f043540, 0x891888a3, 0xbf931441, 0x808a9083, 0xdf853251, 0x899b8080, 0xff644228, 0x8990189b, 0xd3733231, 0x89929999, 0x94233108, 0x9898bab9, 0x15428a88, 0x98980198, 0x24308908, 0x99008a9a, 0x92101088, 0x8811031, 0x8809980, 0x8080008, 0x90888818, 0x99898, 0x89090018, 0x88810018, 0x108088, 0x988810, 0x88880810, 0x88080088, 0x90180801, 0x800981, 0x10000010, 0x899000, 0x990aa00, 0x2008012, 0x1000881, 0x24121801, 0x18880800, 0x1112554, 0x2aa09808, 0x8cbaaeff, 0xfd980008, 0x9dcfffff, 0xf0210112, 0x9bffff8, 0x51800120, 0x8098166, 0x80800118, 0x10237541, 0x21101108, 0x1232010, 0x8990100, 0x20112200, 0x11080911, 0x234221, 0x89881881, 0x898980, 0x80a00, 0x8beb8aa, 0xa8080880, 0x8a910133, 0x34108808, 0x89057541, 0x990800a, 0xaadfffff, 0xfa811200, 0x9efffff9, 0x32290808, 0x9a990575, 0x800890, 0x10421008, 0x80918000, 0x1422088, 0x88899011, 0x12100108, 0x8198880, 0x800, 0x18080800, 0x8889a99, 0x19981082, 0x1190008, 0x8881022, 0x8818098, 0x90010201, 0x88888089, 0x88118108, 0x10000880, 0x8180021, 0x82318881, 0x80200111, 0x3280080, 0x80011102, 0x11808a8, 0x2010099, 0x4543333, 0x100089a9, 0x25677758, 0x9a889a9a, 0x8108eff, 0x8888888, 0x9cfffff1, 0x10802008, 0xbffffb21, 0x10098000, 0x9ddc02a8, 0x88a8a908, 0x9a810810, 0x80008000, 0x18221080, 0x11110821, 0x110808, 0x19000080, 0x81889, 0x88988801, 0x22210018, 0x8a808002, 0x20000989, 0x98908880, 0x11098008, 0x10200988, 0x21888081, 0x30080, 0x10801aaa, 0x80a90018, 0x19809ab0, 0x89099091, 0x8aca9113, 0x8108a90, 0x208affc1, 0x51001081, 0x1423dfff, 0xe8888310, 0x16773ff, 0xb9020298, 0x8a823675, 0x42109091, 0xac0a991, 0x10280988, 0x10fa9221, 0x2280b01, 0x23801188, 0x988aba01, 0x121219a8, 0x9989012, 0x22188000, 0x98908102, 0x12211010, 0x13021122, 0x22218080, 0x9011211, 0x11210a88, 0x1a128890, 0x3321198a, 0x88000b91, 0x30020081, 0x1811ab80, 0x11889098, 0x29acdb83, 0x8103190, 0x38cc9801, 0x18180288, 0x4acc8131, 0x10018812, 0x7aa92112, 0x11331016, 0x4ea8a182, 0x2221ac87, 0x2fc28010, 0x2189bc26, 0x2ee99000, 0x28abd931, 0x30ca9801, 0xaba101, 0xac9801, 0x109b8020, 0x19b9010, 0x21098213, 0x80002, 0x21343466, 0x55432213, 0x13322112, 0x22111213, 0x32138091, 0x10189810, 0x13298880, 0x81900810, 0x11190000, 0x881, 0x20080880, 0x20888890, 0x28900010, 0x81100220, 0x20119888, 0x89800332, 0x21080081, 0x89000122, 0x32111022, 0x18000121, 0x32210011, 0x42210899, 0x8910242, 0x71110cea, 0xacba9ce, 0xfffeffeb, 0x89dfffff, 0xfffeffc9, 0x109cefff, 0xfea99802, 0x32808880, 0x102233, 0x11120809, 0xb9890220, 0x201188cf, 0xc9088801, 0x22009cff, 0xb99a8101, 0x9afff, 0x9ab81901, 0x18afffc, 0x2080101, 0x109dffe1, 0x12200032, 0x8cffd25, 0x3a880024, 0x1acdb012, 0x2a8a9134, 0x1aa80898, 0x8082242, 0x19911, 0x11210210, 0x100000aa, 0x21889991, 0x1922080, 0x30089b82, 0x1a10209, 0x88818802, 0x10810818, 0x89180002, 0x11110101, 0x20018022, 0x2120100, 0x2211202, 0x31101080, 0x99980122, 0x22109999, 0x8890801, 0x8099888, 0x80909990, 0x1080801, 0x8018012, 0x19811001, 0x12242332, 0x88a88999, 0x92224542, 0x9ababcc, 0xffffffda, 0x808802, 0x1cfffffd, 0x11212001, 0x4430aefb, 0x190100, 0x113220ba, 0x10a91900, 0x2110098, 0x18098918, 0x1100, 0x81091181, 0x18818010, 0x18810000, 0x81088810, 0x10088800, 0x1188802, 0x21201888, 0x1810112, 0x21201008, 0x221, 0x11219088, 0xa0102112, 0x31889091, 0x2a000811, 0x1108a101, 0x1090001, 0x21800800, 0x1890001, 0x20000819, 0x30ac1810, 0x18000a, 0x148e8088, 0x10199029, 0x14898108, 0x8088832b, 0x13910098, 0x89822bd, 0x41bcecca, 0x881220ff, 0x70bcc9aa, 0x114419dc, 0x76528880, 0x211309ba, 0x35520900, 0x211accda, 0x92354210, 0x2119abce, 0xb8123112, 0x1108a9b8, 0x8110221, 0x10011101, 0x1101011, 0x11008982, 0x80908811, 0xaddfeb, 0xbcdba880, 0x88bfffff, 0xfa0c9b88, 0xa8aafff, 0xffbfcbb8, 0x801228ac, 0xddb98899, 0x13333377, 0x74301808, 0x23381222, 0x13080812, 0x11129a88, 0x89818010, 0x210010a9, 0x88001181, 0x20088099, 0x8801000, 0x1008180, 0x8210100, 0x10888811, 0x81001002, 0x21008888, 0x88122, 0x10100800, 0x10918112, 0x12322242, 0x11214222, 0x8099aba1, 0x33210008, 0x8998813, 0x43542200, 0x8901081, 0x45544889, 0x89011124, 0x55999aa8, 0x88000233, 0xafffeeb9, 0xa14356a, 0xeccedeba, 0x81130f, 0x91001088, 0x80a8129f, 0xbb990101, 0x9800ac, 0x91108800, 0x9b80899, 0x12010018, 0x18891111, 0x818a8821, 0x82081881, 0x12801920, 0x80830898, 0x18888000, 0x9808808, 0x88880888, 0x98a99889, 0x88220089, 0x889a99a, 0xba908888, 0x8901218a, 0xddb80098, 0x12451df, 0xff121100, 0x82675aff, 0xf3531321, 0x2675fff, 0x15322313, 0x2454fff, 0x44832980, 0x1347dfd, 0x43039aaa, 0x18268f8, 0x2188bceb, 0x88983190, 0x988800bb, 0x90808880, 0xb8900089, 0x98002008, 0x98881188, 0x1111008, 0x98088088, 0x88828908, 0x88809080, 0x90009081, 0x800189, 0x80888089, 0x9801000, 0x9880080, 0x8282180, 0x8898a88, 0xa8988a98, 0x10180899, 0x89080012, 0x89989, 0x11201010, 0x8a00111, 0x10124422, 0x8988113, 0x55653310, 0x8090008b, 0xacffffdb, 0x999accd, 0xfffffffd, 0x888a8804, 0x521aaccd, 0x1100810, 0x34455331, 0x89008, 0x112232, 0x10018000, 0x8080222, 0x800019, 0x88809810, 0x10098010, 0x109a0981, 0x18808800, 0x8819990, 0x1080289, 0x800aa81, 0x22188818, 0x8809110, 0x11001088, 0x10100021, 0x1000818, 0x8801101, 0x22808080, 0x808001, 0x1200a09, 0x9089010, 0x1110000, 0x80080110, 0x11108801, 0x2001080, 0x8080889, 0xba980b88, 0x18010901, 0x80889a00, 0x9024244, 0x43332280, 0xaa03545, 0x21112220, 0x9dfffffe, 0xcbaa0108, 0xadffffff, 0x9aa99882, 0x18aab924, 0x28899080, 0x1355620, 0x8008811, 0x11231108, 0x10000088, 0x8a9999, 0x19008910, 0x10189290, 0x10001100, 0x88a99889, 0x99a8989a, 0x8000189, 0xa89a9088, 0x99088189, 0xa0898889, 0x89898029, 0x88808908, 0x8a188808, 0x88a10888, 0x99098809, 0xa0001029, 0x99998a98, 0x1010029, 0x88baaa9b, 0xa990908a, 0x98ab8add, 0xfcc9bcdc, 0x820118ab, 0xeeeefffc, 0x14233242, 0xaffffffb, 0x22223477, 0x742020a9, 0x2221101, 0x57744310, 0x11008101, 0x25577652, 0x11111, 0x3567631, 0x80088808, 0x133308, 0xab9baabb, 0xbababaca, 0xaacba999, 0x9a88a99b, 0xbba98809, 0x8088ab, 0xb9b80a11, 0x910809b, 0xaa808808, 0x89a8a09, 0xa0098890, 0x88008890, 0xa989098a, 0xa8881001, 0xa8998a9a, 0x99030000, 0xb9089980, 0xa89902, 0xaa980100, 0x18989922, 0x999080a0, 0x908251, 0x88008a, 0xcc912550, 0x82280acd, 0xaa256738, 0x82545557, 0x77776510, 0xa0255677, 0x7766439b, 0xa8111231, 0x231218bb, 0x31201020, 0x11100213, 0x13289b88, 0x880002, 0x218baeb9, 0x89899800, 0x11080999, 0x81030020, 0x23435541, 0x29819008, 0x33777544, 0x4108a802, 0x3110effc, 0x88008801, 0xaffffa0, 0x1a118080, 0xab91641, 0x89301898, 0x8146552, 0x22108002, 0x1aeeffdb, 0x91988080, 0x29cdcfb0, 0x8088981, 0x21013365, 0x10880, 0x20212318, 0x80a01801, 0x31280180, 0x900801, 0x31180090, 0x89889021, 0x11118108, 0x182110, 0x2800889, 0x98081001, 0x20881008, 0x8988801, 0x8800880, 0x81809898, 0x19aa0088, 0x89808880, 0x88081018, 0x88891011, 0x8080100, 0x88892011, 0x8abb1442, 0x18089a00, 0xbffff25, 0x2080aa91, 0x10affff9, 0x320a08a0, 0x25540bff, 0x90100890, 0x2467772, 0x2189100, 0x19100880, 0x1018098, 0x88ab9900, 0x8218a900, 0x208a9088, 0x90100801, 0x31111108, 0x11101020, 0x11218010, 0x11102133, 0x11200888, 0x98101221, 0x1118a928, 0x81982212, 0x11089888, 0x11981001, 0x1881488, 0x12888100, 0x8112319, 0x83108008, 0x10a9a2b, 0xb2322100, 0x189812b, 0xc32a0981, 0x134651d, 0xa20bca81, 0x8131bec9, 0x2928801, 0x99eff83, 0x38209201, 0x8acefa55, 0x8a811100, 0xade9654, 0x9ab01900, 0x8db0323, 0xac99981, 0x28003038, 0x32bba810, 0x20014202, 0x20a99101, 0x10800013, 0x23808081, 0x232, 0x980908, 0x888a9238, 0xbec89980, 0x9c990, 0xbea9ba98, 0x90acb10, 0xfe08a988, 0x9b99cfaf, 0xfa9a8808, 0x8a8bfff, 0x3033332, 0x8008a95, 0x74453343, 0x10a89023, 0x42288113, 0x890210, 0x29880010, 0x11800319, 0x8230201, 0x898a9108, 0x80889891, 0xa880880, 0x8888ac98, 0x89888881, 0x88800880, 0x80180, 0xaa81001, 0x11881121, 0x13121218, 0x1800353, 0xcca1100, 0x83770, 0xffd12211, 0x8809477c, 0xff253101, 0x8b9277f, 0xfb631998, 0x8abb077f, 0xf43088a9, 0x89bd947d, 0xd5899881, 0x19907c, 0x92990988, 0x88889829, 0x88800181, 0x9089000, 0x88009090, 0x8988008, 0x88801008, 0x908108, 0x1a0810, 0x919000, 0x9880008, 0x88890818, 0x1188881, 0x8988092, 0x88890988, 0x88888891, 0x88091008, 0x18018008, 0x8008, 0x88803344, 0x33341880, 0x8135442, 0x21331009, 0x802331a9, 0x1088008, 0x991220fc, 0x12b9a899, 0x8010eb, 0xaca992a, 0x990923bd, 0x9d980189, 0x227731, 0x8a889021, 0x13102666, 0x33400233, 0x1010803, 0x22344353, 0x809008b9, 0x88855253, 0x9808899a, 0xa890a812, 0xaaa9881a, 0x88acfc9a, 0xabccb909, 0x89eba9, 0x99bcdbc9, 0x8a9109a8, 0x899bcb9b, 0xbb8a0099, 0x80089a9a, 0x9a989899, 0x12111800, 0x10810221, 0x10008cba, 0xa89b9880, 0x1119cfbc, 0xa99c8808, 0x12029b98, 0x880aaa12, 0x210200aa, 0xa0a18800, 0x8aba880, 0x90901000, 0x20a80120, 0x88989910, 0x119998b9, 0xbbaabb81, 0x289bddb, 0xb9abbb91, 0x12124267, 0x22122090, 0x21034677, 0x75321891, 0x20899902, 0x45338800, 0x209beedc, 0xa89c9a10, 0x10101311, 0x20128a11, 0x31122300, 0x21228011, 0x2132020, 0x21320012, 0x21110888, 0x89880001, 0x1808a, 0x9198000, 0x220890a9, 0xaa8a0880, 0x10208, 0x90019b00, 0x118a0889, 0x9991a801, 0x898989, 0xa899aa93, 0x1988281a, 0x90102314, 0x198aa1a, 0xc8347766, 0x8880828, 0xca934545, 0x1081352, 0xdfffea81, 0x899855, 0x8ffffda8, 0x11102815, 0x69fffea9, 0x11101811, 0x21affd81, 0x1011211, 0x11bffc98, 0x21092102, 0x1cfeb00, 0x1102212, 0x139ba820, 0x22001008, 0x9cba9001, 0x1008880b, 0xdfffc900, 0x119990a9, 0x8bbefba0, 0x9088812, 0x422acfb8, 0x10a88121, 0x23218ecb, 0x89299ac, 0x15450ccb, 0x189008ab, 0x823520cb, 0x21800029, 0xca0440ba, 0x3089990b, 0xcb213189, 0x118aa8a9, 0x98122888, 0x21998800, 0x31280990, 0x33102810, 0x18009980, 0x32310108, 0xa98981, 0x14121088, 0x88088001, 0x22342808, 0x19a01232, 0x11222321, 0x20010122, 0x1110809, 0x89880312, 0x11899801, 0x10110132, 0x18ab832, 0x88181021, 0x9bb064, 0x8802232, 0x8aaca054, 0x10010143, 0x89ccfd36, 0x20101033, 0x9bfffff3, 0x820a1080, 0x89affffb, 0x180109ba, 0x81219bc9, 0x999099a, 0x20466511, 0x9881880, 0x1088880, 0x28989a98, 0x81089890, 0x8100a811, 0x20011011, 0x10080011, 0x1200988, 0x88081180, 0x1009081, 0x98000800, 0x20088889, 0x889a9000, 0x81908a9, 0x9a900080, 0x88819bdb, 0x98880800, 0x911110a, 0xba111218, 0x8133576, 0x41898100, 0x32677, 0x76200008, 0x2118ce, 0xd9008818, 0x9808aeff, 0xf8890010, 0x999bbb92, 0x8980121, 0x98990101, 0x808010, 0x89888090, 0x10812080, 0x88111009, 0x88889880, 0x10881110, 0xa9880088, 0x899a888, 0x81089088, 0x8aa0880, 0x880a099, 0x8008998, 0x98819980, 0x998800, 0x10090, 0x8800898, 0xa9888800, 0x88009ac, 0xca9a8a90, 0x110980a8, 0x99889a90, 0x8009a, 0x89008989, 0x1880908, 0xaa001188, 0xab0899, 0x9b880030, 0x9aa9898, 0xffa44233, 0x8998898b, 0xf0554651, 0x9980881e, 0xb7742228, 0x883199cf, 0x67431800, 0x90089acb, 0x76308900, 0x98a8899a, 0x33310110, 0x88900888, 0x1212210, 0x8888000, 0x82210220, 0x11080900, 0x11201120, 0x98111811, 0x10311011, 0x1228089a, 0xb9908011, 0x10099bcb, 0x9998a802, 0x210bbcce, 0xba801130, 0x10bdb8aa, 0x15435552, 0x1bb8926, 0x77776543, 0x28b80320, 0x8cfffc80, 0x82242a, 0xddbeeec0, 0x18881888, 0x21110aa0, 0x92189809, 0x99810a88, 0x8100880, 0x1988010, 0x89988880, 0x10008030, 0x9809008, 0x89810113, 0x18008110, 0x11121123, 0x8aa99, 0x88908122, 0x210a9090, 0x88019221, 0x11080100, 0x1011112, 0x11122543, 0x9980008, 0x235677, 0x18999080, 0x11822265, 0x42901001, 0x898abd92, 0x441a8810, 0xbaadeeb, 0x35200000, 0x9bfffffe, 0xd2118911, 0x9dfcadff, 0xfc83a018, 0x8ba31018, 0xaa81a189, 0x11133122, 0x88098000, 0x2012219, 0x80002089, 0x21308341, 0x1009bb89, 0x1008801, 0x28ab990, 0x1008a999, 0x91223108, 0x898a989, 0x8a145310, 0x9989989, 0x99811888, 0x8888a89, 0x80880010, 0x8898089a, 0xccba1081, 0x880989bb, 0xabc81108, 0x889809ad, 0x94003200, 0x810309a8, 0x88111012, 0x200010, 0x10112441, 0x810152a0, 0x2b033444, 0x2125182, 0xfc21477, 0x10121038, 0xff000477, 0x1003113a, 0xff201334, 0x11808809, 0xa0222120, 0x219b08a9, 0x21091201, 0x9a9091, 0x10881081, 0x2429a801, 0x1ad91988, 0x11289131, 0x8ecb9a98, 0x8b08b, 0x8baaaa98, 0x8c, 0xcbb98800, 0x11200089, 0x9090801, 0x1121189b, 0xa9001000, 0x80133110, 0x98108018, 0x11244442, 0x88188111, 0x9812044, 0x38281811, 0x9efffffc, 0x1201830, 0xbfffffc2, 0x10810201, 0x8be99473, 0x9000080, 0x10465419, 0xa0888801, 0x14100a88, 0x88898800, 0x13110889, 0x88881118, 0x80110881, 0x18881800, 0x18988088, 0x8888a990, 0x10898808, 0x18a08881, 0x9000809, 0x19880080, 0x88008, 0x100111, 0x8880a, 0x88008808, 0x80189bb, 0x90988000, 0x802229a8, 0x9802811, 0x133322aa, 0x98080991, 0x3432310, 0xaa898990, 0x23655632, 0x8a880a02, 0x1012890, 0x8990a911, 0x9ceffec2, 0x10899920, 0xbfffe924, 0x90002212, 0xcffd8251, 0xa1334621, 0xbc91474a, 0x89aaa088, 0x811568b, 0x199989d9, 0x11113289, 0x88009ab9, 0x81122119, 0x80808890, 0x98012328, 0x8a98b809, 0x880089, 0x89180099, 0x808999, 0x88818098, 0x88009999, 0x99808000, 0x81001980, 0x8888, 0x10208188, 0x1880112, 0x88080081, 0x11181800, 0x80893009, 0x10088980, 0x88908099, 0x80100888, 0x88018190, 0x88010089, 0x1288881, 0x99180088, 0x99899012, 0xd9808818, 0x9b99827c, 0xfd510809, 0x9801254f, 0xff432a80, 0x1322268f, 0xff444409, 0x2222329f, 0xff834618, 0x803512ef, 0xff935210, 0x1129bf, 0xfd812108, 0x899a, 0x9aa99900, 0x89889988, 0x88999880, 0x889aa818, 0x98889988, 0x8baa909, 0x9908aa90, 0x89acaa9a, 0x90baaaa9, 0x80aab9aa, 0xb9aaaecb, 0x8aac8, 0xa9a8acca, 0x143098b8, 0xa98b98c9, 0x24544289, 0x98012020, 0x25566662, 0x31254362, 0x13333546, 0x75644543, 0x98002332, 0x34310321, 0x99a8890, 0x88011211, 0xaa88910, 0x90918101, 0x88910, 0x8988120, 0x8819888, 0x89901018, 0x9a999aaa, 0xaaa8a889, 0x8999aa99, 0x9a880899, 0x98881809, 0x80000089, 0x99111802, 0x80088100, 0xa1228988, 0x98909098, 0x12098ba, 0x81201988, 0x9022108d, 0xa8accb80, 0x10126b, 0xffca8221, 0x91577, 0x21333532, 0x89cc27, 0x73352128, 0x81009cc0, 0x31818021, 0x841132ac, 0x98101120, 0x82108020, 0xa9082130, 0x88088018, 0x10908000, 0x89008988, 0x89800880, 0x89988000, 0x8801099, 0x1011812, 0x38cb8000, 0x80089916, 0x2fffa211, 0x2218a947, 0x1fff1521, 0x11809c27, 0x8ff06531, 0x21809c17, 0xfd44221, 0x1818a97, 0xbf135899, 0x18a3, 0xb9411cb9, 0x18a88889, 0x10baa9, 0x18888180, 0x8888008, 0x1880, 0x8911108, 0x80100080, 0x11080888, 0x80180800, 0x10980889, 0x80088108, 0x800389a8, 0x18011929, 0x889a981, 0x11109900, 0x8980111, 0x1080090, 0x80808800, 0x80088aa9, 0x90000880, 0x80ababba, 0x98818888, 0x909cbb19, 0x80002008, 0x89a98000, 0x9892118, 0x8880080, 0x10080118, 0x11809a98, 0x980818, 0x23211bfc, 0x88121189, 0x2536779c, 0x9801aaa, 0x2457777c, 0xb999ecab, 0x3882774, 0xa9a88aa9, 0x89dedc83, 0x10981108, 0x89aab9b8, 0x20210008, 0x80801008, 0x80098800, 0x10088808, 0x120120, 0x111089, 0x111210, 0x98908110, 0x10801009};
//first channel is topmost bit

// Layer: L2
// QuantType: 4bitsym
#define L2_active
#define L2_bitperweight 4
#define L2_incoming_weights 64
#define L2_outgoing_weights 64
uint32_t L2_weights[] = {0x2fb1b881, 0x811b00b9, 0xc0038900, 0x10e800c2, 0x8404033b, 0xb4b9a301, 0xb801c0a8, 0x28c1830, 0x99c8b118, 0xa0118a, 0xa8109881, 0x3aaaa189, 0x351f2270, 0x90a918, 0x2b9814b, 0xab981001, 0x91011839, 0x11aa219b, 0xc801222c, 0x99dabaa8, 0x2ab2009a, 0xe1aa0218, 0xb0118b08, 0x980aa889, 0x1a81a189, 0x31119882, 0x998d8828, 0x11a4a0f, 0x9005819a, 0x1b880048, 0x4990213c, 0x3128839, 0x4fc1c408, 0x280919a, 0x8098921, 0x90c00989, 0x89909409, 0x8081862, 0x8b8a1ad, 0x1b190848, 0x100818a3, 0x880b9cb8, 0x320110b2, 0x30012482, 0x18b98001, 0x818782bd, 0xaa891909, 0x9a98000, 0x3ca18120, 0xc0129880, 0x980f92d, 0x980dfabb, 0x489a118b, 0x4110a218, 0x11bac0a8, 0x9018385b, 0x59a2121d, 0x80200a09, 0x898bb20c, 0xd8a0b21c, 0x9c22a1a0, 0x898820, 0x4af19aa, 0x10821444, 0x90b318b0, 0x898281cb, 0x83b1029a, 0x1f133ba1, 0x981b9981, 0x1189f9a2, 0x11818aa0, 0xa11a82a1, 0xa9a0aa3, 0xa00ba089, 0x80321191, 0xd3910395, 0xb4ae8113, 0x9281091a, 0x9f80aaa0, 0x821d9b20, 0x3b01808c, 0xc8119809, 0xa81c82b, 0x909c0101, 0x998c92a0, 0x30910028, 0x10a0f8b0, 0x10184323, 0x2b88c1a1, 0xc0810181, 0x8cbac221, 0x1818818a, 0x1a1003b3, 0x3b338828, 0x2883e9d3, 0x19a01818, 0x800a8048, 0x8891210b, 0xd8b8b08a, 0xbbf3439a, 0x3a01891c, 0x90b12c9a, 0x80012311, 0xaf308183, 0x9a909081, 0x9899e211, 0x200f1103, 0x102ba41e, 0x380a8802, 0x8eb20888, 0x31a8b809, 0x8d931291, 0x31212f09, 0xe19800a, 0xa12810b2, 0xa101291, 0xb0d899a1, 0x8219981, 0x180bcc1, 0x951c8403, 0xa4111099, 0x11b0920a, 0x9f21a848, 0xa0af9092, 0x1a89828c, 0x98cc0849, 0x9f31090a, 0x3b9fa080, 0x1009a880, 0x1889b193, 0xb2020298, 0x95129c0, 0x22cb1910, 0xf391a912, 0x9f98001a, 0x998aa809, 0x28888018, 0x800c12c, 0x589f8a01, 0x3180183b, 0x80388288, 0xdf9a1103, 0x48800181, 0x12130010, 0x90290898, 0xa8484, 0xb0900189, 0x1a3ab89f, 0x29a1aba1, 0x11819ccb, 0x239a0018, 0x8a9001b2, 0x18210b08, 0x2c11aa8e, 0xa2c8088f, 0x19329c80, 0xa40d903b, 0x2f0f9193, 0x89882113, 0x92191081, 0xd38928a8, 0x20aac21c, 0x102ea881, 0xd1a2882c, 0x3820830, 0x9e081091, 0x19202019, 0x99011a8, 0x1081099, 0x12c082b, 0x91cd8989, 0x83021a2c, 0x281390dc, 0xdb1c218a, 0xa8111003, 0x5182aa19, 0x19c181a0, 0x11a93, 0xa0b09d90, 0x6d201018, 0x82208330, 0x2012851a, 0x24c00028, 0x8092a840, 0xc2123900, 0x88200a4, 0x8998c13a, 0xf33aaa9a, 0x4c888890, 0x3b30a298, 0xa280998, 0x28b118a8, 0x2803f910, 0x9cd20a82, 0xa8a80c23, 0x9461902, 0x1195232, 0x82098040, 0x23930909, 0x881c820, 0xc9a8c891, 0x21d08904, 0xc9108a85, 0x195899c0, 0x82d18023, 0x2139303, 0x2e01912, 0xc9a10181, 0x180992, 0x8a0e81a0, 0x908140a2, 0x9a20881, 0x1bba1c0, 0xe18880b9, 0x1b24a2b0, 0x9a9ad3a2, 0x88080013, 0x180b3c9, 0x8882038d, 0x98888ca3, 0xa2ba913b, 0xe89da092, 0xd088100a, 0xb8899, 0x1242310b, 0x80898cca, 0x1a118299, 0x9990b191, 0x3ab1198b, 0x40c0180, 0x8400c92, 0x302a9999, 0x2018118d, 0xa024189b, 0xa1b1289a, 0xf988a81, 0xee8888ac, 0x21ac309b, 0xdcb11822, 0x90118d18, 0x18888c24, 0x991085ed, 0xb0a1139a, 0x3cca2b90, 0x8b1aa08a, 0xb0b98b08, 0xc0a3a188, 0xb93bf808, 0x9920959a, 0xa38a18e9, 0x80a25e, 0x910ada81, 0x2880430d, 0x19edb008, 0x881f912a, 0xac03b0b, 0x80850b3a, 0xa8a80a0e, 0xc908b14a, 0xdb9d98b, 0x44bb0400, 0x82dec092, 0x1acbf88, 0xc11802b0, 0x3c99a813, 0xc9128009, 0x9089900, 0x820a0910, 0xb2bb2c0, 0x88831151, 0x2b0e2b8, 0x1038040, 0x304a39b1, 0x80321a25, 0x9181b0, 0x98510803, 0x1ca30b91, 0x132181b9, 0xc92a08a1, 0xa191b, 0x1131308, 0x820c0b10, 0x1108839, 0x914a9c22, 0x3f2301ab, 0xfaa9080d, 0x91201802, 0x21a4cd0a, 0xf1a29388, 0x80f00911, 0x9a288911, 0x90034821, 0x148b0931, 0x90021b01, 0x9158d28, 0x801812d8, 0x89981af0, 0x91822091, 0x193a8198, 0x2b3082b8, 0x11c99013, 0x4818e893, 0x2299d10, 0xc09988a1, 0xb9b1a802, 0x91b00309, 0xa9082084, 0x19a80500, 0x228b0812, 0x98930880, 0x9291a00c, 0x8d00b4a0, 0x2188118, 0x8030a38, 0x39088819, 0x90943000, 0x8e81298a, 0x291b2800, 0xa094018, 0xa34a9c0e, 0x48299980, 0xb82319a9, 0xa2104099, 0x5e4dac82, 0xa9ab01aa, 0x8119a28a, 0x9ba2ab08, 0x820c9802, 0xe289981a, 0x51f80a92, 0x209aa1bc, 0x918c0d8, 0x9949c1a, 0x80892a1, 0x202f2948, 0x818811c8, 0xa982b0c0, 0x12ca9822, 0xca28a942, 0x83380388, 0x20821312, 0x13202b, 0xd0029b09, 0x29a0a993, 0x3928811a, 0x12291800, 0x9c10b21a, 0x8b1c20, 0x4a200208, 0xc48d811d, 0xce99bb18, 0x1bd2a, 0x813102aa, 0x28198191, 0x1189188, 0xf828f100, 0x8c928bb1, 0x28039e99, 0xb1f2098, 0x3ef01090, 0x390a809c, 0xb8252c52, 0xa990cb93, 0x9903031, 0x18181984, 0x5080280a, 0x88800100, 0x2922298a, 0x891aa091, 0x20009809, 0x89d8088, 0xa389093f, 0x32138988, 0x3b1212b9, 0x881a8019, 0x1b913190, 0x2491099, 0x880ea122, 0x120b31a2, 0x183843b, 0xae091b94, 0xca801d9a, 0x211298a8, 0x9a8498b0, 0xd829001a, 0x8a28ab9, 0x9311c888, 0xb0054c10, 0x1021198c, 0x19e0ad0, 0x2311, 0x91a801da, 0xc9b1c001, 0x9d993ca, 0x81113309, 0x3a980b93, 0x1098a29a, 0xc8999111, 0xa1c48aa8, 0x288a888, 0x18af1aa1, 0x391002a2, 0x4001bf8, 0x9a3840a, 0xa301cb31, 0x1043abb8, 0x43892188, 0x8580908d, 0x2a02d899, 0x80d81899, 0x3a813928, 0x1c3bb8c4, 0xa0de0418, 0xa1a8b430, 0xa889998b, 0x9a9d0029, 0x2890fb0, 0x88001961, 0xd1100b81, 0x59900409, 0x83999912, 0x9a620098, 0x93808f88, 0x9392a300, 0xad240842, 0xdaf39b01, 0xc18ba10, 0x292d8081, 0x9a1110c1, 0x8021aa53, 0x13f3cc91, 0x284a9029, 0x91818a2, 0xc021a02b, 0x2903193, 0x89011938, 0xbb1bc8e2, 0x8900d12, 0xa912cbfa, 0x19901902, 0x289d98c3, 0xa9120ba0, 0x2a98a899, 0xc1100834, 0xc81d2318, 0x10328b0c, 0xbf830a23, 0x91090c02, 0x98001908, 0x399111a1, 0x31b01baf, 0x9c7b0190, 0x8b80b999, 0x509ba9a1, 0x2913012, 0x210989b1, 0x1101203d, 0x190811c8, 0xa10920c, 0xa10cb0d4, 0x2f8001ff, 0x99cab09, 0x9a320c10, 0x289b9990, 0x82292f00, 0x1a009a08, 0x198888c1, 0x11110202, 0xb482cb32, 0x814983d1, 0xa28881a3, 0x961088a8, 0x2922211c, 0xe82f019c, 0x883a882e, 0x1098eb09, 0x193b83af, 0xbaa9211b, 0x10d2ba, 0xc121b3d, 0x88bb9983, 0x848101d8, 0xc12ab00, 0x392a9985, 0x390042b, 0x91b18131, 0xa98a212, 0x99c8819, 0xa00a981, 0xca0bb911, 0x4caaa181, 0x1291113, 0x980d0893, 0x8c008052, 0xa90b9a1, 0x90002249, 0x1901c002, 0x88b811d8, 0x2883bb2d, 0x128ccaa3, 0x5bf8418, 0x92aca131, 0x988a991b, 0x2a9a2019, 0xf891c3b8, 0x21d88908, 0x29202110, 0x90318113, 0x21b12022, 0x8008a818, 0x9b910f32, 0x98a08b0};
//first channel is topmost bit

// Layer: L3
// QuantType: 4bitsym
#define L3_active
#define L3_bitperweight 4
#define L3_incoming_weights 64
#define L3_outgoing_weights 10
uint32_t L3_weights[] = {0x2b3ba00a, 0x8d9998a3, 0xb9daaba8, 0xb0a83800, 0x90199b9, 0x91033ce8, 0x9a9bb19b, 0x24810811, 0xb88998a9, 0xa9a8998c, 0xb1a9933a, 0x29abc81a, 0x3321c9a0, 0x2c93f20c, 0x9002a383, 0xa98599c9, 0xac0a99a9, 0x3b012000, 0xb9a48ab1, 0xa9b1138b, 0xc91b02a3, 0x183092aa, 0x3b91b30b, 0x2a29809b, 0x8c9283b9, 0x82090039, 0x3b199998, 0x20189cb9, 0xab18a098, 0x88aaab80, 0x2a3a4180, 0x200800b9, 0xa9a83a42, 0x8932a2c9, 0x929989b1, 0x99099901, 0xb18bc918, 0x9b8b9809, 0xb2aaab2a, 0xd8a9b3ab, 0x11009111, 0xa192b8a9, 0x1a01b949, 0x13089abb, 0x99a03219, 0xb218aab8, 0x90aa1da3, 0x8aa3883, 0x220c292b, 0x890aa9a1, 0x99a0ab1d, 0xab920a84, 0x41a882ac, 0xb99892da, 0x8893ac9b, 0x19f82131, 0x8a9319a8, 0x9b888911, 0xa2b82298, 0x9299a18b, 0x8a92aaa2, 0x8b408011, 0x883b90b9, 0xba3cb88a, 0x1198b82, 0x218a4c0b, 0xc299098, 0xab122a3a, 0xa0a2802a, 0x22ab8819, 0xb2a1ab81, 0x999a09a9, 0x90c8c988, 0x90c8b2b8, 0x1292092, 0x982a9082, 0x9a0b0a29, 0x2893a23, 0x99d98030, 0xb8a89c8b};
//first channel is topmost bit

