// Automatically generated header file
// Date: 2024-08-15 15:13:11.143073
// Quantized model exported from octav__CNNMNIST_Aug_BitMnist_4bitsym_width96_64_0_epochs60.pth
// Generated by exportquant.py

#include <stdint.h>

#ifndef BITNETMCU_MODEL_H
#define BITNETMCU_MODEL_H

// Model class name as defined in models.py
#define MODEL_CNNMNIST

// Number of layers
#define NUM_LAYERS 8

// Maximum number of activations per layer
#define MAX_N_ACTIVATIONS 256

// Layer: L2 (Convolutional)
#define L2_active
#define L2_type BitConv2d
#define L2_in_channels 1
#define L2_out_channels 64
#define L2_incoming_x 16
#define L2_incoming_y 16
#define L2_outgoing_x 14
#define L2_outgoing_y 14
#define L2_kernel_size 3
#define L2_stride 1
#define L2_padding 0
#define L2_groups 1
#define L2_bitperweight 8
const int8_t L2_weights[] = {
	18,14,47,-10,2,-108,-93,-81,-42,-9,28,7,-57,11,58,-53,
	-76,-19,-32,69,-37,27,11,-50,6,13,-14,107,77,23,104,-39,
	-26,3,-34,22,-107,11,34,-65,23,-54,42,39,-15,-117,16,45,
	-31,-95,-68,-4,23,-36,-3,-3,1,45,-27,-47,52,9,-9,57,
	24,-3,-3,17,-25,53,29,42,-1,-20,-35,33,-5,-9,45,-5,
	-30,70,10,-68,26,-21,-15,17,-1,-17,24,-99,-30,55,-71,-12,
	49,44,-2,88,81,-91,1,3,-25,-22,15,-44,-106,-30,-103,-96,
	37,-72,40,52,4,34,62,39,-19,-53,-44,4,-17,52,17,-45,
	-6,25,-47,-12,-68,-85,65,-38,19,11,51,59,-62,-42,-64,-74,
	-18,5,39,-20,47,-33,61,-26,0,103,-9,-42,50,33,18,-56,
	-37,6,1,52,48,70,10,-59,-28,-50,-73,-73,-87,80,60,57,
	-4,-46,-7,2,47,-34,1,11,-11,75,90,34,-33,70,-26,-80,
	32,0,-76,-31,-41,47,-44,0,-65,-9,-61,80,-29,63,-64,28,
	-48,-58,21,2,82,12,21,-30,0,22,33,25,18,-17,53,-66,
	9,19,74,-93,67,-40,-65,-93,-77,-6,-40,-16,-38,31,30,72,
	60,-38,32,-56,-26,-25,52,-14,-26,21,43,40,-9,-21,61,40,
	-81,19,41,-71,89,-42,-85,-97,64,-20,0,20,12,-57,57,-52,
	-30,-47,-55,-58,-52,9,-128,-2,-21,-67,57,-81,-38,-41,-31,51,
	-49,3,-42,-31,-27,-69,-69,-43,17,15,-84,-90,26,54,-33,-40,
	32,68,-69,-23,8,20,104,66,-54,-45,27,-80,-5,15,-59,-10,
	-84,-4,-78,-21,-48,-41,64,88,27,17,-27,37,20,35,8,-18,
	5,30,-35,38,14,-50,-81,14,39,-33,11,59,-80,-84,-75,-30,
	-68,-26,81,-38,75,44,16,13,27,3,70,83,-42,4,-10,-42,
	-7,20,-17,-9,23,-30,-36,45,27,49,-7,35,59,-14,4,-8,
	-40,-71,-12,-84,-85,-57,38,48,-66,6,3,28,-69,41,25,-69,
	-106,-46,1,-27,-75,-53,-23,-22,-39,40,22,-64,-21,34,45,-3,
	36,4,58,-63,-106,27,17,-81,-87,-8,57,-19,-107,-16,64,-65,
	54,-5,43,28,-16,-20,24,32,1,72,-32,-81,37,48,-1,-60,
	42,-7,40,41,-7,-48,44,12,-7,-21,55,-6,-31,17,-14,-20,
	35,-34,50,33,-22,-18,-28,-53,-3,31,-74,70,36,-30,-23,-68,
	-43,-21,95,-12,-58,-9,-70,-3,-3,-72,16,79,-41,-49,-28,-53,
	-34,48,-3,-5,-97,21,54,-9,31,-15,44,-24,-2,42,40,37,
	6,-58,-8,-50,20,27,-73,50,6,18,-70,-39,15,21,-57,-49,
	36,46,-80,28,64,80,20,-59,49,-8,27,40,27,2,-36,-13,
	50,80,-54,-54,-68,-82,-5,-43,-61,-29,14,-51,-14,-50,-36,-92,
	-66,36,74,-68,-78,-86,-59,-8,15,66,24,53,-36,-78,-68,29,
};

// Layer: L4 (Convolutional)
#define L4_active
#define L4_type BitConv2d
#define L4_in_channels 64
#define L4_out_channels 64
#define L4_incoming_x 14
#define L4_incoming_y 14
#define L4_outgoing_x 12
#define L4_outgoing_y 12
#define L4_kernel_size 3
#define L4_stride 1
#define L4_padding 0
#define L4_groups 64
#define L4_bitperweight 8
const int8_t L4_weights[] = {
	-13,-58,-90,41,39,-69,15,4,-54,17,16,11,35,35,6,-5,
	2,38,-69,2,15,-10,-2,-19,47,-75,7,-43,-15,42,-53,-6,
	-37,25,-95,-79,20,-85,12,-4,-105,36,-36,-29,21,-5,-43,-28,
	36,-7,-36,38,48,0,-22,34,-6,21,41,4,49,14,17,-9,
	-24,23,8,-20,39,18,-3,38,26,23,-4,33,9,-55,1,12,
	25,6,51,42,-11,29,-4,-16,10,-31,-32,-34,-43,14,7,-61,
	3,44,-47,17,29,11,-26,22,-21,-28,-75,-67,-40,51,-26,7,
	17,-35,-15,-15,0,15,24,38,-30,-18,-55,-20,-12,-3,0,9,
	8,-25,32,12,65,33,12,11,15,0,7,12,32,27,44,59,
	9,-38,6,-31,35,27,48,-6,-10,31,-34,-62,40,-78,0,-7,
	-66,0,-66,-40,-128,19,-7,-98,35,-19,-43,10,21,-13,-28,42,
	37,-61,-68,-27,-2,-37,-24,-31,-38,5,27,47,12,21,19,32,
	34,39,6,28,-11,-1,1,20,-77,-20,-55,45,-41,47,45,12,
	-51,0,-33,41,20,16,2,-24,45,-28,16,24,1,-22,37,-16,
	3,-7,-10,21,-4,-15,47,-66,-35,-30,28,33,17,6,7,28,
	-48,-48,-22,-6,19,20,44,17,-19,23,22,37,1,28,4,1,
	22,44,-18,-6,58,-49,-50,-78,13,31,43,15,3,9,-65,-10,
	10,-41,7,17,33,51,51,-34,19,60,22,29,24,39,-2,0,
	36,-12,-23,44,8,-40,21,6,-48,-2,-13,21,-25,-101,0,38,
	-12,-56,-13,-21,-6,-59,-5,36,-60,-13,23,29,28,38,10,77,
	36,6,29,43,-20,-33,-11,42,3,-43,-45,48,-10,42,-32,43,
	21,19,-28,-7,6,-24,2,-23,-20,-47,-40,12,27,41,44,-74,
	28,24,-50,-55,-16,3,-1,-35,14,68,29,10,46,-25,11,27,
	-13,1,21,-14,24,-1,28,44,29,-2,-2,-17,15,29,-22,53,
	44,8,2,-17,1,43,-3,37,73,31,58,40,-52,19,27,-14,
	12,59,37,44,35,-60,2,34,-34,19,51,-16,-10,45,-21,-9,
	3,13,-71,31,28,-45,-30,54,78,29,-34,14,47,-60,-37,-9,
	-20,13,42,-33,15,8,-19,-27,35,-19,36,-21,39,11,43,31,
	-23,-5,-5,-16,38,38,-26,23,-5,-11,34,28,-7,31,-13,37,
	-6,24,14,10,-50,-48,-35,6,35,5,37,6,5,3,38,52,
	-13,-14,-16,-21,-37,-7,2,19,27,-47,-78,-30,5,46,4,-18,
	-37,-59,30,-10,-49,26,42,-3,23,46,-6,26,-13,-22,-31,-13,
	3,24,18,20,-25,-16,3,-54,-95,-58,-19,23,34,-64,4,36,
	-26,-34,42,-30,-13,-52,40,13,-50,-18,31,-29,11,18,33,31,
	-9,5,39,44,10,-46,-38,11,-25,36,42,-79,38,-19,-1,27,
	33,-10,-42,-72,-23,44,14,13,33,-24,-9,-74,-13,-27,11,20,
};

#define L6_active
#define L6_type MaxPool2d
#define L6_pool_size 2
#define L6_incoming_x 12
#define L6_incoming_y 12
#define L6_outgoing_x 6
#define L6_outgoing_y 6

// Layer: L7 (Convolutional)
#define L7_active
#define L7_type BitConv2d
#define L7_in_channels 64
#define L7_out_channels 64
#define L7_incoming_x 6
#define L7_incoming_y 6
#define L7_outgoing_x 4
#define L7_outgoing_y 4
#define L7_kernel_size 3
#define L7_stride 1
#define L7_padding 0
#define L7_groups 64
#define L7_bitperweight 8
const int8_t L7_weights[] = {
	-7,1,-15,25,-45,2,103,35,-19,-7,-71,-112,14,-21,-39,-15,
	65,70,103,30,1,51,3,47,-1,17,7,100,33,-28,29,-20,
	-63,62,-12,3,63,16,1,43,12,1,31,47,5,41,82,35,
	43,5,-62,-40,-44,-24,12,-12,4,11,-43,-21,-91,-49,79,66,
	20,1,9,-25,-46,-44,-22,-8,-72,26,40,-66,16,21,-39,15,
	8,67,-28,-122,33,-41,-45,-21,-11,1,2,-1,-4,2,40,27,
	3,48,127,-26,16,54,-10,22,90,-23,-16,3,46,50,103,39,
	35,-35,5,1,19,45,45,103,18,-8,-6,0,6,-10,46,21,
	-46,59,-22,-22,1,-71,-42,-7,16,-76,-38,-39,-12,-35,32,95,
	-13,57,24,-44,-39,-40,-51,33,26,74,32,66,23,10,43,11,
	-1,-20,127,81,9,83,24,-1,-2,8,1,50,47,91,29,-12,
	-46,-30,-41,-22,-3,4,6,-27,-22,-39,12,6,77,-1,72,43,
	-16,-9,-43,5,-25,-89,116,34,-42,-17,-9,-37,-5,-10,1,0,
	55,22,-19,13,65,-14,4,45,42,-11,35,75,-50,-30,23,-23,
	-29,-9,11,4,-4,0,-7,78,118,26,2,-9,-52,-13,-36,-13,
	-40,18,45,-39,-26,-12,24,-13,-23,46,7,61,-15,7,20,-6,
	-46,36,-30,-40,50,-17,42,78,-14,60,81,-20,-29,48,-48,-34,
	83,-39,43,2,-43,-63,-20,25,20,68,2,-7,10,-73,-56,-41,
	-1,-32,-3,-7,-13,4,-33,83,92,-5,37,106,17,54,-5,4,
	7,-46,34,10,-49,-62,-51,17,61,17,41,-42,-33,-46,10,44,
	75,-55,-36,5,24,-3,-19,6,9,62,25,72,49,-37,-48,35,
	-72,0,41,-87,-33,38,61,-22,-37,7,-1,-40,42,-2,-21,-6,
	31,22,45,1,58,21,104,62,-114,-78,-82,-34,-31,14,14,9,
	31,46,26,52,8,-42,-52,-118,26,-14,4,32,41,46,-12,-30,
	-41,-50,-34,62,-8,-64,42,-67,55,-39,-76,-50,-12,14,-59,24,
	-1,-71,-33,-63,86,24,59,89,-9,28,-37,-39,-75,-72,0,45,
	57,110,49,12,33,14,-13,-52,-28,-31,-61,-26,86,-12,-38,8,
	-26,-53,-51,65,-33,23,41,-2,-34,46,-23,5,71,-24,2,-54,
	-18,-13,26,-10,77,-22,11,25,-14,-28,-11,9,33,25,45,-33,
	-30,14,-54,-46,3,9,0,-24,-20,-26,104,39,-7,20,19,-33,
	8,-13,-64,86,-2,-2,39,19,-8,37,63,-13,114,48,-33,49,
	64,4,-23,49,20,45,-8,-33,12,8,-51,-13,-48,57,-11,42,
	-5,71,50,43,4,24,29,-22,-8,-6,81,3,-8,61,-45,-7,
	-6,-48,-13,-63,-23,90,-50,-65,16,-35,-16,-9,-45,-44,-31,-7,
	-33,-50,29,50,49,-12,-15,27,2,-71,15,-93,-4,64,-14,12,
	68,-5,41,97,-31,54,70,15,9,8,53,48,14,85,36,-18,
};

#define L9_active
#define L9_type MaxPool2d
#define L9_pool_size 2
#define L9_incoming_x 4
#define L9_incoming_y 4
#define L9_outgoing_x 2
#define L9_outgoing_y 2

// Layer: L11
// QuantType: 4bitsym
#define L11_active
#define L11_bitperweight 4 
#define L11_incoming_weights 256
#define L11_outgoing_weights 96
const uint32_t L11_weights[] = {
	0x80089898,0x800908a9,0x00088000,0x80990908,0x98090008,0x08880899,0x09088989,0x08818990,
	0x90889890,0x80908898,0x98898980,0x80888080,0x00898908,0x89800080,0x81189989,0x08998809,
	0x098099a8,0x08980989,0x99808008,0x98889088,0x80898088,0x00998000,0x89889088,0x89890880,
	0x09889989,0x99800999,0x88000098,0x80880098,0x88080898,0x09999080,0x89099908,0x88899889,
	0x1a4cbf93,0x30806330,0x70324f0b,0xa0013fb4,0x6c0f7608,0x822b9a1c,0x7c20fec2,0xf3b798a3,
	0xc0087133,0xea08cc80,0x83a57425,0xb0a11585,0x5b193002,0x1430b933,0xcb18f988,0x1dcc2824,
	0x91de8b3a,0x138abfa0,0x9a1c0b09,0x5cca0c88,0xf8fa2488,0xfa388fce,0x88134c34,0x20329abf,
	0x610a7120,0xfc33fca1,0xc32910a2,0xc801ab49,0x00c9d1c0,0x7478e2b5,0x111588a8,0x040ad110,
	0xc015b388,0x08a2f080,0x28b917a8,0x281102c3,0x222130f3,0x32b0e2c1,0x8998c38b,0x9818298c,
	0x1a49baa0,0xcb81fddd,0xa309faff,0xc2b898bb,0xf4091085,0xfcabc8c0,0x3021a308,0x2060c289,
	0x2c074304,0xc5a80a99,0x89082133,0x05d08193,0x9f80edca,0x80dd1008,0x9cab2fa9,0x8abc8b83,
	0xf4931612,0x39198312,0xd0b10409,0xf10841a1,0x0900c9b0,0xf4f32b00,0xd1aa811a,0xa80a92da,
	0x21b831a4,0x5391ce30,0x7990f83a,0x1c217a29,0xc182ca04,0x0c2c571d,0xf834278d,0x3aea390c,
	0x3982a812,0x39c19469,0x33240d02,0x80c54b09,0x80d182d0,0xfab8fea0,0x9a67528f,0xfb08ab99,
	0x89058bbc,0x23684cd0,0xab82ac00,0xbbc8584b,0xbfba4189,0xb02cbfbc,0xcfa81f13,0x79a818cc,
	0x42fc4840,0x891ad0f8,0x8319ea2d,0xc3209870,0x248063af,0xf86241ab,0x1fb59859,0x0093d118,
	0x504c80ca,0x10baffea,0x768afe19,0xac0e7ab8,0xab9271c8,0x22324591,0x3033b384,0x08aa0380,
	0x230a38bb,0xf42a8888,0x43802889,0x13c01491,0x42938308,0x204f019d,0xdf836384,0x41126492,
	0x0bbeb802,0x8b114873,0x02338e01,0xee082801,0xbb16201c,0xb1d2880b,0x2d3b219e,0x71283111,
	0x73337239,0xff80085a,0xcb9bef9b,0xf80ae098,0xb9080232,0x00ab0b25,0x088b1065,0x442c9b8a,
	0x10ef3425,0x0960a983,0x332848cd,0xa1ff2952,0xa0b089c0,0x02c82a8a,0x53098308,0x19100843,
	0x18901089,0x92118822,0x88a43ab8,0x896a0334,0x0a71b85d,0x329808b8,0x2dbf08b1,0x003b4880,
	0x809d2180,0x91eb1030,0x208129dc,0x98ed83a4,0x1b893391,0x40090421,0x13fb0728,0x75449180,
	0x315010aa,0x08842a3b,0x00febea9,0x90f119fb,0x9918aa01,0xa0fc2288,0x913212f1,0x88a119a0,
	0x890880a8,0x89898908,0xa8980188,0x08988988,0x09098088,0x89999989,0x9a008988,0x90808880,
	0x00898888,0x8999889a,0x99088009,0x89889880,0x09988909,0x09908899,0x09109889,0x88098990,
	0x0008a988,0x89800881,0x08808098,0x880a8088,0x9110888a,0x81081908,0x08888889,0x80880a00,
	0x0809a099,0x98908999,0x08808889,0x88890808,0x08909889,0x98098889,0x88881800,0x89899999,
	0x0a758203,0x00083500,0xc820180b,0x88784733,0x10ab0383,0xcddb8217,0x21031108,0x03ec31ff,
	0x0b2b2230,0x100a18bc,0x8afb098b,0x988000b2,0x29358857,0x220a38fa,0xbb12e385,0x9ca18019,
	0x89720cbf,0x8803d0f0,0xbbfba82b,0x308b8882,0x80002732,0x3e3d21bf,0x125028bd,0xecf89445,
	0x993180a9,0x390b1445,0x211081ca,0x908b80ea,0x233f2090,0x01c0acaa,0xb2c1806d,0x9437617c,
	0x4b634d21,0x088a5782,0xfdbc0a49,0x913aa410,0x84900314,0x8c348803,0x89055d0c,0xa9a183cb,
	0xc891c339,0x4c9f0b8a,0x98cc4371,0x28c308a1,0x42238413,0x8891c190,0xaf2f9035,0x455488c7,
	0xa980a939,0x8f991a40,0x2001b113,0x40900189,0x83a80ba0,0xc8bdc807,0x8b3089b0,0x80810360,
	0x183188c2,0x8f8f9840,0x183b9802,0x388b009b,0x419b7830,0x04c05d8a,0xa0c01849,0x0047491b,
	0x78198c92,0x00203882,0x9025fa58,0xb810ffc8,0x8003ff08,0x3888ad0f,0xeec2cb48,0x1167a488,
	0x8091ff78,0x6278231b,0x01d88980,0x8389a493,0xa88a1947,0x12161180,0xa70b5fae,0xbeb410e4,
	0x8480b328,0x08018af9,0x42e0ba93,0xd089b0fa,0x77b04db9,0x04211b82,0xca083ca8,0x04310fcf,
	0x0112c099,0x0490ec02,0x200a88a1,0x339b23bb,0xab016343,0x99938513,0xac93ad80,0x3894e931,
	0x30c3fe94,0xab029b20,0xb998cc20,0x84134288,0x9849e313,0xbc8df10c,0x24add989,0xfaf808ba,
	0x0241f832,0x9a24bf48,0x221df2a3,0xb225a008,0x3131ab20,0x5711548b,0x1100acaf,0xd1c009f9,
	0x3724ccff,0x83a7ffcc,0x1dffb280,0x0a982bcc,0x47373209,0x384bcb04,0x103a8988,0x9d88cf0c,
	0xbc3a403a,0xb9098232,0x259a8091,0x00a14bbb,0x3100cd73,0x3870bc9c,0x1dcb8802,0x509f9108,
	0x781c68af,0x5846358b,0xbb306059,0x9009d4bb,0xa304a5f8,0x80a2cfaf,0xeb807f09,0xdd1a8b44,
	0x4445a4a8,0x4d8b4a8b,0x0d093aa8,0x71a52910,0x9881a34b,0xfc0fc88b,0xbfcb0018,0x8683bbfc,
	0x89020836,0x8b8f4176,0x1820a418,0x38323388,0xc381190b,0xb8a9e0a0,0x99d0dfaf,0x11120543,
	0x18b048a8,0x8908c809,0xa2081849,0x0c8a3d0b,0x65999a9b,0x89c94190,0x982b04c5,0x0a9f38a4,
	0x80381025,0x88010028,0x88b8283b,0x94b19caa,0x28007880,0xa1b4d089,0x23b0d09b,0x0884d1d7,
	0xa88bb898,0x9856fc89,0xa9f8cc0c,0xb8dcc194,0xfb90e110,0x8089a0da,0x2516c108,0x95389302,
	0x034d3126,0x1308b200,0xb3c13110,0x38821121,0x92a28a9b,0xe98f1747,0x13dd0418,0x2192c286,
	0x88e45133,0x89148200,0xdbcd2008,0x09ac010a,0x8b85a003,0x71998097,0x89c418ca,0xb1acbcff,
	0x08008880,0x09089080,0x88888918,0x10000988,0x09999811,0x898a8009,0x98890009,0x98888908,
	0x80981099,0x98809809,0x80990180,0x00080989,0x98080808,0x89089008,0x98908989,0x80989901,
	0xa9990998,0x00088900,0x80881808,0x98808989,0x89081880,0x08180888,0x99888988,0x98091808,
	0x88880990,0x08808898,0x09008888,0x90980990,0x88898009,0x88809818,0x00998818,0x98000099,
	0x88ffcb13,0x31896813,0x0888a040,0xb2088bb8,0x280a2870,0xf2fb9172,0xcb0ab80a,0xa0571983,
	0x30082948,0x43fc0188,0x37a7fc77,0x31239a56,0x11e91b72,0x3417c745,0x0f8f1bb2,0x8272f827,
	0x132b33ff,0x00290c1a,0xa2f190a0,0x284c9cc1,0x292819c2,0x1037f09b,0x18abbb81,0x82fbfb01,
	0x0008d1db,0x8fbc1b30,0x34a90899,0x99ffb8ec,0xb92848e3,0x10c41803,0xb3862b0d,0x021730b0,
	0x89099890,0x08088890,0x90988009,0x08898889,0x09088000,0x88808089,0x09088809,0x08880199,
	0x80088090,0x08980188,0x09800000,0x89008089,0x09898888,0x10800918,0x10810908,0x89080890,
	0x08088809,0x89009998,0x88088888,0x09808090,0x80088890,0x88808990,0x88988908,0x89008000,
	0x80980899,0x88908888,0x08909989,0x98008898,0x88089909,0x88088901,0x08898888,0x88800009,
	0x3c3ba93a,0x55299db2,0x4885f1f8,0x88d08082,0x4330dc31,0x4c8fbd0f,0x0522308f,0x01ba9243,
	0xb8bb3973,0x318f129c,0xdd294a89,0x28f0abbd,0x7630310b,0xdf438b33,0x378e6cab,0xaebfbd8f,
	0x1535a880,0x479238c8,0x9e0c5110,0x1514e192,0x38b2b2b8,0x43c05390,0xc1081252,0x3308c9bb,
	0xc032f308,0x771953c5,0xbcfb3116,0x11998988,0xbb0022df,0xd83181cf,0xba830284,0xdc998bcb,
	0xa0bf202f,0x4148ff81,0x101bfcfb,0xcfff6353,0x01aa7001,0x285a8200,0x7208a581,0x0d9c2603,
	0xbaa02a20,0x089f8881,0x284c3d01,0xc8331029,0x71713b9f,0x389ba830,0xbbef8380,0x88a08a8f,
	0x88ff9a18,0x82ed361a,0x90402eca,0x89c3b84b,0x09822234,0xd0856baf,0xa1d82109,0x2849788f,
	0x224a7820,0x200d6039,0xc0f1cd00,0xc1a5c884,0x29c881aa,0x38c0081a,0x237890c2,0x923331c2,
	0xb9c3bb93,0x08017819,0xda895508,0x82b1f010,0xb4b8fa84,0x098f0e0b,0xccb871ab,0x92202c3a,
	0x8b880141,0x13042188,0xa14401a8,0x62110b19,0xc09822b3,0x23b42b44,0x27840f0b,0x9ac80136,
	0x03d402a9,0x9691dafb,0xbb09b5b1,0x94019d28,0x4119fca3,0x5ba84008,0x01888037,0xfa9aff01,
	0xff3bfc08,0x34a88880,0x1a382384,0x1232a331,0x8b009808,0xfa3214c9,0x8a03a8ec,0x2d173011,
	0x28932a2b,0xc8107400,0xc10866a8,0x8cc39730,0x311bb209,0x1395f293,0x76990fb0,0x81bf0a09,
	0xf990c39a,0x4c161db8,0x809f90a9,0x8db0b9ab,0xbaa09868,0x84184928,0x01a7f883,0xd5cb810e,
	0x89235023,0xcb98c1c9,0xa18a921c,0x78249a8a,0x8c104735,0x9f98168c,0x81a1470b,0xf091d421,
	0xb9c01108,0x49028188,0xaa32248a,0x69700988,0x1a11ac00,0x78790bb0,0x23bb4928,0xc8801a31,
	0x08890801,0x99809891,0x08999208,0x8a019908,0x99aa8919,0xa8a81180,0x01818089,0x89a80089,
	0x888098a9,0xa9888000,0xa9800908,0x80809889,0x18180981,0x09900080,0x00000088,0x88909800,
	0x90199998,0x9a998898,0x80999999,0x08088990,0x88888009,0x88018091,0x8089998a,0x898a0088,
	0x8a89a890,0x890009a9,0x80a98999,0xa898a1a0,0x80a00a98,0xa898a888,0x08a88980,0x88808a98,
	0x9b633239,0xa142feb0,0xd883bbb2,0x1c81ff8a,0x0030f928,0x088cd20e,0x0383bb88,0x088cfc23,
	0x0040be21,0xfb90c8c9,0xaa33be89,0xaa198818,0x8878214c,0x52472323,0x07170808,0xb82f252f,
	0x1687c882,0x47a80a3a,0x802b2a1c,0xf991f214,0x770bb0a4,0x04dbb139,0x2c22b335,0xb332080c,
	0xc951f900,0xc40738b1,0x91832d11,0x1982c181,0x3a85a201,0x9223d802,0x90120a94,0x51aba9bc,
	0xe0b4b00c,0xdbbafc64,0x1e04f0a3,0x2f655c5b,0xab21cbc0,0xa08a8488,0xbfbe8401,0x2cfb2fac,
	0x8b228b33,0xcc9792b1,0x09388aa1,0xa9ca0d3c,0xb1d09949,0x40ceb221,0xff040290,0xa0ab01dc,
	0x8f170ac1,0x813302b4,0x82f82b39,0x81022309,0x431c2809,0xe837399f,0xef49cfaf,0x89ab5136,
	0x4068d290,0xbb8842f8,0xa334ba02,0x90429300,0x9c204023,0xb0209a53,0xcfbc8a44,0x02abd033,
	0x088f03af,0x11748dfc,0x805430a0,0x9cbeacb0,0x0110fd0c,0x22388b8e,0x08043888,0x186f2113,
	0x0899bf29,0x8c1c18b9,0x0b573eec,0x39798838,0x19700c71,0x1c822a77,0x368d21a8,0x9d00803f,
	0x43a51280,0x81b04a70,0x54644cdb,0xc8bcd8f8,0x301f02fd,0x0b999b3e,0x88639098,0x46333aff,
	0xa31abbda,0x21834c3c,0x3bc81a90,0x02e088ca,0x8c014008,0x939c0000,0xf8409826,0x20045082,
	0xd977f537,0x3243fc00,0x2158f1d0,0x89a7ff3a,0x13249b7a,0x22b90ab8,0x8482ffcc,0x11542fcf,
	0x980b4940,0x31930cf1,0x000d9c08,0x0951893a,0x407a49c7,0x8074ab2a,0x8747abba,0xa3340273,
	0x01f7218c,0x37b70b41,0x819c9882,0xf08ffb6b,0x22afcb43,0x1b3e3251,0x9c8b9175,0xb0384900,
	0xb069fa30,0x8d03aaca,0xe80380bb,0xc807d4bf,0x8abd18ab,0x43328b23,0x98789ab3,0x52809a0a,
	0x80909912,0xa8009098,0x8809818a,0x81881089,0x99090010,0x99888808,0x9908a081,0x91881089,
	0x89989998,0x0a182898,0x88a81080,0x99109802,0x9898a898,0xa2a01898,0x100a99a0,0x00018898,
	0x00819a98,0x9a092899,0x8a898089,0x08009999,0x98029989,0x988198a2,0xa0801200,0xa89808a9,
	0x9899812a,0x90890801,0x00889980,0x99890808,0xa8889900,0x01292980,0x18998989,0x1109a89a,
	0xbb41ec14,0xb8997100,0xd8ab2090,0x1821f988,0x72a103a9,0x0c199c20,0x48b4ef1a,0x99748c09,
	0x8cab3d58,0x64930d9a,0x8898aa10,0xfd22e803,0xfee88a00,0x38875844,0x80b8ffbc,0x8812c007,
	0x02b040b0,0x2c15fcfb,0xc1c82312,0x64601aa9,0x222a68d8,0x48204824,0x820422b1,0xfcfbf8b3,
	0xf19245fb,0x19acf832,0x70281800,0x5000a308,0x00336811,0x74002015,0xc996abcc,0x80b73938,
	0x03160108,0xba12a10a,0x20100218,0x482451a8,0x691a43a0,0xb3f88010,0x7583ff90,0x88ef8dcf,
	0xba3f8101,0xb817ff08,0x01bfb8c8,0x8d308c0c,0x02b93a43,0x20ab9cff,0x2627d83b,0x3f8d083f,
	0x12444419,0x0aa2bbdc,0xb1197c49,0x42311a01,0x0b34a532,0xbf1b80e9,0x08372413,0xd8f030af,
	0x02c246c8,0xab084811,0x8b0322a8,0xb8a80383,0x4901feb0,0x34f98f9b,0x53f93048,0xa80d8b39,
	0x634b2110,0x74778b08,0x38413bcf,0x00af1529,0x01192100,0x8464bcbc,0x81b483bc,0xad291335,
	0x2ab2b98a,0x103b8c1c,0xb8438b0c,0x08990010,0x8577993d,0x8bcbd8a0,0x938bc9da,0x8208cebf,
	0x99894383,0x15cc3712,0xa113211d,0xabf90198,0x9a185310,0xdbfb2a49,0x01bbba00,0x51370564,
	0x0b607111,0x4282344b,0xc0fcdf88,0xf0f91afa,0x54da889b,0xdbf91400,0x8389a1f0,0xfb902af8,
	0xc099f9af,0xd088c9cd,0x01a2a0b8,0x181ba132,0x4a4ccfa1,0x9a298121,0x0267d8db,0x830824e1,
	0x19019128,0xa1b8df87,0x7501abb0,0x9849ba21,0x82313a38,0x294018bf,0x6713f920,0x3fc88021,
	0x47a8fade,0x98a6aa1a,0xdbab5b20,0xd99fccdd,0x33340000,0xfd24201b,0x31535717,0x4533fffe,
	0x4009d908,0x8322183b,0x4b8108a1,0x888104bb,0x3008aa19,0x44fe9ced,0x890cac69,0x30806862,
	0xb0f844ca,0x83cf8723,0x69f28606,0x188b43c8,0x3930a008,0x193819d3,0x108d1188,0x8aff0201,
	0x08f110c9,0xf0ee8413,0x8134d8a0,0x20c949bb,0x01dca0fc,0xab038376,0x181f8030,0x8b040b9b,
	0x9088ba40,0x048c2c31,0x9a734019,0x80904231,0x09aed320,0x5a95fdff,0x088f3040,0x0891808c,
	0x09fab121,0x232821fa,0x91489164,0x10710977,0xb0cada90,0xf877ca2c,0x4411383d,0x9814f1c8,
	0x29438723,0xa8cae280,0x1ba8bab1,0x2b143f00,0x70529c3a,0x3504980c,0x8cbb89b9,0x1808cda1,
	0x9befbf69,0x0010b0ff,0x9a830f1d,0xb8da98eb,0x93620b18,0x1fa2b1c9,0x95003130,0xcf9e04ff,
	0x82173404,0x51b03aba,0xa19a7870,0xb5b0d3b2,0x2ac309bd,0x9bd92fcf,0x1f9d1f8a,0x1143118b,
	0x35030262,0x112044c1,0xc9b08123,0x91219483,0xbfc10110,0x04100313,0xf8c2cda1,0x01f1ffcf,
	0x90a5c4ca,0xfc09bc11,0x3888aacb,0x1a887c1b,0xae18ad0a,0xa8771023,0x0b9fa413,0x00251906,
	0x84159b29,0xd0b247b1,0x24079a44,0xdab22881,0x81981249,0x80bfd831,0xef952224,0x003581a6,
	0x0d06bb95,0x2b114873,0x36472e10,0x0a328a91,0x338028bf,0x44a2a08b,0x13bfc10f,0x89a89825,
	0x7085d1e9,0xcda1310f,0xa848ab33,0x89749982,0x88185212,0xab0a8e34,0xc2ac8960,0x358fa120,
	0xc043abff,0x10095388,0xfe090922,0x8042f3c0,0xa080a488,0x00a7a117,0xb8886d10,0xd8fa148a,
	0xb1203253,0x73bd1b08,0x291f9451,0xbda49f8a,0x00a002bb,0xab0e004c,0x88089a43,0xb81efebf,
	0x80382180,0x3c81b9cc,0x821cc820,0x3411802b,0xd09b10a0,0x818ad0cb,0x8c79df9b,0xfa8c0180,
	0xfaf0b088,0x8489e2c4,0x11625342,0x62698820,0x34087588,0x08624100,0xcbef8a72,0x00306330,
	0x53207203,0x9204b01a,0x2148493e,0x028b09a0,0x8b91c9f9,0xa2a3b1cc,0x03b1b8b8,0x1267b102,
	0x488ce8fb,0xdd7a9923,0xa4b531da,0x297b1713,0xf021c928,0x2a3f0ad8,0x2a3094d0,0x888200a2,
	0x2c3f2008,0xaa1c6475,0x30021913,0x1c193483,0xb830b08c,0x9c8e0035,0x40f31403,0x66820408,
	0x07937001,0x89180869,0x1ddd0b1b,0xbaf91cff,0x0108f9ca,0xa0fcb898,0x40248890,0xb1c8199b,
	0x03cc23bb,0x9000cb88,0x8933da21,0x00232f5b,0x2a28ff49,0x2c09911f,0x21a8f82a,0x8c37ab93,
	0x0991ff70,0x90121089,0x9b13fad8,0xf699a2a5,0x10501a62,0x17082343,0xc381239f,0xf0c408c2,
	0x14368b00,0x069941ca,0x41c9ab88,0xef9d45c9,0x76704589,0x2051cf1e,0xbc82dccc,0x2a1b084b,
	0x33093511,0x80041022,0xa40aebb8,0xc98838cc,0x9b821010,0x3351b980,0x4381bf02,0x208afcba,
	0x00880090,0x80888818,0x88000888,0x89889098,0x89818000,0x09880889,0x00828089,0x08088088,
	0x88088980,0x0908a809,0x08888199,0x08000888,0x90989999,0x11980919,0x80988889,0x80908888,
	0x8898a089,0x08089890,0x880a8808,0x0888989a,0x91899008,0xa800900a,0x89089908,0x98888980,
	0x08890999,0x0a099088,0x09098800,0x18890a88,0x99090998,0x800988a9,0x98099018,0x889a8888,
	0x389f9b54,0x5000ce25,0x4198bd9b,0xacff0983,0x8bab7428,0x68c05528,0x800b2090,0x83c307c3,
	0xba825210,0xb53f519a,0x80f23523,0x83104487,0x3a9019fa,0x8402cbb8,0x842f088b,0x8f92108c,
	0x32ffd38c,0x34f00bfe,0x001d0380,0x20fa8332,0xb9b82123,0xa28b7acd,0xeef91a46,0x982036bf,
	0x03c12a61,0xb428ba91,0xf2f90b03,0x03b0a225,0x82a307b0,0x2878a407,0x9083c8f0,0x083ab1fb,
	0x093bf8fa,0x0a531dbc,0x8c410aba,0x1038b1d0,0xd2218808,0x104efa8f,0x1881400f,0xb4348b33,
	0xaa28fc32,0xa9a8994a,0xff141108,0x14b2889e,0xd074c274,0x1308ae12,0x2707899c,0x180d25ab,
	0x130780ca,0x17340b33,0xb99f1210,0x061caafa,0x574106ff,0x2b8e9258,0x4a1108e8,0x888accb9,
	0xd90001cf,0x01118308,0x44b02101,0x428931cf,0x608c3319,0x00808899,0xff998891,0x30cd682c,
	0x04dfb48a,0xeaca12b9,0xcb8c22b3,0xa3b12602,0xfdb88afb,0x0501a5d1,0xc12a7607,0xa1238107,
	0x28bae1fc,0xcdffc182,0x014000dc,0xfb2a85b4,0xfacbcbaf,0x2d0c1b3a,0x10048707,0xb2a9ebbf,
	0x8ab17238,0x0badf430,0x2b7009c2,0xa8c2123a,0xee0293b8,0xc8092008,0x10b83a4b,0x124192a2,
	0xf6ffb938,0x0042c1af,0x08986702,0x54816b59,0x16cab1ad,0x9f40b6bc,0x18489888,0xfa1f7384,
	0xc8f8fb9a,0x94338802,0x24159011,0x0a188010,0x3a58c9a0,0x80df8832,0x35bb8acc,0xd9b0848a,
	0x8b313977,0x87fb90bf,0xbacff603,0xf903ca1a,0x2148798b,0x738800ef,0xa58e6a8b,0xbfbbe9ff,
	0x46338891,0x17834a88,0x81fe2c1b,0xba09a4f9,0x778203cb,0x0041cfcf,0x13133c0a,0x088bae3f,
	0x200b0821,0x1703b235,0xa8c08bb1,0xf0c8b3c9,0x248237ba,0xa0b0ab09,0xcc819a01,0x58afa801,
	0x29410b87,0x7474f9a9,0x7168942b,0xb98d30ce,0xb3b10b8a,0x3a4228a9,0xf4433438,0x5f0f3b20,
	0x503330c0,0x22719068,0x3a778bc8,0x7b830c5d,0x59412a15,0xf9b80214,0xba0e8fac,0x2c870933,
	0xf8e35300,0xb9214955,0x2b848ae9,0xd8eb3888,0xcfc9131f,0x238b8e12,0xa49a2ac0,0x71341fa0,
	0x1858584b,0x15818b8e,0xa8d8beff,0xe0c240a8,0x8b402429,0xf0a85498,0x2c10a3b0,0x8b8b0392,
	0xb8ed00b8,0x18344492,0x04434239,0x12bcbb01,0x84bbc829,0x38998e8d,0x09842b9d,0x33478879,
	0xba800110,0x1045bf24,0xb542ac00,0x5078c034,0x00304181,0x33471036,0x56bfbfaa,0x84ac0007,
	0x242f221a,0xa28d2add,0x03b828ab,0x880bb8d4,0x5889caa4,0x11439425,0x99d19687,0xb23202b8,
	0xe928d090,0x28c94d42,0x88ba18b9,0x88ec80bc,0x9f119c81,0xf2e0204a,0x039221fd,0xcaa71a89,
	0x0a088890,0x88090888,0x98988989,0x80800988,0x98998808,0x88a899a8,0x08a899a9,0x09999898,
	0x8909990a,0x0a88a9a9,0x98989908,0x80888988,0xa9900908,0x98018081,0x90819aa8,0x98090880,
	0x90898a80,0x99088a09,0x98899888,0x099a9a99,0x90810888,0xa988a891,0x09990900,0x9a988989,
	0x090900a8,0x90080888,0xa8a09899,0x89999899,0x99999888,0x0988a899,0x98000a89,0xb8988a89,
	0x11f9349c,0x38a23450,0x30b0408a,0x189b75bc,0x98c044bb,0xa892004c,0x770d722a,0xcb9e4c47,
	0x031584d0,0x4a87655c,0xa42738ab,0x8ab149a9,0x53dd941f,0xeb9b1182,0xb48710af,0x842bbcbb,
	0x81370ba0,0x4249343d,0x21948cbd,0x3883792b,0xff0d7530,0x801c98ff,0x83d91419,0x3cfc4703,
	0x30f9701a,0x220598ce,0x0213b130,0x88332f22,0x6004be9c,0xab001c04,0x09c87390,0xaa3e8254,
	0x0876e0cc,0x828b3008,0xa308bfcb,0x106636d5,0x3418e430,0x4c73a203,0x75828020,0x9880b0ff,
	0xddff0738,0x802b7223,0xc4fdc26d,0xca1fb3e0,0x23300247,0x0a298bb2,0x0f4f0423,0xb2020900,
	0xac1cdf8f,0x1224f720,0xbdb80333,0x11052f3e,0x11ce4336,0x11bf3302,0x881c8481,0xa9c017c4,
	0x0aa04b09,0x1f2f90e8,0x8b1a0341,0x6342bb98,0x9fff3888,0x5830ba8a,0xb4a10040,0x90074a8f,
	0x93c610d0,0xa1a93363,0x15d34a40,0x09027880,0x491ce810,0x3c41c830,0x758bd80b,0x8bd38dbf,
	0xa10be871,0xfab03498,0x0310b19b,0xc20b1499,0x83d02267,0x60264877,0x3e878008,0x98874327,
	0x8b039f3c,0x800888c3,0x21071cac,0x2b324a8a,0x50898334,0x5b1bac17,0x0a8a3411,0x33e81808,
	0x30ab3498,0x2fad0b2a,0x18790b14,0x0b738c43,0x8facef88,0x584aff9c,0x83a6331d,0x8217e072,
	0x89990888,0x08981808,0x99898098,0x08088098,0x88898800,0x89990018,0x88899098,0x09988980,
	0x90980990,0x81998990,0x89088800,0x88988090,0x98808809,0x98089000,0x81818980,0x99800898,
	0x98909808,0x90808908,0x88800080,0x99898990,0x08908088,0x8800a888,0x89090888,0x88008188,
	0x00980808,0x80990899,0x90898888,0x88880998,0x88889888,0x88900908,0x00909888,0x99890999,
	0x21ca7801,0x11b9cc10,0x39920860,0x00386593,0xa0bb58c4,0x8d5c8992,0x0118f80a,0x27ff368b,
	0x218910f1,0x0a888873,0x800b54a2,0x28d0680a,0x88f1f800,0x02af0f98,0x1202182b,0xafc82aff,
	0x9b3c021c,0x0a1abbfc,0x8a328088,0xab896062,0xee390634,0x9f3283fa,0xb0343137,0x73898adf,
	0x61fb7a41,0x08380883,0xb038ca39,0xe930c967,0x8539ecbc,0xe880119f,0x76fbb34b,0xca14f922,
	0x98988009,0x90891889,0x88998889,0x99989899,0x08890009,0x09988889,0x88808009,0x8090a088,
	0x99089099,0x80180908,0x98888890,0x00089980,0x88089888,0x90019088,0x08188899,0x09009081,
	0x89888099,0x80888919,0x08880090,0x00008909,0x00909808,0x80989009,0x99088009,0x08808000,
	0x08889809,0x98088099,0x99889889,0x98989909,0x88889980,0x89080989,0x99090088,0x88089980,
	0xe0f94476,0xa8293933,0xf2eb2441,0xa0ff8448,0xc2b1fb03,0xbaff8c58,0xff91b229,0x989932f9,
	0x0212b911,0x9020828c,0x20c34092,0x8232b219,0x29494142,0x31c13214,0xc7bf2001,0x39364844,
	0x85dff2a9,0xd89b08fa,0x28dd99cf,0x31bbd0b3,0x72998a43,0x32530191,0xa4fc3c24,0xbab8bf3b,
	0xa810fc08,0x938b5838,0x32fd89b8,0x00f209b0,0x12411151,0xabc18328,0x110382fc,0x30338888,
	0x99098809,0x80080889,0x88080090,0x88980089,0x98890008,0x98889080,0x88809809,0x90998008,
	0x00098080,0x10809980,0x90800909,0x98090980,0x08088890,0x88999980,0x90080080,0x09800999,
	0x80989899,0x08081909,0x00090008,0x88808908,0x89889088,0x90988088,0x89998889,0x89808808,
	0x08098080,0x08080898,0x09909899,0x99809099,0x08909889,0x98099809,0x00090000,0x90908808,
	0x38221402,0x308001b3,0x8a880a32,0x0273a31a,0xf205a8c0,0x090b3a94,0xfb017410,0x982003cb,
	0x52359850,0x70cb1289,0x4aac28ac,0x32e54000,0x9923a983,0xae8ceb8e,0x99261881,0x8492cafa,
	0x0a2502a8,0x9b901913,0x9bb8c023,0x98c893ab,0xb8894acb,0xa2888480,0xc912af9e,0x51219133,
	0x21b9b8b8,0x1322f0b0,0x01121820,0x0198880b,0x37887509,0xe9b05790,0xcf9ab842,0x088b4424,
	0x89080881,0x88988181,0x88898080,0x01088909,0x90099810,0x08889988,0x90989889,0x09008898,
	0x09880998,0x00980889,0x08080808,0x09199880,0x18809888,0x09089099,0x81080898,0x80988888,
	0x80880009,0x09800098,0x00088881,0x80988801,0x88800988,0x90198898,0x88980898,0x08088099,
	0x08800808,0x80908098,0x88900808,0x88088009,0x80808099,0x88090888,0x09809000,0x10890808,
	0xb8a8a9cb,0xb888d0e9,0xc2c1a0a8,0x8322a9a1,0xb8901308,0xb819b2d0,0x822309ab,0xca80b888,
	0xa81098c0,0xba989b9c,0x235cedd8,0xdaa2a91b,0x9911a019,0x81230231,0x4131a480,0xa3a8ba09,
	0x14029318,0x902a8d9a,0x18390110,0xc00a90b9,0xb4168a0a,0xb80008a1,0x90139104,0x88112598,
	0x998b6009,0x28809091,0xb801b292,0x9809a1a2,0xa018caa9,0x81910011,0x98bc0101,0x0829c081,
	0xebcfbb07,0x88097401,0xb20b7390,0x949f0245,0x10f989d1,0x808f7281,0xdfc37880,0x881a980f,
	0x99da428b,0x72205435,0x03d011bb,0x8c70d288,0xa8a29ac2,0x828481b0,0x1ccf0084,0x228bed84,
	0x939f3228,0xae92a2d0,0x139184a1,0x40ca0803,0xec431984,0x70829482,0x21cbb904,0xa08189a1,
	0xe84a12d8,0x2c8c8141,0x3cc80880,0x39c22499,0xc93b6013,0xb0d02118,0xd38420ae,0xb4472090,
	0x0840c041,0x9a89bb54,0x591a30a0,0xb1036f01,0xefb02a82,0x08bf778e,0x8a113729,0x11ee9019,
	0x8b599b01,0xc5335380,0x8c0f3603,0xb431284d,0x39d82dce,0xb898b8bc,0x810776bf,0x2f2f118f,
	0x8902c300,0x10c20dce,0x568c8083,0x92991828,0x0b012ca1,0x3b9974bd,0x0f039f09,0x624a558f,
	0x580a1d09,0x9103bec3,0x0134ba09,0x91032389,0xdc450913,0xb9c2c014,0xdf8c2b00,0x534ac303,
	0xdbea807a,0xbd19c912,0xc6d11804,0x83b98333,0x0209f8d0,0x1100fba1,0xad00fcc7,0x1488100a,
	0xfaa0ef8a,0x4b1fd384,0xbbbb9fb0,0x0e03e0ca,0xe801feac,0x03b04188,0x4cfff796,0x8faa0148,
	0x338f3841,0x0ace08b4,0x31400888,0x3d84f304,0x0a949398,0x43158220,0x10fc2138,0xa031bbeb,
	0xf319f542,0x8208188a,0x18ed8aa9,0x11022961,0xad0c1334,0x17715fac,0x464229c0,0x0483fdf9,
	0x09b86530,0xa9008240,0xacd48f18,0x08a07889,0xd3a2b9f0,0xc8289b28,0x99ba1dab,0x00cc4f15,
	0x9a0491a0,0x6ba102bc,0xcb197082,0x50d9390b,0xb0fbb30e,0xb4b9fc63,0x9c278a1b,0x068e1a09,
	0x1e17b886,0xa93c40db,0x88039890,0x40049c0b,0xb48a00b8,0xeb00ec9f,0xc9bb8d8b,0x8b992047,
	0x73b9fc10,0x1b3281fc,0xaa509811,0x8061ce42,0x201340fb,0xf0223b00,0x49021180,0x038fc936,
	0x8c2fb44f,0x89080a85,0x11939bf9,0x00bc4003,0x0121bc9e,0x002cf35f,0x306bd5b0,0x210a4a26,
	0xe890ca44,0xb09386cd,0xa0232a8c,0xb8c88a01,0x883c327e,0x90881b21,0x371a0799,0xb91f844f,
	0x06c2e8c0,0x4438c38a,0xdaef490e,0x3423b989,0x43cd8883,0x88c33430,0xb0a80180,0xa09894a2,
	0xb141fdcb,0x122430b8,0x91fa3d09,0x59b98021,0x8b2618ab,0x40740b43,0xff4390d4,0x09efdaf8,
	0x10058b12,0x11217482,0x03331111,0x80dfd20b,0xc8b91288,0xc223520c,0x89393008,0x0029bf55,
	0x29275689,0x332702c0,0xac042440,0x23392a38,0xfae9007c,0xc9deb40a,0xcfc0488d,0x47709107,
	0x8f1682b7,0xbb1823cc,0x871798cd,0x32818193,0xbf8999ba,0x089033a9,0xfbcd82af,0xcb023777,
	0x9c35f8fa,0xad97c28f,0x11c02184,0x09c010b8,0x81528b94,0xa8ba7155,0x909c12b8,0x103f7092,
	0x98808008,0x08889000,0x09988090,0x80890808,0x89800808,0x80008999,0x88088980,0x80088088,
	0x88800888,0x09998988,0x98880899,0x80898009,0x08080800,0x80009998,0x01800088,0x08000808,
	0x90898098,0x08990888,0x98088808,0x80889800,0x00100090,0x90898088,0x08880808,0x08080888,
	0x88800888,0x09980800,0x89088009,0x88880890,0x09099088,0x80818089,0x88800090,0x99808889,
	0x98880890,0x90800998,0x98890890,0x09980899,0x80800809,0x88989898,0x88889898,0xa0809080,
	0x80889889,0x08889088,0x00088998,0x09888900,0x199990a0,0x88809088,0x88808099,0x80800008,
	0x99089899,0x89808088,0x90989888,0x80088880,0x98010888,0x98009908,0x98090008,0x99989888,
	0x89810888,0x88989808,0x80999080,0x90888000,0x09880989,0x88088988,0x88888088,0x90980889,
	0x19a58887,0xbaf9d381,0x3a8c9983,0x451300c3,0x70117118,0xf1f89125,0x0200fef1,0xb8032a8b,
	0x10cb3111,0xffa0fff9,0x822af4c1,0xb181a2ce,0xf4a08a82,0x26370723,0x8f8d0920,0x4880a105,
	0x3a2e2fa0,0x12010a11,0xdff04424,0x21140ca8,0x9714feba,0xfb00cca9,0x3228140a,0xbb9b4b14,
	0xb3b233b8,0xaf3c1644,0x81011531,0x19280b53,0xa128fbe8,0x3123bf1c,0x8494502b,0x2322cc0b,
	0x8077b2b4,0xf8908110,0xb1180280,0x9047fe08,0x128dfe3b,0x212709a8,0x7305ff09,0x23bb8c4b,
	0xa00ec98b,0xf324be25,0x03ff0d0c,0xcc20b280,0xc0b800c1,0x832338fa,0x8707dba2,0x02af8192,
	0xb3071978,0x993708fc,0x11b80900,0x12580841,0x48a9d945,0x0a1d8197,0x89779694,0xa0909b83,
	0xa0188180,0x2904ae03,0x2872101c,0x306308db,0x8d40cb03,0x44aa0cbc,0x03fc994a,0xc0c78978,
	0x98808998,0x08880890,0x090980a9,0x10801088,0x98891880,0x09089098,0x80999999,0x90888899,
	0x98880100,0x888819a8,0x99889980,0xa182889a,0x99981809,0x00009888,0x09800099,0x009aa000,
	0x108888a0,0x88898899,0x9999908a,0x99990899,0x032098a8,0x889a1000,0x98888199,0x89901289,
	0xa8818888,0x98889808,0x00999989,0x0889a9a8,0x98988880,0x0888800a,0x989a8009,0x91080809,
	0xb042dc85,0x0109fdd8,0x2490faf8,0x1ba9ad9b,0x8aab7738,0xc2842680,0x4348fe10,0x9036a982,
	0x190275a8,0xf8b2ffa9,0x2847f120,0xb3132855,0x19588002,0x444736a8,0xaf82ba0a,0x45188666,
	0x5b9bbab2,0x23c9a81c,0xb3189899,0xcb88cb82,0x8210bbbb,0xf8b8314a,0x9cb89030,0xcb521209,
	0xcc44a9cc,0xffc80198,0x93913a1a,0x48ccd3b1,0xb824fa84,0x30034c47,0xd8012ab2,0x539b008a,
	0x80cc88b0,0xfbe0ee11,0x6081cb33,0x88467fa8,0xb9b3ffec,0x138c804d,0x9fccd205,0x43434b53,
	0xc92bffea,0xfca3a610,0x0308aba2,0xf889b089,0xf8fc0ff9,0x84240822,0x8092450a,0xbc0fa19c,
	0x38189132,0xaf30e0b8,0x34981fa2,0xef70300a,0x662dab09,0xa525cf01,0x9d334faa,0x32ac9b0c,
	0x74cb4409,0x80182c01,0x0074ae08,0xba609153,0xff253214,0xfb11bb04,0x3b91ce31,0x0380f824,
	0xb851b020,0x4023f3a8,0x0b388398,0x80d0f219,0x26090000,0x71329f00,0x90283b0c,0x642f1a33,
	0xa01253e1,0x7003bf81,0x08333b83,0x620b0c2b,0x20bc31f0,0xa9808a05,0x2797af0b,0x99f88b58,
	0xace02038,0x87859be0,0x9c688389,0xb499ba73,0xa8acce63,0x8aaa9200,0xe1801605,0x8052fbce,
	0xda1aac71,0x1306bba9,0xc83587cb,0x00138143,0x8323ac8b,0x334504ca,0x7121e3e1,0xbe9f81c0,
	0x00fb3aab,0x74217235,0xd1f32b32,0x18c1b208,0x62992700,0xc0cd8f19,0xbf890f8c,0xca87a80a,
	0x28677470,0x74f02cfc,0x00258438,0x73983f15,0x04ec22b3,0xf284d175,0x0ca8cf20,0x8087c837,
	0xbc13a390,0x089d89f8,0xa0928199,0x7341d9d8,0x8e880893,0x4b26fcf0,0xffa1ba28,0xf9b94308,
	0x9ae2c3db,0x1ba8bba9,0x43743924,0x49700a10,0x59082c91,0x82004a22,0x840158c9,0xbb907065,
	0x08988098,0x08898818,0x09888800,0x90808800,0x99880088,0x89808098,0x88818800,0x98890908,
	0x09918080,0x80188898,0x00088800,0x09809099,0x80909809,0x01008888,0x09889088,0x88989808,
	0x98800089,0x08801800,0x98188909,0x80900899,0x00010880,0x09908889,0x88008880,0x89898880,
	0x89000008,0x89809098,0x88888808,0x99880988,0x08088909,0x09888889,0x08008088,0x98080899,
	0xf0069216,0xaab877b9,0xfdfb3484,0xc2fcf93c,0xf2b0fff0,0x322218a9,0xa0297330,0x308d8c1b,
	0x9104b3f8,0xe0319080,0x8b0835fb,0x04183012,0xfe00a3f6,0x09bd6038,0x978e2d20,0x94813938,
	0xbcb19115,0xd501f0b1,0xb820f2fb,0xc1e19a92,0x8090ed20,0x253d3488,0x29f11808,0xfb32de13,
	0xff3aff09,0xb6a0bbab,0x41db17d0,0x13082202,0x3382c028,0xcf11379b,0x8b1ac6e0,0x0f803798,
	0x358979b9,0xa8807189,0xbb017238,0x80685588,0x9889b893,0xf18a9817,0x08cd801a,0x83fc520f,
	0x1000d913,0x4030205b,0x9cff48f4,0x89a289be,0x3016ea9a,0x2f2c8fff,0xa01f9858,0xbfeebfef,
	0x087b81a1,0x9e2ba00e,0xc8f0805a,0xb90822c9,0xca8326cc,0x3a52cb09,0x12642fcd,0x8cf90c18,
	0x10f874f8,0x14013423,0x31bda082,0x91ac7101,0x132923ac,0x00d2839b,0x0bb1117a,0xa03b0868,
	0xb0c8f8a8,0xba8c37fd,0xfa9e4398,0x08cff331,0xe093c8f0,0x10342b84,0xb9237430,0x3278341b,
	0x180482ed,0xa8ef0a98,0x312853ab,0xb8312a22,0xfb73a882,0x0a9b3a2d,0x929e3b44,0x10420b8a,
	0x8cfb7618,0xfdb89b34,0x4858000a,0xb1da9990,0xce28bc99,0x300c3511,0x00a22808,0x9144fdab,
	0xb988fa10,0xa598bb3c,0x4a9a348a,0xa101748c,0x36ab0030,0xaacb67c9,0x8b6f8252,0x0c207404,
	0x0c02fd20,0xabfcffd0,0x98bad093,0x56602412,0x21117972,0xf1fbb780,0x91d4fa09,0xba1bbacb,
	0x120b2231,0xffc8ff38,0x29dff702,0xbbc3badf,0xc8632804,0xa13d3cfb,0x090a1700,0x02c8ca10,
	0x2703809b,0x0317ae3c,0xcfbd3413,0xa0baddd3,0x1557c9c9,0xff8a3002,0x1828438a,0xcbdbb308,
	0xf9887300,0x1b1b3674,0x21b823a5,0x01d02ca1,0x0a9ef8bb,0x9ab188bb,0xab03382a,0x8571408b,
	0x9b80a01d,0xdecf7708,0xfffe8ae8,0x01c1fa80,0x08a8c210,0xb836a912,0x19296823,0x9814b107,
	0xd1d3a8a9,0x6b191a91,0xb1144052,0xacec8a84,0x88cbe3ef,0x828c0473,0xbc03ea37,0xb101029a,
	0xbb878c90,0x48291854,0x8951b984,0x74510828,0x920c5392,0x01a8fa8c,0xc8acd20c,0xffa88234,
	0xaba2e8b9,0xa8a100bc,0x00631567,0x73718063,0x03a14846,0x5370aa33,0x820e0000,0x333b38a0,
	0x8c478a24,0x6a43fc93,0x1c38d00a,0x0200b12c,0xb2a39a24,0xca888f83,0xfd8bda11,0x3192399b,
	0x22579c81,0x7408218d,0x0f320023,0x71c23d50,0x3b802294,0x89f9f298,0xcf87afbc,0x99170067,
	0x9f8616c1,0x2b821e11,0x8091e110,0x909bc802,0x88aa881a,0x309200b8,0x8ba8ce2a,0x2a48cac1,
	0x2c41c040,0xb08381bb,0xc177b100,0xb849800a,0x15201008,0xe1823305,0x00ceb098,0x49af0495,
	0xb8930930,0x5b11ff23,0xab01e338,0xc143a130,0xd8e03a94,0xb0ff4482,0xfb338380,0x11ff35af,
	0x01118af3,0x380c8929,0x29ef5312,0x32002029,0x7db8a0f5,0xb88bbbef,0x834a3409,0x2bf02c1f,
	0x8f30b6bd,0xa8030af8,0x10def381,0xcbde8029,0xa114e967,0xb22211cf,0xea442f8a,0x381c620a,
	0x8b0b8c71,0xc1388094,0xc303b09a,0xc2a88351,0x84482108,0xb8702300,0x5beef3b1,0x0841a293,
	0xc2430490,0x8099ff80,0x2382fe88,0xb035a911,0xaba95b20,0xb00c7704,0x4211fcb1,0x25df9d0d,
	0x032a6af8,0xe102faa1,0x0b8d8a13,0xa198031a,0x388009d2,0x62c89a8a,0x89170518,0x3b3b343f,
	0x0a42fa8c,0x18461128,0x93399d80,0x9d38c960,0x0888c040,0x818100bb,0x89518038,0x9309339a,
	0x2381f848,0xef107191,0xca338caa,0xca12f833,0x8010c990,0x9830df08,0x74aab272,0x361ab818,
	0x00219083,0xb100c889,0x6430a339,0x999b19ad,0xdca1cbcd,0x05563709,0x1880f406,0x3363c834,
	0x358808ab,0xfe37d782,0x2498008a,0x014bb391,0xa0b92a2c,0x81882288,0x9d122402,0x33953303,
	0x1d2ffc85,0xcf010655,0x33c53d98,0xb91089a1,0x3392fc3e,0x0784a017,0x07ff21ed,0x8183a005,
	0x8384c1d9,0xa191100b,0x9abd1d9b,0x9a01a0a2,0xce038282,0xefdbd982,0x0bb93b18,0x058fba0a,
	0x43763980,0x2420c08b,0x8128c02d,0xc0678ce9,0x8180eb1a,0x0b321982,0x27358131,0x30a01bcb,
	0x119bc2c9,0x94700875,0x88d8393a,0x713923b8,0x5a418036,0x898c09f8,0x3077a812,0x08801004,
	0xc0338a1f,0x8b749933,0x0d88b9a3,0x88585b7b,0x8a80a451,0xbbbf1387,0x442117b4,0x50d8b9a1,
	0x20286118,0x8a18ab01,0x8b8ab008,0x01280808,0x808c9918,0x03ba00bd,0x48c8b868,0xa086292d,
	0x5809298c,0x8290df00,0x4a813808,0x20887892,0xbb15fcb0,0x909fb88d,0xff324780,0x888b8402,
	0x4891ff24,0xabab9620,0x422a0a01,0x92901380,0xa3ab1888,0xaf488a0b,0x068857a0,0x1dcdff0f,
	0x338104bb,0x8b004430,0x1b8c6982,0xbf181409,0x08098b90,0x83124131,0x2aa10f00,0x768c30fa,
	0x07fc7193,0x47298980,0x2923e951,0xbb820819,0xb098840e,0xff9b87cb,0x1f199013,0xb88fc003,
	0xf42ba00e,0x5509ffd0,0x4089f2f3,0x0bcf085b,0xa88b757a,0xa21487ac,0x082bf998,0x10363983,
	0x8b924313,0xb1d2fe98,0x0b38d028,0x36a10d48,0x4961802a,0x433b52b8,0xdfcf811a,0x43394438,
	0x2fcdc003,0x969aa089,0xb308c10a,0xfa99f9bb,0x1431d9ac,0xb4837040,0x88f08c1c,0xee405488,
	0xbf78a818,0xf9fd6339,0xa3fca90c,0x82fbd3f2,0x1088f090,0xcba11474,0xab3008b2,0x201f0099,
	0x9a098188,0x80800989,0x9a899890,0x98880809,0x80800918,0xa9889088,0x08008099,0x81980908,
	0x9a899898,0x88988880,0x89880088,0x80890009,0x00988800,0x80808801,0x82001999,0x80880000,
	0x9990a980,0x88808029,0x08880980,0x99898099,0x88998810,0x88081109,0x190080a8,0x08981008,
	0x99100908,0x08898098,0x88909990,0x899888a8,0x08089098,0x00808009,0x00988008,0xa8000908,
	0x8002010b,0xdad9d337,0x20ca4523,0x132170b2,0xa822cab0,0x33808408,0x1f8fb793,0x090d2b8c,
	0xb899cda2,0xc001f699,0x0bbf9990,0xb889b0bf,0xc9f03c18,0x43ba4492,0x7f0f860d,0x2c18905e,
	0x1e9fb933,0x80cd1659,0x09424301,0x08229908,0x328b14cb,0x3506c999,0x289c089f,0x0380760d,
	0xb1c8b4a8,0x58392481,0x382cac00,0x08603967,0xaf12fb38,0xfb23bf2d,0xbc905839,0x08bcf900,
	0x08cf691c,0x0048f0b8,0xbf3b9189,0xa0bbf010,0x1000ff31,0xc8ffad09,0x2301cfab,0x88ef3337,
	0x30819f01,0x3009bc1c,0x2171a204,0x0f39cf28,0x527b1bcf,0x192c0230,0x87be9f9d,0x8f9d8b0f,
	0x24210402,0xb809491f,0x280d88c2,0xc2890621,0x3028e833,0xbb20cb0f,0xc434909c,0x381bff0f,
	0xa81bf844,0x47323113,0xb3060080,0xb08221a8,0x05434431,0x801a9899,0x402a9ef3,0x8f0f8804,
	0x81413172,0x1aaafe08,0x3d20a140,0x02324208,0xf3a5c8a3,0xfcff38c0,0xff42038a,0x43980cef,
	0x40aac9c4,0xad00da19,0x39fd7390,0x73135a0a,0x8882b0c6,0x991babfb,0x9f368300,0x99841940,
	0x8f2294ff,0xcf403906,0xdabba514,0x9bba0829,0x9a71d110,0x89302928,0x1e911f81,0x489c5210,
	0x038b8b8a,0x8b3b4088,0x83cba89c,0xa0ba901a,0x361cb0a9,0xf8a16580,0x5d149259,0x0801b08a,
	0x92fa8b3f,0xc9286322,0xb4b92091,0x18fc0374,0x589b7798,0x08fcc80d,0x7688ff18,0x1baf894a,
	0xc81d37c0,0x0a238f34,0x01afa188,0x98109830,0x09203319,0x33404cac,0x1dcfb042,0x949f301a,
	0x850f4839,0x93acd0ff,0x243c03b9,0x5860a030,0x8a378166,0x0b0c2509,0x01e10720,0xd08817bc,
	0x98804123,0x9fba2820,0x98b06309,0x49008080,0x3938ff08,0x73a88f22,0x742b54f0,0x883a1b80,
	0xb8cafcb0,0x00d8121b,0x10ca129c,0x3449b6e0,0x049195c3,0xf28ab581,0x04a9c8e9,0x9d118301,
	0x291ae5b8,0xffc19880,0xb557f7f8,0x288089aa,0xf2618803,0x06058762,0x3f01213a,0x1423a223,
	0x48380deb,0xa78af082,0xfebe3613,0x10880fcc,0x3422f9ec,0x8ca10339,0x909a0580,0xfbdb8393,
	0xfbf380ca,0x8f080622,0x928a6545,0x44604000,0x0a91f994,0xa890bf81,0xc134130b,0x90335199,
	0x707c5829,0xa30303a1,0xa7821908,0xb88bfbe0,0x1d8b19d9,0x1b3516b0,0x57b1dec8,0x0e17b102,
	0x081b549a,0xb03d4aac,0xc8ec3908,0xb8108795,0xecb08410,0x891820d2,0x9ec305b3,0x13876407,
	0xb3af8d5b,0x001a1347,0x289aad12,0x3a683008,0xa890108c,0xbbebb026,0x06262704,0x28823232,
	0x63331901,0xff9af005,0x0b9b199b,0x0acc89bf,0x04208988,0x35fbfe8a,0x042401c2,0x57039caa,
	0x503519b1,0x13809ab0,0x2ba8b359,0xb546ffdd,0xf281bf10,0x0c069fa9,0xeb172428,0x33478390,
	0x4347bc99,0x865c948c,0x12918b40,0x73f82206,0x9fc8c3b5,0x0a68818a,0x10372b91,0xaab52897,
	0x0d128629,0x0a98ad00,0x1b82f106,0xc333c881,0x39d28bba,0x818a0906,0x9b40ca38,0x0118ffd3,
	0x2983a98a,0x9200fc48,0x93720312,0x043a3418,0xc340a243,0xd9ed97a3,0x000cf980,0x2cbf8140,
	0xb8c1b89e,0xc8e98b09,0x03c91312,0x4a138030,0x1b70bea2,0x738713a5,0x609dd0a5,0xa030012f,
	0x90b80920,0xd900c286,0x098fea83,0xa883989b,0xb3b18bc8,0x039b1b0b,0x8f8f2033,0x89072882,
	0x2bbf8062,0x3c8d1177,0x1b684b14,0x2a63d2b8,0x1414caff,0x0595bb21,0x31cb870c,0x04513f2d,
	0x08c1a031,0xe98b8191,0x1a1d0b2c,0x1c7b3151,0x19a9aa29,0x7843ce8f,0x0a1c1930,0x93ffb880,
	0x89808981,0x88990908,0x09890809,0x0a000889,0x08890929,0x98800808,0x901899a8,0x89a189a8,
	0x98083108,0x98888990,0x88908808,0x188a89a9,0x2189088a,0x88898899,0x80029899,0x18890890,
	0x80000899,0x89901809,0x98999889,0x08a89900,0x0990a819,0x988a1880,0x89088088,0x98998188,
	0x19190018,0x9819190a,0xa8099088,0x98a8999a,0x0a898908,0x18889098,0x08800a98,0x8999a0a0,
	0x1034a0c2,0xe0c84583,0xe0803080,0x93431a31,0x5a29bc28,0x3bc18010,0x6588c00a,0xc9f822db,
	0xbaacf971,0xb3d82480,0x3bff8521,0xfcc0c2b8,0xd8118a99,0x311c13ff,0x940b88a8,0x1bffb2fc,
	0x27130c19,0x4105d9ff,0x88ff2240,0x14a43699,0x36336190,0x842bc425,0x01638601,0xa8cbcf89,
	0x28db42c1,0x3211f106,0x81802804,0x32a831aa,0x12185445,0x71abebe8,0xc2fbcd42,0x89a4c82a,
	0x90fffabf,0x9bfe2138,0x82f382cb,0x10da10b2,0x101103c8,0x804a073a,0x434a1601,0x32885304,
	0xb885b5d9,0xfaf167ab,0x0365b6bc,0xa2ff28a8,0xf1ff99bb,0x1c890110,0x8f8887df,0x01858408,
	0x2eefcc88,0x332907fb,0x9b8b3389,0x21843d3b,0x1b110c42,0x18c1478a,0xbaea8021,0xcb8c47b4,
	0xd0f9cb81,0x9c2ac2fc,0x00735253,0x70733a73,0x8b93aa20,0x1c74cb06,0x283221d9,0xcaaa8383,
	0xb1cfb01f,0xcdfe531d,0xfddcc910,0x02998113,0x029436bb,0x2609b79b,0x323f5424,0x132c8053,
	0xb00c13d2,0x08d8c99a,0x8b3910c8,0xabfb9aa9,0xa9f889cf,0x3b0a3c29,0x8caf8608,0x149021cf,
	0xacfe4628,0x013fe309,0x089f8333,0x484ab92b,0xac8a9a31,0x90a08181,0x0c082289,0xf08a76aa,
	0x99b9fe40,0xa808100a,0x102c778f,0x784f2170,0x4033812c,0x3a73943b,0x8f5841d3,0xacaf30b2,
}; //first channel is topmost bit

// Layer: L13
// QuantType: 4bitsym
#define L13_active
#define L13_bitperweight 4 
#define L13_incoming_weights 96
#define L13_outgoing_weights 64
const uint32_t L13_weights[] = {
	0x87ec988b,0x00af20b1,0x1a2928c2,0x11a8834c,0x8a080694,0x9d91eb90,0x29a1c0b2,0x84dcf102,
	0x10012a18,0x120adb19,0x2898ad9b,0x81bc11b0,0x80a98008,0x01caa8a8,0x8a3082c3,0x7982b020,
	0x890d9999,0x88002459,0x2881a19b,0x899bd903,0x30892802,0x1dba9849,0x2da00d18,0x0418a04c,
	0x12ac2091,0x8bd819c9,0x99a591aa,0x18a4c2bc,0x1d1badd4,0x0b983820,0x5190a99f,0xa89c9180,
	0x4001091a,0x3bf08a4a,0x2c80d3b4,0xd20883d0,0x8999e393,0x903bd818,0x9b100aa3,0xe91d2ac8,
	0xc91d899d,0xa4209b90,0xa0181802,0x53eb4010,0x08ac1893,0xb318a3a3,0x8bb92b18,0x09880aff,
	0x00189998,0x89890088,0x80a09a98,0x99999819,0x0a800889,0x08a08001,0xa1990010,0x999a9098,
	0x00009880,0x89198989,0x800098a9,0x98898998,0x8033ba02,0x2000c161,0x2a109c81,0xa199aa01,
	0xcac4293a,0x0921c140,0x10480180,0xe31ba103,0xa0a20403,0xb85928bb,0x81311980,0x4b8a882a,
	0x8948181a,0xb10a78a0,0x528b8283,0xc2142117,0x8121821d,0x1988b9c8,0xa849a018,0x08839103,
	0xa1809e0b,0xba60b001,0xc041c2a1,0x828b81e0,0x80819889,0x08009089,0x18901890,0x81108881,
	0x98099810,0x99b01188,0x91000918,0x088b8198,0x98098009,0x08899908,0x88809089,0x88980089,
	0x05413900,0x2c1a8981,0x93180829,0x50441a92,0xb13f0409,0x8981d8c9,0x81b1812e,0x3fa22116,
	0x803b0a09,0x0c4f8239,0x89282960,0x118a99b3,0x93a01a93,0x292bb9b0,0x0b08131b,0x780400a1,
	0xc2800a92,0x1c888300,0x31a81088,0x3d90c998,0x20118b09,0x3adb924b,0x12a8982a,0xd92f84a9,
	0x152a0988,0x123110c8,0x3b18920c,0x10018013,0x89030163,0x39c8a311,0xf9d81809,0xab292000,
	0x10fa8118,0x92340bb9,0x19899a8b,0x42480131,0x8c002b9a,0xb43b9931,0x3e998210,0x40d0f0a1,
	0x89111992,0x1830b998,0xb1998082,0x29aab80b,0x0036908b,0x80b91002,0x8298c959,0xa9309990,
	0x88021888,0xd83b00a9,0x2a990834,0xc8a1a010,0x82a3103b,0x19083001,0x8091880b,0x5415409d,
	0xa182e88c,0x1c9aaa1a,0xa28935cb,0x88e31322,0x0fa21300,0x41d911b0,0x08ab81a1,0x19e9158a,
	0x084a0882,0xb0983098,0x40390992,0x29188099,0x2882299b,0x08990021,0x52d0209a,0xa2080a8b,
	0x0c28a01b,0x18c481c9,0x9881890a,0xc9936841,0xa2990812,0xa0105919,0x48b80092,0xde191081,
	0x80fc1302,0x102039cd,0x3ab88411,0x0a298200,0x84bea285,0x2919c051,0xb1811bc1,0x82813bba,
	0x980e9110,0x1929b1d8,0x29082182,0x2aba2888,0x319aa904,0x82b8b288,0x1f00c8a3,0x221f04bd,
	0x018c9311,0x43882981,0x83919032,0xa818b2a9,0x21890392,0x99390f10,0xca084908,0x15504893,
	0x11b99018,0xd2123c08,0x09e02ab4,0xa935a9b1,0x8d82a400,0xd2d09090,0x3c2a1380,0x51baabb3,
	0x18b9001c,0x98009cd9,0x38b101ca,0x2228008a,0x1100190a,0x2fa24838,0xb808d300,0x0d101d8d,
	0x020c201f,0x1dc03031,0xb8c02b09,0x80a808bc,0x2b2a1293,0x24b0a8a8,0x8210b29b,0xa8b14883,
	0x990a1c80,0x99994c15,0x083059b0,0x41031921,0x983a4219,0x009020b0,0x03ba8a81,0xf8eb0299,
	0x102c08a0,0x89b12a98,0x11c91022,0x12198994,0x9a85c08b,0x82a8a948,0x84b84a11,0x11358000,
	0x04598a0a,0x1a8010a0,0x89110980,0xf928f951,0x12a01008,0x09811b20,0x90218941,0xc220a903,
	0xa8900010,0x10533a89,0x989949c2,0x19040a16,0x0f82d002,0x82599881,0x68880808,0x11902391,
	0xc80a285c,0x8881b8c8,0x11218008,0x3b04c89b,0x9103a89b,0x402c3209,0x9238a51a,0x1a0d8ac0,
	0x098a0b93,0xc10a89d0,0xab898b1a,0x90a88bb9,0xb88a08b0,0x90c8a9a0,0x29a1209b,0x80aa8819,
	0x00988b92,0x800a8204,0x89a10929,0xc11098db,0x0e129882,0x8981d1a9,0xdc99084c,0x1991ec3d,
	0x31ba0382,0xf0b91c18,0x30102100,0x1c421099,0xa12a1309,0x29014229,0x92800809,0xd91b8a81,
	0x8f0d289e,0x03b438c8,0x15998184,0xd0aa4780,0x11201832,0x0018bbb9,0xc831390c,0xe2209990,
	0xc909198b,0xe1a12808,0x8291b301,0x02180bdc,0x80958b12,0x20399929,0x3c1a08ae,0x8119d9b1,
	0xc2c28192,0x6ea0b788,0xa0080191,0x00b0910b,0x3090b880,0x9982b1ac,0x2220a280,0x099f1208,
	0x912f8b1a,0x2cd20181,0xcb180b88,0xf104d98e,0x03eb0b23,0x9e812bb8,0xb0d81029,0xa18b0889,
	0x99ab0294,0x151389bb,0xbac99881,0x49320925,0x1f188808,0x980281b8,0xac9a00ab,0x31bb9c8c,
	0x80190a9a,0xd5a81999,0x188021a9,0x9f8b9009,0x88944d1a,0x14b82322,0x3191a22a,0x883a9908,
	0x185a1813,0x9c1b10a1,0x138302d1,0x28900214,0xa89d0e88,0x0b001398,0x0148884b,0x0bb3f100,
	0x10080f89,0x1f3ed828,0x08190498,0x95a982f8,0x01a12303,0x39981a21,0xb8a19e83,0x381112ac,
	0xb91d00a2,0xb0100088,0x09301199,0xa18b8811,0xa18f9881,0x20acb920,0x08011842,0x0110839e,
	0x9c91a111,0x18b1baa8,0x1311afbb,0x30a21134,0xe9198b83,0xa0a83530,0x08a8a9a0,0xd009d819,
	0x99bc3189,0x4a998b0c,0x1b80393a,0x8199002c,0x88a11d82,0x0881c181,0x2f81912d,0x2815a002,
	0xb2d099e4,0x2ba02180,0x41903099,0xb8499009,0x10a0958a,0x2198331b,0x00c92490,0x9d0012a1,
	0x00ab0008,0xacc110a9,0x08a80882,0x9ac3ac8b,0x020b1320,0x0a916089,0x99918921,0x33350989,
	0xa9a09089,0x2980b000,0x02b120c0,0xc2f38824,0x97eb8809,0x9aa90919,0xc90211b0,0x582198cb,
	0xce1f9bb0,0xa131f100,0x28a0d0ba,0x988ab194,0x48284d04,0x18cf8812,0x1d10b802,0x25881aa1,
	0x1aa8901a,0x90910188,0x623c9203,0xa2000a08,0x04c2104f,0x2809d919,0x09418191,0x1898190d,
	0x90b12898,0x88c19302,0x02b984b2,0xfcae89da,0x9cb10208,0xaa180290,0xfafb2232,0x20baf43a,
	0x2d930921,0x9a882ba8,0xc1c0800a,0x17082801,0x1122a88d,0x9dc32e11,0x09c088cb,0x08e1a010,
	0x9c91d880,0xc8c2b981,0x3a13829a,0x61289112,0x0a908138,0xa0a88ab1,0x28191889,0x00008889,
	0x00886103,0xd08029ba,0x999032e2,0xbb180c84,0x168aa208,0xa3a00061,0xc1982899,0xc302adb8,
	0x908985ab,0xb8498aa1,0x7238a820,0x03a91884,0xa23a1287,0xd152a499,0xde588a33,0x18a10221,
	0x89b32104,0x09d990b0,0x030e0820,0x19b8b890,0x032a10bf,0xd2b80298,0xa9188091,0x3883b88b,
	0x00a22c0d,0xaef23229,0x1a920210,0xb2a98d98,0x932ba989,0x19110018,0xbc88ac0b,0x9830c80d,
	0x32c9aab2,0x1c880c08,0xa8d9294c,0xb831409c,0x88999100,0x18a339cb,0x9ab880f2,0xd8211104,
	0x17085119,0xa99a1990,0x92891823,0xa93912b9,0x399b030b,0x44a0aaa9,0x31e0193d,0xa8aa890a,
	0xb24d0282,0x33004100,0xbb09a180,0xa89910d2,0x98992288,0x8ab12818,0x53881402,0x98081944,
	0x9400175d,0x88189dc8,0x2830a9e9,0x8ac3a919,0xea3a3210,0x99b2d518,0xa131a385,0x0af00ac2,
	0x1b512b89,0xbe2a9898,0x2a99292f,0x08b8e800,0x2b8a90a0,0x01d08889,0xb8a9014b,0xb403a114,
	0x8111081b,0x1e520833,0x9a001d98,0x09a49943,0x0ab4881a,0x123418a9,0x48e11381,0xb81c1b91,
	0x0a838049,0x3088d500,0xa8980012,0xba10088f,0x099a8f19,0x9ad3aa91,0x0000b490,0xb00c02b8,
	0x9b18b191,0x95acb908,0xaa2a12b1,0x904b08c1,0x0811119b,0xa150cd80,0x98201981,0x02889191,
	0x08042008,0xd8298093,0xa0991a91,0x884908bb,0x1091fb01,0x132ba861,0x09188aba,0x814b8092,
	0x32c620d0,0x4888b899,0xc0009002,0xa29b8888,0x10a10183,0x111389f1,0x08e9290b,0xe9189898,
	0x15bb3b0a,0x51e2b9c8,0xa1a80e89,0xb20a1ecf,0x82080983,0x08f8a398,0xf8b92083,0x8b2e001a,
	0x3988ab09,0xa0a1cbb1,0x31108ca1,0xc7108482,0x0bb00803,0x3198c8a0,0x2980854a,0x791019a0,
	0x92981909,0x1890b701,0xa88818a0,0x88809990,0x3a33b91d,0x49c1014b,0x1018140b,0x911b81cc,
	0x81a02800,0x09191020,0x88809819,0x219a11b0,0x288a039b,0x0188a999,0x2910a808,0x10b98111,
	0x900b0991,0xa08b1a98,0xa8202029,0x09901a82,0x05084109,0xbc387891,0x82f20b98,0xa0825596,
	0x8b2c1499,0x30b32988,0x22018878,0x4ab91004,0x132cbb0b,0xa97aa819,0x88381a80,0x03b10410,
	0x9aba3b1d,0xa2e351b0,0x99a09988,0x41e8a1bc,0x0009209d,0x52080090,0xa990989f,0xafad200d,
	0x10801f8a,0x81c83f83,0x3898aaa9,0xe2221b09,0x89289993,0x01791990,0x12338890,0xa82b8927,
	0xa385994b,0x5a808731,0xa0313894,0x10a8c810,0x21d19203,0x8028c0ac,0x00908292,0x428a041b,
	0x1e85801a,0x12b28121,0x02990882,0xa9ba3ba8,0x98229008,0x84001009,0x31811099,0x990e1899,
	0x89312a93,0x82bb1903,0x1299012c,0xba980b9b,0x9a182019,0xed8a1809,0x98e9805e,0x19b009f8,
	0x1c1f83d9,0x0182dbf9,0x0181200f,0x2ad20891,0xa039db81,0x9b919533,0xfa501e14,0x09051b00,
	0x893b0209,0xa1c42890,0x84980eb4,0xf9a834d8,0x8a438c85,0x6a8039c0,0xa0912001,0x012aa90a,
	0xd8b8a818,0x228ca880,0x93d09413,0x889203b9,0x0b188190,0x91a00909,0x14191aa1,0xd88b8825,
	0xeb14893c,0xa4499a39,0x0108b883,0xc200c812,0x90910699,0xe96d0ab8,0xa1198002,0x1a1b800b,
	0x8888989a,0xb9090910,0x9c9a89ba,0x909891a9,0x98089080,0x0a118909,0x9089c010,0x88a8080a,
	0x01a1a808,0xa808aaa0,0x89888999,0x8a88800a,0x026a2a81,0x293188b9,0x230c992a,0x89942285,
	0xa80c2e28,0x0a99d9a8,0xc0012839,0x823a8184,0xa9248d9b,0x1b6e909d,0x0190131b,0x29008080,
	0x81002098,0x0b9d1240,0x90c81049,0x90abcc08,0x6b8a8399,0xb1990148,0x08218819,0x34840194,
	0x0040a918,0x1d00b824,0xb8106cb1,0x49d41042,0x011e818a,0x11228818,0xc3881992,0xa01101dc,
	0x880a89a2,0xb0208c80,0xb8391820,0x94424100,0x08c91212,0xc32119a1,0x19e10c21,0x924301a0,
	0x912a031e,0x9ac11100,0xb2020000,0x90394b98,0x188d0583,0x08a18be8,0x08a8110d,0x9d02399a,
	0xf02f0203,0x02b1039a,0xb0288382,0x19810b93,0x819cab08,0xfd009991,0x88031190,0x41939212,
	0xb91d8c9c,0x4a302388,0x81a0e909,0x9fa4c191,0x39a82610,0x89438189,0x0aa9c211,0x29a01839,
	0x819a018a,0x99a94020,0x001885a4,0x291c2811,0x0188167e,0xa911f899,0x7018809b,0x0db02903,
	0x91591b08,0xa9b28311,0xd020a0b8,0x381aba8b,0x0e849908,0x1b90b9f0,0x0f808049,0x10e1a93a,
	0x08ac9994,0xcab83a98,0x3199188c,0x13649001,0x91225802,0x59008318,0x13a82818,0xaa888b23,
}; //first channel is topmost bit

// Layer: L15
// QuantType: 4bitsym
#define L15_active
#define L15_bitperweight 4 
#define L15_incoming_weights 64
#define L15_outgoing_weights 10
const uint32_t L15_weights[] = {
	0x8cb88c38,0xae8d209c,0xa8bbb4d9,0x4a89291a,0xaa400929,0x84940bca,0xa9980c82,0x9b8a803c,
	0xa1ea8248,0x3829cb19,0x9ca9229b,0x9918380b,0xadeed1fd,0xbc2dcb9b,0x02c3ec82,0x839a94e9,
	0xaa8584a9,0xcba098a3,0x19dc0a1a,0xb1a182a8,0xb00a03b9,0xabc943bc,0x99a13ab3,0x0ba29ca8,
	0x8d0b8b98,0x0a298a1b,0x20a82ba2,0x9a68ccc3,0x1ac921b4,0x80b98109,0x9c9aaf9a,0x8bc220a1,
	0xa4598da8,0x12baa082,0xabb1ddaa,0xaae82228,0x849c8b0a,0x9a882a90,0xa098ab8a,0x9aaad388,
	0x99190aa8,0xc99c31cb,0x1a222ba2,0x89bc8de9,0x30938818,0x8949aca9,0x8909988b,0x894989b3,
	0x499a0008,0x209d0bb0,0xac309b99,0x89dd98ac,0x929ba410,0x3299bade,0x120a13aa,0x8c3a392d,
	0x888080a0,0xb3223892,0xa8eb928b,0xc48cc892,0xbc81adc8,0x9cb29243,0xbd939a29,0x89c9b9db,
	0x288b0898,0xac83922b,0x1923bb8b,0x3aa2919d,0x00bbaa80,0x19a80b39,0x815a1d5a,0x01a12bab,
	0x80c908a8,0x03b2c32a,0xa2b00211,0xa9c3b121,0x9b8a3d2b,0xbb1a8b82,0x8c8b1109,0x98accc13,
}; //first channel is topmost bit

#endif
