// Automatically generated header file
// Date: 2024-04-16 00:43:03.187199
// Quantized model exported from a11_Opt12k_cos_wzero_Aug_BitMnist_PerTensor_4bitlog_RMS_width64_64_64_lr0.001_decay0.1_stepsize10_bs128_epochs60.pth
// Generated by exportquant.py

#include <stdint.h>

// Layer: L1
// Quantization type: 4bitlog
uint32_t L1_bitperweight = 20;
uint32_t L1_incoming_weights = 256;
uint32_t L1_outgoing_weights = 64;
uint32_t L1_weights[] = {0xaa431844, 0x34334404, 0x44234433, 0x44bccb30, 0x23393010, 0x8deededb, 0x1a43a8dd, 0xfffedeec, 0x423b23c2, 0x35556553, 0x2a885456, 0x77776664, 0xbb2cb3c, 0xdeddb564, 0x99cb318d, 0xeeeedd42, 0x40d3cbba, 0x45554b8b, 0xba029b9d, 0xbb2bbcd9, 0xacc3bac2, 0xa42bbbc2, 0x9dd83323, 0xca803a23, 0xcac1a5ab, 0xc1929254, 0xbc24b335, 0x84204534, 0x3bacccbb, 0xcb124458, 0x22aa4394, 0x349b8829, 0x334b29ba, 0xbb8a4441, 0x240b0c4b, 0x3b324444, 0x22430c3a, 0x22cab244, 0x3544439a, 0xc5a83445, 0x54234a81, 0xa4321434, 0x34554dcb, 0xccab39b3, 0x846564cd, 0xcc2c2c34, 0x8d366764, 0xb3544ac1, 0xceeea677, 0x653343bc, 0xcefffff9, 0x480c0a30, 0xa9deffff, 0xecdb1b1b, 0x43676765, 0x43bb9330, 0x1955558c, 0x1b244234, 0xab9ddd1a, 0x333883c2, 0x8abdba21, 0x3c3b4233, 0x8314b28a, 0x328ccb48, 0x2c883c0, 0xaa3b2bc8, 0x10c24455, 0x543c3a32, 0xbc846555, 0x44542044, 0x3bbc0ba5, 0x43324442, 0xcdddbddc, 0x8dbca454, 0xddddbb33, 0x558a2153, 0xddeed355, 0x5d245652, 0xbdeeffff, 0xe46655bc, 0x9accfff, 0xc659cddd, 0x23556766, 0x442bdccc, 0xb1455444, 0x202392cc, 0xb44449cc, 0x3245454b, 0x34383538, 0x22335543, 0x242b892c, 0x3234564b, 0x32b4bbcb, 0x2db253ba, 0x329b9153, 0xc8ca29a3, 0x5455354b, 0xdeec1335, 0x344544cc, 0xeffdd344, 0x345442c4, 0xdefed005, 0x54455440, 0xceffdca3, 0x55545435, 0x5dffec34, 0x56545436, 0x6deffeab, 0x565548b5, 0x6cbefed8, 0x5543ba05, 0x583beed2, 0x44bcc814, 0xbb32edd1, 0x33c3bb4b, 0x101bdcb3, 0x43434453, 0x13434244, 0x3cb91243, 0x3434933a, 0x431349ac, 0x2844ab9b, 0x444bcc5b, 0xa4402cb2, 0x5321b18b, 0xc33a3044, 0x55343310, 0x99131042, 0x2324aabc, 0xdccd1833, 0x444cadac, 0x3cdbdbb4, 0x40bc21c8, 0xc2ba1545, 0x233b1a4c, 0x45566664, 0x99b20025, 0x66766643, 0x28b2bdd, 0xefffffed, 0x2cab32bb, 0xdefffffe, 0x2bb92b44, 0x566653de, 0xa233a21b, 0x2556444c, 0x2a38280, 0xc9433452, 0x3c92b389, 0x9a844453, 0x4b32c933, 0x3c222454, 0x4a92c333, 0x43342244, 0x33b2209c, 0x13a3bc34, 0x34a20333, 0x4844bb94, 0x3434233a, 0x34b2b344, 0xccdddcbd, 0xccccccca, 0x9dddeec4, 0x4dcdcddd, 0xc9deed46, 0x8abcbccb, 0x89bddc55, 0xc2bc2c0, 0xccdcd25c, 0xb3bc2bcd, 0xa338d33d, 0xb3bccdda, 0x334146ce, 0xb33bccd9, 0x456666ef, 0xccca1a2b, 0x366767de, 0xddc22b84, 0x4666768b, 0x43ccbd41, 0x5666653, 0xad3c1c43, 0xc3545545, 0xb44b4c34, 0xbb33332a, 0xb4329444, 0xcb2c154c, 0xba34323b, 0xcb343343, 0xd9dca413, 0xccdcba24, 0x39b9c92a, 0x55402292, 0xa3145333, 0x2549bb34, 0xbc243455, 0x44090cb0, 0x3bdcb0b4, 0x31432323, 0x1142b2b3, 0x4318cb33, 0x435401c4, 0x5308c345, 0xbc232444, 0x4bc9b443, 0xce345555, 0x3dd8bca4, 0x3ded9444, 0x89d2cc24, 0x5defd444, 0xa3544b5, 0x55efd9b4, 0x23321345, 0x56effcc1, 0x93b34235, 0x24dfedbb, 0xb5a24254, 0xbcdfedc3, 0x44492945, 0x4befed33, 0x53354656, 0x4bfeeb34, 0x34455555, 0x5add8423, 0xa344303a, 0xbcb89300, 0xa3393a0b, 0xccacbcb4, 0x413bac8b, 0x2cdd2142, 0x823db2a8, 0xaa028358, 0xa3c84998, 0xcbdbd344, 0x3a33cca9, 0xc1bc4332, 0x2882cded, 0xc6665464, 0x5443294e, 0xfeb54680, 0x55544561, 0xfffedeed, 0x55424556, 0x8efffffe, 0x354a0267, 0x64ddfffe, 0x34444345, 0x666adeed, 0x4242bbca, 0x56665cdc, 0x4a13444b, 0x44665303, 0x14443491, 0x23554a4a, 0x30444245, 0x44455434, 0x2442bba4, 0x55443843, 0x42bbcddc, 0x366649b3, 0x40bbcddd, 0x35663dd8, 0x4cc39add, 0xa565addc, 0xbdc455de, 0xd7665eec, 0x2ca43def, 0x37663fed, 0xbc9ceedd, 0x6764deec, 0x2314bcbb, 0x65cefe0c, 0x524513cd, 0x42dedb9c, 0x5552bcdd, 0xccbc444a, 0x543355b2, 0xccb44438, 0x55582442, 0xcb254a11, 0x442245ca, 0xcb44bc33, 0x33489b9a, 0xb3544344, 0x4354b4b1, 0x9944424, 0x341b0ccb, 0xbccb3b94, 0x55338384, 0x45454544, 0x433bcddd, 0xabbcc144, 0x50deefee, 0xeeedddc9, 0x3bdfffff, 0xffffeedb, 0x41bdcfff, 0xfffeeddd, 0x5b0641bc, 0xca5c02cb, 0x44340667, 0x6544ac45, 0x540dc220, 0x34334455, 0x4222bc82, 0xc3b55565, 0x555440ac, 0x383343b3, 0x545aa8c9, 0xbbccbbc4, 0x54532255, 0x4a233034, 0x43243322, 0xca384335, 0x54544aab, 0x80528445, 0x55545c4a, 0x33b33555, 0x44555555, 0x4555655, 0x55555344, 0xb0394455, 0x55554454, 0xcc2b2535, 0x45553542, 0xdd4c2933, 0x55551450, 0xddc444a5, 0x4528d545, 0x3db24345, 0x451c4344, 0xda482233, 0x54cc103b, 0xd5535423, 0x4544543d, 0x35338314, 0x34543ced, 0x5423c843, 0x345ceec6, 0x64b2bb05, 0xbcdeec67, 0xcb341484, 0xcdeeb675, 0xedddcbc4, 0x9dd35674, 0xfeededca, 0x31156666, 0xdedeecc4, 0x45554565, 0x4cddbc25, 0x44455555, 0xabcb2445, 0x1bcbccdd, 0xdddd1c0c, 0xccbdcddd, 0xcdcb90b2, 0xcbc32594, 0x46555653, 0xb1a46667, 0x77655553, 0xb2455656, 0x6555cc44, 0xc1544def, 0xee560c25, 0xaa29cddc, 0xccdb2c2b, 0xcbdecb32, 0xded9cdcc, 0xcccdb28c, 0xddcdbbcc, 0xcccccca4, 0x558d2dcd, 0xacd3dd93, 0x133bbcca, 0x9c4b433, 0xb8248b3a, 0x34aa50b, 0x2cbbb34a, 0xab239db9, 0xbc543322, 0xcb39c212, 0x45541c3b, 0xc0cbbcdd, 0xccaca8cc, 0x9bca8ac, 0xdabbab0a, 0x9cca4244, 0xb8b42bbc, 0xbcc31bab, 0xc3ac540c, 0x1bc3451b, 0xb02a53d3, 0xcac4454c, 0xb5591b3a, 0xc0a04554, 0x4453b444, 0xc2384566, 0x54554533, 0xcac3567c, 0xda33a344, 0xd94667df, 0xbcddb454, 0xc5666dfe, 0x5ddddd43, 0xc6653ffd, 0xadddb334, 0x4544cdd, 0xddbbcbab, 0xb345653d, 0xebbaacdd, 0xcc14a440, 0x22ac3cdc, 0xca5ad445, 0x8c42bcdb, 0xcccbb2cb, 0x2c81dcdc, 0xdddddddd, 0xbcccccdd, 0xcddddbcd, 0xa3ab9cbc, 0xcbdd0994, 0x454428cc, 0xdb3bad34, 0x441332aa, 0xd3452dde, 0xc1c0bcbc, 0xc3550cdd, 0xda34bcbb, 0xb54b0355, 0x443310cb, 0xc4435666, 0x4653bcbc, 0xa4455663, 0x45658a3c, 0xd9555545, 0x354423bb, 0xccccd854, 0x9daadb43, 0xccddea03, 0xabb9b442, 0xdcabc354, 0x2baa444c, 0xcc304439, 0x2944543b, 0xdbbb1c34, 0x534438ac, 0xdcc2cabc, 0xbbbbbcdd, 0x55555443, 0x55545455, 0x555344ab, 0xc23bca45, 0x4439cb0b, 0xc04c8c15, 0x55ba315a, 0xc1430b45, 0x5303d440, 0xc33c8424, 0x5334c922, 0x84cd4434, 0x5449ab49, 0x45dd4cc2, 0x554a8d3d, 0x45dc2db2, 0x4414823d, 0x25ad9cc8, 0x5834553d, 0x66b544b4, 0x533455de, 0x75d955a0, 0x54554cfd, 0x75eeccc3, 0x5555aef5, 0x75eeedb5, 0x454dfea6, 0x654deda4, 0x55beee56, 0x543ddc35, 0x548ddc36, 0x54583455, 0x4314b448, 0x34544544, 0x443cbd2b, 0x45345545, 0x4bbddd2b, 0x54541c34, 0x3bcb032d, 0xdd642bda, 0x43b3d49a, 0xdc6518cb, 0x48bcccd3, 0xee75dddc, 0x483c3c36, 0xfe76dddd, 0x53c34c46, 0xfd76eeac, 0x44224243, 0xf669dab4, 0x44c3904d, 0xe65ba223, 0x458c5add, 0x451cc133, 0x45ccbee6, 0x34c45444, 0x44cbdc56, 0xb4d34453, 0xcdcd354, 0xcd8b125, 0x40ad2553, 0x4abdca34, 0x3444454c, 0x3bacb154, 0x82ba3434, 0xb9ddccac, 0xb21ba456, 0x43eeeecc, 0xaca943a5, 0x55bdfeed, 0xcbcdcdd8, 0x664deeed, 0x2ccedddb, 0x5654ceee, 0x9ddc24cd, 0xa56adee, 0xccc411ce, 0xc3563cee, 0xcc9bddeb, 0x55563ddd, 0xcbdddec5, 0x6653adcb, 0x33a3cc45, 0x65135454, 0x44335945, 0xbbc35665, 0x54655ccd, 0xdc335665, 0x355554cc, 0xdcc35534, 0x945554cd, 0xbba358ca, 0x205552d4, 0x2814ac1b, 0x29444553, 0x28bb2cbb, 0xa213cc84, 0x44444bbb, 0xb3bbbd05, 0x534494ba, 0x3a2ccc1c, 0xc2442380, 0x3bcdcb3d, 0xc32859ab, 0x2addcddd, 0xdb934acc, 0x92ddddcc, 0xc53cccdb, 0xa2cc23e, 0xe21c2b42, 0x3343bb5e, 0xe5556665, 0x4565565d, 0x57665676, 0x455565ca, 0x66514555, 0x30cdefe5, 0x643d0b34, 0x9dedeed4, 0x445dcd24, 0xcdedb333, 0x955b4cb1, 0xcdddb045, 0x54543133, 0xbcdd9ddb, 0x393bb12b, 0x2cacccd3, 0x4a443424, 0x4544534c, 0xbbc29435, 0x554443de, 0xeedc3235, 0x45540bef, 0xdee28444, 0x44539eff, 0xcc456555, 0x540adeff, 0xa6556544, 0x543ceffe, 0x56444444, 0x443ceff6, 0x72a9ccb2, 0x308cdd56, 0x5deddda3, 0x4bbcc132, 0x4cc43c34, 0x4b409243, 0xaba3a423, 0x334cb98b, 0xbcbcca04, 0x2233ac34, 0x9bb8cb25, 0x43db23a4, 0xb0baab15, 0x4392a9c3, 0x4523a444, 0x53b44334, 0x44424545, 0x34483144, 0x55544534, 0x3455566, 0x55514444, 0x4455455, 0x2cc93433, 0x4444ba3d, 0xcdcd4333, 0x44ac354, 0x9a0450a2, 0xb259454, 0xc3449454, 0x29b3ca55, 0x94522084, 0x44333b65, 0x5540ab5a, 0x44554555, 0x4544c854, 0x44554494, 0x44538435, 0xbba34456, 0x66553d34, 0xbdedd455, 0x54ddeed9, 0x2deeffff, 0xffffffec, 0x40cdeefe, 0xfeeededc, 0x22b444dd, 0xddcda104, 0x380adcee, 0xccbc5494, 0x3a302acd, 0x44343444, 0xb248c334, 0xa4543494, 0x28442454, 0x55454434, 0x24354154, 0x55355554, 0xa343a535, 0x44554a32, 0x45545535, 0x540553a0, 0x45666645, 0x6a35bbdc, 0x456350dc, 0x5567aeed, 0x35534cc5, 0x665dffed, 0xbba35545, 0x5dfffeed, 0xdec45564, 0xefeeedcc, 0xcddccdde, 0xecd359c1, 0xbddceddd, 0x14345bd3, 0xacdccab9, 0x41342d2a, 0x9bcd80cc, 0xb0c32a24, 0x31bcdbcc, 0xd484cdcb, 0xb323cacc, 0x9db9b2a, 0x554522cd, 0xdc324455, 0x5454beed, 0x844c3535, 0x4453dfec, 0x49533445, 0x554cffe5, 0x645348b5, 0x451cff96, 0x639cb434, 0x653eff47, 0x5dbdb304, 0x55cefc77, 0xeebb2c85, 0x41bcd365, 0xec2c13a3, 0x5398c45b, 0xe43b3134, 0x53c8054d, 0xb35ca434, 0x5bbbbb8b, 0x1bc33482, 0x4241b354, 0x1c18c1a5, 0x42c8ba0c, 0x44408444, 0x4434a33a, 0x23434556, 0x340babc4, 0x4c3b5555, 0x55413028, 0xc3454555, 0x8a9cb83a, 0x483c2b38, 0xb3cba29a, 0xb32191a3, 0x3c21ab3c, 0x93430383, 0xb324005b, 0x8ba3342b, 0x329393b3, 0x80acc441, 0x3bc3ca8, 0xb839cbb2, 0x3438b123, 0x2bb494c3, 0x444cb283, 0xa0a499b3, 0x4453bb32, 0x43c4bc2a, 0x44556654, 0x4cc3d449, 0xbdd15564, 0xcdcbc43b, 0xbeffffff, 0xfd931242, 0xcdeffffe, 0x64393528, 0x43134566, 0x532b043b, 0x5566666, 0x34a39402, 0x83565554, 0x1accbb2b, 0xb82cdcdd, 0xcdcca0cc, 0xc8ccccdc, 0xdca23bcc, 0xc2113cbc, 0xb2b0ab8b, 0x804543ab, 0xa4b43433, 0xa344abcd, 0xc0d08543, 0x2441cccc, 0xc6566553, 0x1455535e, 0xedccb1b2, 0x34534065, 0xcfffffd1, 0x3664b446, 0x65bacdcc, 0x244bb3d5, 0x5666754b, 0xa3b94aeb, 0x45566651, 0xaab93abc, 0xdd566448, 0xbb8c3013, 0xab5b3843, 0xc2acb453, 0x155282c2, 0xca8ccddb, 0x440abbac, 0xb2b32253, 0x3bcc222c, 0x3a48929a, 0x44444444, 0xb433bab5, 0x44456543, 0x43b3a834, 0x566765a1, 0xba582a45, 0x65cdeeed, 0xa44453ae, 0xffffffee, 0xbc433bcc, 0xcdeedeed, 0xa39ccb26, 0x67776650, 0xa3cc3b2c, 0x80414565, 0x1bc10a4b, 0x121c1055, 0xb2b2acb3, 0xa32a4cc3, 0x121b4b88, 0xccad2bba, 0xaa8bb330, 0x44acbbca, 0xcacc20a, 0xacc2d9c9, 0x1cbcb44b, 0x9bb8ccc8, 0x93a141ca, 0x43b94523, 0x442ba242, 0x3b843494, 0xb434349b, 0xccc24232, 0xa354448c, 0xeee45544, 0xa3533555, 0xffe5648b, 0x45542556, 0xff8664bb, 0x45554466, 0xff560bcc, 0x54204366, 0xfe6641cc, 0x23de9c66, 0xfd644cba, 0xa2cd146c, 0xf45ccc0c, 0x893455ce, 0x33b33b04, 0x94554cec, 0x5ac34244, 0x94542ed5, 0x4c4b4244, 0xb42dcd35, 0x4234312c, 0x2dddbab3, 0x13b508c9, 0xbcc341b3, 0x12abbac1, 0xabcb3bb5, 0x14bc3abb, 0x48225400, 0xb24423c8, 0xb0cdc355, 0x5653cdcd, 0xdcdc2467, 0x77664bdc, 0xcdcabbc4, 0x677643bd, 0xbcccdeee, 0xd5776549, 0xdcbcbdee, 0xddb76654, 0xc88a5542, 0xdefe6655, 0xc2432555, 0x8ddeb456, 0xb9dcccab, 0x893cc034, 0x31ccdca1, 0xb2c2bc52, 0x91349343, 0x4ccadbb1, 0xbda30a03, 0xbcb1ccc2, 0x8c92bc1a, 0x491cdcdc, 0xc3cbbbb4, 0x3dbddcbc, 0xabcca218, 0x3230cdad, 0xbbbb9544, 0x43bb9b9b, 0xccccdccb, 0xacc9ac9c, 0xcc855554, 0x49400a82, 0x32a56665, 0x4a2433cc, 0xcac66766, 0x53ba343b, 0xccdc4357, 0x66534c4c, 0xdeefffff, 0xcc238359, 0xceefffff, 0xeeac430c, 0xbb556455, 0x52b2820d, 0x46656666, 0x5438bb8b, 0x55449ca8, 0xc4c0ac39, 0x54cbca9c, 0xbbbbcb43, 0xb102344b, 0xca292153, 0xaa3cc48, 0xa11c2830, 0xbbcc892b, 0xabb42ab9, 0xaac2a913, 0x9b94cb2, 0xbcccbccb, 0x334840c1, 0xc0c23444, 0x555534b8, 0x44455565, 0x1cddd324, 0x45555556, 0x54deec34, 0x45555566, 0x664dee34, 0x45456456, 0x655dfe23, 0x4a455456, 0x665cfec4, 0xacdcefe5, 0x76cffd45, 0x3deeed66, 0x6eeee325, 0xc456663, 0xeddd4654, 0x5556663c, 0xddc56555, 0x455443dc, 0xcb334934, 0x553bdeec, 0xcccb4b32, 0x53cddcdb, 0xcdcddddc, 0x4239c0bc, 0xbcaaddca, 0x344343bd, 0xcdd0dccb, 0x534439da, 0xddcb339, 0x45242b02, 0x24231344, 0x55556555, 0x49303445, 0x5556654a, 0xbdeedb95, 0x555554a5, 0x53eeeed4, 0x556433b4, 0x558eefea, 0x455554bb, 0x45490eec, 0x535559cc, 0x55664ded, 0x34c9cc32, 0xb46661dd, 0x40adcbcd, 0xd35655ed, 0x32dccbdc, 0xd45551ed, 0x439bd2ac, 0xc3421deb, 0x44a209a1, 0x3442bcd3, 0x44ad3b04, 0x8cacddb3, 0x43cda935, 0x3bddde11, 0x440bcc03, 0xa23dddb3, 0x54561133, 0x59c0ac25, 0x444555a4, 0xbb339344, 0xb88c9dcd, 0xccccdbb8, 0xbcbbccdd, 0xdddccdcb, 0xb0b0b3cb, 0x439dcaba, 0xabcac23b, 0xcdab034a, 0xcdcc35c, 0xcbd20552, 0x2dbb4bd, 0x8cd54464, 0xcbbba3dc, 0x3ee55664, 0x9b8123d4, 0xdff56665, 0xac14b2c9, 0xef676765, 0xcccac2be, 0xe476644c, 0xbdddcbde, 0x566440bd, 0xc9c59dbb, 0x55353c2b, 0xb4444244, 0x4345b334, 0x1803d253, 0x4c25553, 0x381cb65a, 0x14cc445b, 0xbab8443b, 0x3c844543, 0xbddac9cc, 0x441b39c, 0xbcb85555, 0x5544543a, 0xca255655, 0x65566543, 0xca565545, 0x44456665, 0xb2555655, 0x34555665, 0xaa455566, 0x66666664, 0xddcdeda5, 0x666530a8, 0xcddceed3, 0x34cddedd, 0xdda44dce, 0xeeddcbdd, 0xdd5554cf, 0xedc844dd, 0xddccdcde, 0xdccbbbdd, 0xdddcddd1, 0xcccb1dde, 0xcdeaccbd, 0xdc8acddd, 0xcdbcdcdd, 0xa2cddeed, 0xccc244aa, 0x4bbcdddc, 0xccddab3b, 0xbccddccd, 0x65545544, 0x84455455, 0x655554db, 0xcda44455, 0x54444b34, 0x341ba325, 0x5544b4ca, 0xc9b4b434, 0x549bc8c3, 0x24543545, 0x558acdc5, 0x1cbb4554, 0x5540dc1d, 0x340dc145, 0x5454dbb3, 0x653dedc2, 0x42a54554, 0xdb65ded2, 0x431b4540, 0xd966efe4, 0x51cdbd0d, 0xa664ffd4, 0x5ab3bcb4, 0x656dfe35, 0x64403356, 0x64dffe35, 0x65495564, 0x4effea55, 0x6554448b, 0xefed8545, 0x5555badc, 0xd3425555, 0xdddddddd, 0xcdccdddc, 0xccdddccc, 0xcbccddcd, 0xcddcddcb, 0xa9cccddd, 0xdddc0349, 0x4b0dcccd, 0xdeb428a8, 0x93cbbcbd, 0xc09cbab8, 0xb38a2480, 0xdccdbcbb, 0xbabb8322, 0xdc4a2bcd, 0xd344b453, 0xdc3cadc9, 0xd39bbcb2, 0xddcccc44, 0xcbbcdddc, 0xdcddbb34, 0xbcacdcc9, 0xda233ccd, 0xdeedc551, 0xc3422cdd, 0xded45660, 0xa5545b45, 0x6777776a, 0xc4667777, 0x7777664c, 0xcc455566, 0x666554ac, 0xbcbbdddc, 0xcdccdbcc, 0xacbccdcc, 0xcd22cdcb, 0xbacddb4b, 0xcbbbcdcc, 0xbbdddd98, 0xbbcbdd9c, 0x1c8a2b21, 0x3dec9cac, 0xb842aded, 0xdddddddc, 0xcc1deedc, 0xdc8deeed, 0xdccdb452, 0xbc2c2cdc, 0xbb04542c, 0xccc35544, 0xcc9deee, 0xd3355564, 0x10b42efe, 0x35455354, 0x33255667, 0x66655444, 0x24566766, 0x66565555, 0x35556553, 0x53ba5553, 0xbcb04434, 0x58544533, 0xb90cdd98, 0xbb144402, 0xccccbcc1, 0x245440ac, 0x1abddedd, 0xd466652b, 0xcaddddee, 0xba56664a, 0xccdddddb, 0xcdc67643, 0xcedbdcb, 0xcda6675b, 0xbcdbbeeb, 0xbee6765a, 0xccbcdcc2, 0xdee6766c, 0xb44c84cc, 0xeec6664c, 0xb54434cb, 0x9d454434, 0x34549cdc, 0x2c530193, 0xca5333ca, 0x38b35454, 0xb34345bc, 0xdba35444, 0x134454bc, 0xa8ab2c55, 0xbbc2442b, 0xdbbdcaa1, 0xbab1480c, 0xd94bba8c, 0xcbb1444b, 0xbc90b91b, 0x84bbbabd, 0xca38440c, 0x2acb0321, 0x8bb3383b, 0xbcc2ca4c, 0xdc035543, 0x98c43913, 0x4a454444, 0xcb943c25, 0x4443cc83, 0xb3bb2bb0, 0x45642cbc, 0xadb9ddc, 0xc566654b, 0xb4c3babc, 0xee566652, 0x343dd523, 0xefe6666c, 0xcd4b3535, 0xefe6566a, 0x1dddc245, 0xde465448, 0xbcddedc4, 0xc4665433, 0xaaddddc0, 0x44450548, 0x2bbccc44, 0x444c2202, 0x3bbcb333, 0x8ccc4aa2, 0xb0ca243b, 0xbdddc384, 0xbc29abcc, 0xc888b423, 0x3ca29834, 0x242c903b, 0xbb45356, 0x55544430, 0x31812456, 0x655544c2, 0xb0ccd356, 0x65244158, 0x3b43356d, 0xec0a2453, 0x3455464f, 0xfdabba44, 0xa2ac4ef, 0xb5cccbbb, 0xc1abddee, 0x54ccddd9, 0xb84ab9dc, 0x4bddeeec, 0xb9a254ce, 0xdddcdddb, 0x3ab54b3d, 0xdedc2ccd, 0xb1482343, 0x30cbb42b, 0x22cc9bdb, 0x453a34b, 0x1b842290, 0xc242bc02, 0x3a19bdd3, 0xb4408230, 0x34442334, 0x54445445, 0x443aac21, 0x30c2b333, 0x548dddaa, 0xc98c1b33, 0x55558dec, 0xb1819b92, 0x55666653, 0xdc1c2dc2, 0x66777766, 0x64422ca4, 0x545ceeed, 0x5124bc99, 0xceffff46, 0x4243cd44, 0xaeffc665, 0xc8434433, 0x2dc6655a, 0xb9ccb423, 0x4359cccc, 0xc0c24834, 0x54ccc394, 0x4330ad24, 0x33bbbd34, 0xb3cdc20, 0x554a253a, 0x330992a4, 0x553ac2ba, 0x2bdbb444, 0x5442233b, 0x83308445, 0xdddd2853, 0xabbddddd, 0xded36665, 0x4bccbcdd, 0xed26665b, 0xcbccbcdd, 0xda5676cd, 0xcc9cdcdd, 0xd86676ec, 0xcbbabdd, 0xb6667cf3, 0x4c3cd3bc, 0x26676ffb, 0x44dde23c, 0x36566ef2, 0x4cc0a2cc, 0x465563ec, 0x3b99db9d, 0x564044cb, 0x3cbddabd, 0x464233bb, 0xcbb2dabd, 0x35543044, 0x4b4d4ac, 0x954414ac, 0x931354c, 0xc311b423, 0x204354bc, 0xcd123328, 0xa2554ccd, 0xddcbb4cd, 0xbbd89cce, 0x33440102, 0x42444444, 0x5523b8a4, 0x54545434, 0x451bcc35, 0x58b45244, 0x533ddcc2, 0x53bc9b45, 0x511ccad3, 0x554edd44, 0x243d34dd, 0x663efd46, 0x448ca30e, 0x376ffd55, 0x33ca34ae, 0x575ffd55, 0x4491144e, 0x56bfe356, 0xa245ca1d, 0x44eeeb34, 0x393cdcdc, 0x3bdb4444, 0x3cdbd255, 0x36655532, 0x4bdb9450, 0x34433443, 0x32cc565a, 0xc0aa5344, 0x4214559c, 0xb5444453, 0x535546a0, 0x29343354, 0x53534434, 0xa3334444, 0x4454343a, 0x1bb83844, 0x24300c42, 0x283a3432, 0x4a221a34, 0x2a4a343, 0x29a92919, 0x83b191c4, 0x832a3233, 0x38322c28, 0x232c022a, 0xcb134341, 0x2cb2cdbb, 0x41bb3454, 0x3cc66554, 0xbb9432a3, 0xcdeec565, 0x443bbcc8, 0xbdfffffe, 0xddca8caa, 0xaddffffd, 0xcc33b3bb, 0x34666676, 0x4393bac3, 0x30566659, 0x9a823ca4, 0x544444b1, 0xb9989b31, 0x443cdddc, 0xbbca2315, 0xbb23bba4, 0x2ab02b22, 0xb22bc34c, 0xdcb152c3, 0xc101c554, 0xee1445a2, 0xb1334453, 0xded1c343, 0xb38cdc50, 0xed24ac24, 0x22addd4c, 0xe33dcb35, 0x24b1bce5, 0x440c1466, 0xaa2dced6, 0x22366676, 0x3bdded66, 0xad955665, 0x30cdda76, 0xcdcdd455, 0xa2c4c465, 0xcc3dc555, 0xbcddd855, 0x54503441, 0x1dedba56, 0x554430bc, 0x8ceedb45, 0x553319ac, 0x9cdeeda4, 0x38013aa2, 0xaacddddc, 0xca84cb00, 0xb4a41ddc, 0x5551bb0b, 0x3a28cef5, 0x774ddda4, 0x4352def5, 0x76efed01, 0x4445cff7, 0x75fea665, 0x45455ef6, 0x7ef35555, 0x34356df5, 0x7fe65555, 0x44144ce5, 0x6e3544a3, 0x33b904c4, 0x3d534cd3, 0x433a23ca, 0x3c8cdb2, 0xa3431bb3, 0x48b8b1b2, 0x444cabb4, 0x3284a412, 0xb42bbc94, 0x2434448c, 0xb833a923, 0xb10bbcc1, 0x3034314b, 0xaa23ccc1, 0x348a1a3b, 0x4b098a8b, 0x922aabb8, 0x238bc91a, 0xbb0cab25, 0x5534438b, 0xc9334434, 0x33554498, 0xba440c3a, 0x1a35543b, 0xb334545, 0x33855430, 0xb0b14334, 0x9053a354, 0xa4543cbc, 0xb53b0544, 0x945143b5, 0x55545664, 0xb44dc255, 0x55666654, 0xcc3d9445, 0x44556542, 0xcd134b56, 0x53cca10c, 0xccccdeed, 0xeedeecad, 0xcabcceee, 0xdeddeddd, 0xc9445b42, 0xbcccdedd, 0xdb324355, 0x30ceeddc, 0xcdacc93c, 0xdeeeeccd, 0xccdbcbde, 0xededdcdc, 0xb3b343cd, 0xeea44a2a, 0x235555df, 0xfb555419, 0xca5665ff, 0xf77649b3, 0x305666ff, 0xb65bddd1, 0xa2a366ff, 0x67dddac8, 0xb48c57ef, 0x65dd2445, 0xc2c186ce, 0x5bc10454, 0xb434854b, 0x2a254282, 0x94ab2ac2, 0xcab0a2ca, 0x93aa3c81, 0xc9b24cb2, 0x4043bbb2, 0xa2b21a9b, 0xc8343ab0, 0x9138b1b3, 0x292bbb12, 0x3833343a, 0xbbccc2bb, 0x2c303339, 0xbc088238, 0x8c5cb2a2, 0xbbbb3332, 0x2bcccac1, 0x25240456, 0x55543a25, 0x44acc466, 0x58cc8804, 0x4cdec666, 0x8dabc830, 0xbbeeb565, 0xde1bc453, 0xadec566b, 0xdca36343, 0x2de9566d, 0xd3b84a54, 0xbded466d, 0xe12db444, 0xccfe5662, 0xddbccda0, 0x8aefd564, 0xdc3acdb4, 0xa8dedc65, 0xc0cbbcc0, 0x43bcddb0, 0xbb99b33, 0x13bcaca4, 0x300bab43, 0x822cd2c3, 0x334ac344, 0x442cb2b4, 0x4530aa54, 0x4341bdda, 0x43444434, 0x4325433c, 0x34595434, 0x9cbbbbb0, 0xccc8c3b3, 0x89b33444, 0x45c89291, 0x31345545, 0x5434533b, 0xb4c34455, 0x55434548, 0x122a1445, 0x45414339, 0x34235334, 0x54443a33, 0xbc55556, 0x6434cc3b, 0x2cec564a, 0xcdc0cdac, 0x2aefffff, 0xeedddbcb, 0x443ceeed, 0xcdeedbcb, 0x32656565, 0x5ddddd92, 0x145544c8, 0xdedddcda, 0x35534511, 0xdb4b4bc0, 0x24353bbb, 0xccbc32cb, 0xa8452c5d, 0x3cc443c, 0xb9accdad, 0xdcdcbcc2, 0xb31c3b0a, 0x542b43a2, 0x329bbb23, 0x44a0ab33, 0x82a3bbbb, 0xcbc2bdcb, 0xbba2083b, 0xc433cddb, 0x23a1ab3b, 0xb2acbcc9, 0xbc41cb3d, 0xa3cdcdbc, 0x2133c3bd, 0xd43bddcc, 0x455528dc, 0xc4653358, 0x3353cbcb, 0xeb66335a, 0xa434949b, 0xfc75332c, 0x4bd3350d, 0xf5745cad, 0xb2d5588f, 0xf76550dd, 0xcdc552ee, 0xe7664cbc, 0xbccddefd, 0x5676533a, 0x1bdeeee9, 0x56676124, 0x4a0ddd85, 0x56655552, 0x314839cb, 0xcb0bb334, 0x3324bddd, 0xc1daaca3, 0x345553c8, 0xacbadb34, 0x5577765, 0xbab33130, 0x43566667, 0x7634033b, 0xbdeeeefe, 0xd82a2342, 0xdeffffff, 0xfdb3b34a, 0xceeeedb5, 0x64314454, 0x2b666665, 0x53024424, 0x5565c41c, 0x4908bc03, 0x555444ac, 0xbcbcddb3, 0x53244385, 0x38d9cdba, 0x320bc934, 0x41bcb33, 0x48dc2cbc, 0x2bc23442, 0x33bc943a, 0xc2b82432, 0x90bccca, 0x23445443, 0x803a98bd, 0xcbaa2a33, 0xa2accdce, 0xeeccb8cb, 0xa44ccddd, 0xdeddb333, 0x28144b04, 0xaccc2423, 0x228558cb, 0xcddd24ca, 0x33bbdde8, 0x3d9bc218, 0x30beecbb, 0xdc834acc, 0x3addadde, 0xddcd2ca2, 0x1cedddee, 0x3baddb98, 0xc9b3db57, 0x6561ddcb, 0x24bdb466, 0x66663ecc, 0x38293334, 0x5566adbc, 0xcaa44255, 0x5544bdcc, 0x23425555, 0x666545bc, 0xa1445545, 0x66665532, 0x43844435, 0x56655342, 0x344040c2, 0x43544354, 0x3440329c, 0x28003434, 0x5451dcbb, 0x94833453, 0x3549c4bc, 0xc51b4343, 0x455434bd, 0xb43342b3, 0x466653ba, 0xc4c9abc0, 0x56766774, 0x9493cdcc, 0x335563ee, 0xbb2dddca, 0xaddefff4, 0x6ccbb433, 0xceffff56, 0x41453545, 0xdeffd665, 0x2322da54, 0xced14552, 0xb43bb444, 0xb334b443, 0x4393b344, 0x4a9bbb24, 0x4b24b093, 0x54329bbc, 0x4cbbc344, 0x4343bcbd, 0xdcdbc213, 0x523acddd, 0xddccb803, 0x42bdeeee, 0xeeeedc94, 0x1ceeffff, 0xffefdca1, 0x4bdeeeed, 0xeca9ca43, 0x3ddc5667, 0x76554534, 0x4cc36666, 0x74891434, 0xa2a445cb, 0x8244b425, 0x442b3add, 0xb48bcc4, 0x444ac18c, 0xcd383444, 0x52531243, 0xb0041344, 0x44a03b44, 0x41b35344, 0x54cc0bcc, 0xcb340945, 0x4439c3bc, 0xa9cac855, 0x24443331, 0xb0ccb555, 0x55555555, 0x55450554, 0x25556556, 0x65554533, 0x39ab2383, 0x302244b3, 0x32c29b33, 0x43993543, 0x23cbc459, 0xbb346554, 0x4ccddb4a, 0xcc055553, 0x3cddcb4a, 0xda254231, 0xaddb0149, 0xd99bcddd, 0xbdeeeedd, 0xddeeeffe, 0xcdfffeed, 0xcdeefeee, 0xbdd93544, 0x40ddcddd, 0xa4676665, 0x56666455, 0x55665553, 0x56666676, 0x5554244a, 0x45666766, 0x8a23b2b8, 0xddc43665, 0xccbb24c, 0xddeedd44, 0x2adc3bc3, 0xcaddec33, 0xcbccbcdc, 0xbcd2bb9b, 0xcbccb3ab, 0xccbbacbb, 0xcab84434, 0x32a9ba1b, 0xd0855525, 0x28434cbc, 0xcc15083d, 0x13d1c39, 0x1345c454, 0xba3eb443, 0xba493452, 0xbcac38b4, 0xcc342c4b, 0xccba4ba0, 0xa8ccdd41, 0xc09a4b48, 0xcceee35d, 0xd4c154a2, 0xdeeb575f, 0xd292cc9b, 0xced367cf, 0xd40cbbcb, 0xdc4467df, 0x1cc432dd, 0x9236565c, 0xdddc2ddd, 0xc334664d, 0xddedccdc, 0xc2256555, 0x9bccbacb, 0xadbc4555, 0x5544cbcc, 0x2cbacbbd, 0xccdccba8, 0xbccccddd, 0xbccbcccc, 0x8adcbcdb, 0x8bda0c8b, 0xdcd02cd, 0xa044543c, 0xbc4a3cc4, 0x45555541, 0xccacaca4, 0x55465523, 0xbddbc91b, 0x52264653, 0xcbb232bd, 0xeed44555, 0x9dcc9b24, 0xeed0401b, 0x3bbb9cc5, 0xbeeeeeed, 0x35544254, 0x9eefffed, 0x56654555, 0x54deeedb, 0x46654555, 0x666438a3, 0x46653555, 0x5666665a, 0xc3352595, 0xbb566640, 0xb29ccddc, 0xdc03443b, 0x55556667, 0x66655554, 0x55565555, 0x56555454, 0x4545328b, 0x32338835, 0x554c3ba9, 0xa281cc84, 0x54ab9923, 0x8b0bac28, 0x44314b14, 0x338b92a8, 0x439a8b42, 0x2a83bc44, 0x54a42a30, 0xccc90555, 0x553b1493, 0xb3834565, 0x55444834, 0x44445455, 0x65543354, 0x545332c3, 0x53444454, 0x65533ded, 0x3cebb30c, 0xdeeeefed, 0x4deeefff, 0xffffffec, 0x3cdeffff, 0xfeeeccb8, 0x552bbcbb, 0xbbcb4444, 0x35443330, 0xbddd2b04, 0x4432945c, 0xeeeed214, 0x3353044c, 0xefedda44, 0x3433a2cf, 0xffd93443, 0x41448edf, 0xff021544, 0x8a32dddf, 0xfe334a34, 0x42314aff, 0xf5454345, 0x20cc82da, 0x66552445, 0x4acd8544, 0x5444cc45, 0x2ba454cb, 0x3babdc44, 0x4b322911, 0xc089a454, 0x42839544, 0x40448444, 0x22454454, 0x4a24cc9a, 0x41433343, 0x49dcbc04, 0x44224122, 0x34383444, 0x44454058, 0x34453332, 0x4393bdb5, 0x43454233, 0x4440dd55, 0x55444544, 0x838cdc55, 0x21154554, 0x8343dc64, 0xcd524455, 0x9b9ceb66, 0x9c43b453, 0x1bcacc55, 0x3dddb044, 0x3bbbecaa, 0x5b824543, 0xbcb34bec, 0x53453cda, 0xbc235de1, 0x649bcddb, 0xbccc2ef6, 0x732cbcc1, 0xa9cccef8, 0x64555b94, 0xa39bbefd, 0x55656554, 0x233acded, 0xd4556664, 0x41bddee, 0xdcb45553, 0x433baced, 0xeeed2540, 0x34313acb, 0xddd93438, 0x45521444, 0x55454343, 0x44334832, 0x23553055, 0x5553a8cc, 0x1945dcc3, 0x555a8b2a, 0xb35bddb1, 0x5450bbab, 0xc354ddc3, 0x348cc3bb, 0xbcddeeb9, 0x444a39c4, 0x5cedcdb1, 0x353339c4, 0x6cf04453, 0x44435ca6, 0x6eb42aa4, 0x35565456, 0x4e544ab5, 0x5555ceb6, 0xdfb29228, 0x453dff47, 0xdfeeddc3, 0x52ceed66, 0x6deddb32, 0x44dee356, 0x4bcdca94, 0x32cec555, 0x669cc444, 0x539cb333, 0x451b4544, 0xb8b3c93a, 0xc1a23b2c, 0x4a33221b, 0x2cc94b4b, 0x3b44941a, 0xc2a294c2, 0xb443b242, 0x2232b314, 0x32baba85, 0x233c0da, 0xbbcc3b3a, 0xc913bb2c, 0xbcc53344, 0xdca4443c, 0xbcb54cb4, 0xddd48313, 0xbcdb0344, 0xddd2434a, 0x9cdd0462, 0xedb4533b, 0x44a3c57f, 0xfed3432c, 0x4554465f, 0xff335522, 0x665661e, 0xffd4553a, 0x346555be, 0xfeda4512, 0xb35503de, 0xfe242232, 0xc3a4acce, 0xed355533, 0x3bbbbcc3, 0x3220c033, 0xb9accdab, 0x33282a19, 0x33433cdc, 0xca20442c, 0x44535315, 0x3aba443a, 0x9443531b, 0x230ba3ba, 0xb058523c, 0xacc03abb, 0x25528cb5, 0x54493bdc, 0x94555555, 0x3ca342bc, 0xb24666be, 0xedccdbb8, 0xcdcbdfff, 0xeacddaba, 0xdeeffff3, 0x64413344, 0xdefffe56, 0x54042443, 0xcded5545, 0x589a2443, 0xc0355656, 0x543ab524, 0x8b45534a, 0x35255422, 0x34845554, 0x442438a9, 0xcba3ab2b, 0xb2033a39, 0x3302b1cb, 0xba3344a, 0xc9223443, 0x4140ca22, 0x2caccb90, 0x523bcd4b, 0x9b2a0baa, 0x4bcbcaaa, 0xc3cb83cd, 0xbc23c3bb, 0x1acbbbb3, 0xcb3a8c8b, 0xcabb22cc, 0xda8abccb, 0xa8d0bccb, 0x3bddc03a, 0x33b8db32, 0xacba4554, 0x458bbb8a, 0xedd24455, 0x4663bcdd, 0xdb566654, 0x46666667, 0x77766534, 0x34556776, 0x766cdcb3, 0xb2cdeeda, 0xddefedbb, 0xabcceeff, 0xfffeddba, 0x45453124, 0x3b913554, 0x354212b3, 0xc0dca355, 0x44334a34, 0x4c4411a4, 0x24c3ba45, 0x242413b3, 0x29ccac54, 0x32444433, 0x3bd14a44, 0xbd935555, 0x1dddd455, 0x5b8b1245, 0xaeeffe47, 0x6544bc44, 0xadeffffa, 0x64813ca3, 0x4565efff, 0xc49abcb, 0x3566763d, 0xa34cccca, 0x2cc55539, 0xa34bc38c, 0xbdddcdb3, 0x33340b88, 0x40adc1b1, 0x9139c919, 0x34b89bb8, 0x10930355, 0x45333c4c, 0xa4433534};
//first channel is topmost bit

// Layer: L2
// Quantization type: 4bitlog
uint32_t L2_bitperweight = 20;
uint32_t L2_incoming_weights = 64;
uint32_t L2_outgoing_weights = 64;
uint32_t L2_weights[] = {0x8ed2555a, 0x43dd541b, 0xca5ce4d1, 0x45a42ccd, 0x545c44dc, 0xce54d4de, 0x4e498350, 0xb64ccd4f, 0x53b14234, 0xc4540255, 0xdd3253dc, 0x5404b444, 0xbed234c3, 0x4dc33404, 0x5ac53d33, 0xeca556e4, 0xac53be4b, 0xd5dd4d02, 0x54c54b5a, 0xa5bce55c, 0x45c5e6db, 0x55c844ef, 0x44363dea, 0xd453be5d, 0xa3e824f6, 0x2d3c5465, 0x45d1ddb6, 0xc8465cda, 0xde04bc3d, 0xdc434dd, 0x46e4b26e, 0x30d6bcdd, 0xdd5ddee, 0xb4254bc5, 0x4d53e5bd, 0xb34324c4, 0x25045441, 0xac4ccd2c, 0x4c54854, 0x5a5be25d, 0x33eee4ed, 0xd5c55eee, 0xbc52d265, 0xcb63c35c, 0x54b46b34, 0x6554d45d, 0x2bdc4dd5, 0x364c4d4c, 0x84bdc1e5, 0xbbccdcd3, 0xc3c75d65, 0x83254460, 0xffe2d62c, 0xd7d254dc, 0xe2dc1ace, 0x5cdcacfa, 0xad40d5e5, 0x2bd3c4d4, 0x5382432c, 0xdd45224c, 0xbd4643ac, 0xbebeecd4, 0xc5d5a5b5, 0x5b0cf04c, 0x594c645c, 0xde96dd93, 0xd852243b, 0x6da2ee0c, 0xaa6d5405, 0x4cd3e885, 0x43b446c3, 0x6ea54548, 0xcca95ab4, 0xd6cc5b4d, 0xc3ea4d42, 0x44c4ddd4, 0x3b9dc364, 0x814445ad, 0x5cc6535d, 0xc39894bd, 0x4a5b454d, 0xf4b4a34a, 0xd030d539, 0x6e24e4b0, 0x4b4e5db6, 0xa4efde65, 0x558b59cc, 0x1fc4854a, 0x4d4dacbd, 0x844a4d55, 0x2c3bc65b, 0x45b3d152, 0xdbb44614, 0x58a4a53c, 0x631695cc, 0xead456cd, 0xc535e2db, 0x4adad444, 0x5b9c386e, 0xe4bc4ccc, 0xd04b9cab, 0x65d3e321, 0x5bb4c5c5, 0x44c4c448, 0x5c433c4c, 0x3b548d54, 0xb5d44bfa, 0x444535a3, 0xdee8d54c, 0x9a244223, 0xb542414c, 0xed565ddc, 0xd2d4cd15, 0x6edb42cc, 0x4be3ce54, 0xc3365bd4, 0x41550e6f, 0xd24c5de3, 0x16b0c9c8, 0x5d2cdac8, 0xe2b6ac35, 0x35c33dde, 0xbdac9b65, 0xe6344ddb, 0xb03de55d, 0xc534d555, 0x8ba8c939, 0x5c650314, 0xe553e433, 0x395e4354, 0x44855bd1, 0xe3de4a5b, 0xced41da2, 0xb35551b, 0x4e40d53d, 0xd49451f5, 0xcd6cc4ad, 0x5c5bed15, 0xb5254ede, 0xa3cd5a45, 0x5b446ade, 0x5dd5c5ed, 0xc4bceab4, 0x46d9cdce, 0x4d84464d, 0xce4cca08, 0xc1d645eb, 0x35bed643, 0x4a4306e5, 0xdc94c564, 0xbcbedddd, 0x54edda4e, 0x55cd6445, 0xa4cc4c4d, 0xdd64b555, 0x4ca8dce8, 0x34ae5cd3, 0xd555c544, 0x2bbda8ac, 0xd65551a4, 0x2d046ad5, 0xbe4a3b32, 0x54c5ccd3, 0x6ca6855c, 0xce40dd42, 0xac54531e, 0x5c3d54e, 0x5b34bdce, 0x69cd3854, 0x4cd5d4de, 0xbe382266, 0xb8543dec, 0x688eeb5d, 0xb4d3b04b, 0x935844dc, 0xccbdab35, 0xed569b83, 0x235ddcbc, 0x4b41e494, 0xd64d653e, 0x553d165d, 0xbd48d434, 0xd944da6c, 0x4dc3465b, 0x96333b15, 0x55c33ac2, 0xcdecdc68, 0x44c550d3, 0x5145435e, 0x3642c33c, 0xb4ce0cc3, 0xa4de4c46, 0x3cee440d, 0x354d5c51, 0xd15ba5be, 0x16c5dc8b, 0xd49cb543, 0x3356454b, 0x45b5cd46, 0xd634543c, 0x533254ba, 0x5deccaec, 0x354cdce4, 0x2acd34b4, 0x36c05933, 0xee43c384, 0xd12dd9da, 0x654dec54, 0x43125cae, 0x45334c64, 0x3452a3dc, 0x32455443, 0xbec4554e, 0x3bc322cc, 0x6533b3a8, 0xe6d553ed, 0x457c4e63, 0x94dabdbc, 0x92c05dbc, 0x5cdc4b85, 0x31ad046e, 0xc5ccadd4, 0xc655a5c5, 0x5dbade34, 0xc69beede, 0x942d0cc4, 0xd3c46d3e, 0xd09dd404, 0xb730c4d0, 0x551c4b06, 0x1ae8df56, 0xcc154656, 0x2dca453c, 0xcc3515dd, 0x234d43e0, 0x4d5dd24b, 0xa4bbc3e4, 0xae5a4a2c, 0xeb4c2454, 0x1c2ccc3b, 0xbda3de54, 0x324bcd5e, 0x3b6954be, 0x104d4dfd, 0x4cccee0f, 0x54343c1c, 0x44baacc4, 0xc5555bc4, 0x53345c5d, 0x95c5a4cd, 0x3a2cbd45, 0x3d3545b5, 0x4b235ddd, 0xd88d4ca3, 0xb34c5dcc, 0xdbbd44b6, 0xd53ed4b4, 0xdb4ca535, 0xd3d34ce4, 0xe5dbdd52, 0xb3dccc41, 0xad56563b, 0xa335bb4c, 0xbe5450c5, 0x458c5555, 0xd443e4ac, 0x855e45d3, 0x2c5edc5e, 0xd3dce2d4, 0xdcac485e, 0xcc5d4d54, 0xec335b35, 0x58bc5446, 0xe93c43ee, 0xc44da195, 0x6cdccabc, 0x142eedc5, 0xe85cbc5a, 0xd385b543, 0x534c4444, 0x444d4886, 0xb5d55ddd, 0x35e5444, 0x5c43bdd3, 0x36bcb439, 0x859cbdcb, 0xc4334535, 0xc35ab45c, 0x546e6d5e, 0xaeeb35bd, 0x2b942b4d, 0x5cdc8ee5, 0x544c5dcc, 0xb0c3a323, 0x2ac424ce, 0x5acce456, 0xb4cdcc14, 0x4c5be444, 0xd63e3cc4, 0xd3db2d5d, 0xc45cc81a, 0x5dc5e5bd, 0x4e1583e5, 0x45653613, 0xd946db53, 0x49c4c52c, 0x5beb5dca, 0xdc2a54c5, 0x30d1bd2b, 0x2dbd5e12, 0x9bb45d83, 0xcea4418b, 0x58d54b40, 0xd6c0c2ba, 0x53895b4b, 0x4ca6f68a, 0x3d4c452b, 0x34dfcecd, 0x254c5ae2, 0xdbbbb88d, 0xe514eb44, 0x4fca26a5, 0x5ced5e34, 0xe45d41e5, 0x32c65e05, 0x34cd4ec5, 0x3caccbcd, 0x4dd33244, 0xddbce22c, 0x4c4db444, 0x4358b5c2, 0xd9ef4d35, 0x334cacac, 0x34554659, 0x1e4dd193, 0xa6634db6, 0xd3d54583, 0xadeb05cb, 0x3d3c52d4, 0x3d1d4aea, 0xb4318cc4, 0xdebbc8ab, 0xdd8db34c, 0x56c3ee5d, 0x44d59ec1, 0x5d45dd32, 0x40b12f4c, 0x50355cd9, 0x33434a61, 0xc5384ded, 0xb6bd45cc, 0xd48458ba, 0x5ced5454, 0xe5d554ed, 0xcd53963b, 0x4e34cbe4, 0x44dc4a33, 0xda5d2244, 0xcbdb5935, 0x640ebc5c, 0xb444544c, 0xdd5c5b4d, 0xcdcba165, 0x554d6411, 0x4dce3544, 0xc5dddc45, 0x1be2d25c, 0x4de8259c, 0xcab5d59d, 0x25e452b4, 0x4ec11b2c, 0xdc53a52b, 0x5ba544c5, 0x53dbb453, 0xb4ef5b53, 0x5edded4e, 0xb42c63dd, 0xcd4fb43c, 0x95d50bd4, 0x45fdbb44, 0x34d2a5a, 0xdd565643, 0x3dd5eb3c, 0x5c249013, 0x4e53d555, 0x45c18a23, 0x4d5be6ec, 0x18cbcb5e, 0xde6a8634, 0x2d23f4e5, 0x195215d5, 0xe1ddcccd, 0x4d44d3d4, 0x3334cdc4, 0x4ccd5cde, 0xd4343c5c, 0xd324d3b5, 0x3c50dcd3, 0xf4a53555, 0xba43c54d, 0xd6635ede, 0xcf9d544c, 0xcdd58dbd, 0x3dcdc505, 0xb4ac6cbd, 0xce3bab36, 0xced5db5c, 0x59b4b698, 0xa544254d, 0xcc3cd541, 0x3325646e, 0x1d4ed5cc, 0xc8d59ce4, 0x46ed4d3c, 0x4e3fbeed, 0xcde543b5, 0xbc530e5d, 0x8dd4d5dd, 0x338d5deb, 0xd4ad4de4, 0x5eabdcd, 0xbf44554e, 0xea252c54, 0xb84dfc48, 0xdde8cbd4, 0x5dc45dee, 0x9e0464c4, 0x841b6de5, 0x35cddd5d, 0xdd418a2c, 0xedd4b552, 0x5ccbbe5c, 0x96c43e4c, 0x5e54db1c, 0x3d3cdcd2, 0x495324bc, 0xb95c3ccc, 0xb3c1ca56, 0xb1e44dd3, 0x54ba4546, 0x4c51dca9, 0xda45c523, 0x549d43ec, 0x3d53e55c, 0xdbb5db12, 0xeae4edd, 0x95445234, 0xdd64c5a3, 0xe2bde5b4, 0x3b4dd553, 0xb1c1ca25, 0xe5ed4dbe, 0x3ea3ce34, 0x45635ad, 0x4b54464d, 0xdcc42aeb, 0x4539c5cd, 0x2455d464, 0xb44424dc, 0xbd3cb442, 0x4fd35595, 0x45dc5bb4, 0x59bd43dd, 0xddd515e0, 0x3555ba35, 0x25bdc4dc, 0x13d2ce53, 0xcd665318, 0x3d534c5e, 0xc43dcde5, 0xc52c2aa5, 0x34db35d2, 0x5bc9650d, 0xcd4cd54c, 0x555215ca, 0x64aec34d, 0x2eb145e6, 0xd0a1234d, 0x2e2ecccd, 0x3cbbaed3, 0xaee4e4ce, 0x44445233, 0x2a5cc5ed, 0xd05d35d2, 0x54445644, 0x5e15c443, 0xcc9c4d24, 0x5554bc4e, 0x4600c545, 0xc5d4c5d4, 0x55315464, 0xd0bb4e3d, 0x2bd31435, 0xc73c2dde, 0xb55e53db, 0xec4caede, 0xded52990, 0x5eb22443, 0x2b6bd6db, 0xc44d354d, 0x42bb584d, 0x4f54d55e, 0x3f4cec63, 0xc3624ede, 0x45e9505c, 0xddde55dd, 0xde945cd2, 0xccc0d3e5, 0x58cc4c32, 0xcb42564a, 0xb4e2ed39, 0x555db91b};
//first channel is topmost bit

// Layer: L3
// Quantization type: 4bitlog
uint32_t L3_bitperweight = 20;
uint32_t L3_incoming_weights = 64;
uint32_t L3_outgoing_weights = 64;
uint32_t L3_weights[] = {0xd9144cc4, 0x5d555c95, 0x44d45e5b, 0x5d305c5d, 0xddccc5ca, 0xcc444eed, 0xd6da1654, 0x4ccc4ecc, 0xc5d53eb5, 0xdded5a8c, 0xa2bdccdd, 0x42e8a5cc, 0x65c2345c, 0x5c4ccb44, 0x56b44d5, 0x5cddd5e6, 0x64c4a825, 0xb35199ce, 0x544bddbc, 0x43dd84dc, 0x64c4ccde, 0xc55e5e45, 0x35245dbe, 0x54c454b5, 0x63d5c5cd, 0x53044bd, 0x3ea54deb, 0x5e3dd5d4, 0x53ceb4c3, 0xc4b9cdb9, 0x542cde34, 0x564536ac, 0xc4d3daee, 0x8c5dcaec, 0xcddb43dc, 0x4acdd654, 0x55514543, 0x524e5b42, 0xc152dc54, 0xbccbe5b4, 0x35b58dcb, 0x365ddcee, 0xdcd514db, 0x4dbcacd3, 0xd85b3e4b, 0x4ccd542c, 0xb3ade9e, 0x403d21ea, 0x4cdac50d, 0x5d55d3ed, 0xeed4de5d, 0x5c5da4e4, 0xb5cc45c5, 0x84eedbde, 0x63ecdd45, 0xed5dc3df, 0x5b4bceec, 0xd5eddd4d, 0xe3bed4b2, 0xc4e3db44, 0x34c44355, 0x4e63a325, 0xcc5c5da4, 0x4d45d5c5, 0x15ebb4c3, 0x2d4c4cfd, 0x82e55bc8, 0xd9cc4424, 0xa4a34d34, 0x45ae8c4e, 0x6d64be53, 0xa4c4d6a3, 0xebc4bce4, 0x94a4c85d, 0xdcee2c5a, 0x1440c5b1, 0x444b5485, 0x3c314c33, 0x2add35e6, 0xdcc9bcdc, 0xbdb012b8, 0xcccc2c32, 0x32cc31bc, 0xcdacbab8, 0xdbcc3cd2, 0xdbb3d9ac, 0x4bcc243b, 0xccb2bbdb, 0xc544ceab, 0x554955d5, 0x44455ae3, 0x5b154d3d, 0x345554dd, 0xd4053439, 0xb455e14f, 0xdbe54ac5, 0xc3d3de2e, 0x51b1d4de, 0x44abd5ec, 0x5ca5d544, 0x6454459a, 0xb5ce5dd5, 0xd14d3444, 0x32abdce1, 0xbccc4ced, 0xebdc0c23, 0x35b5dd9d, 0x6b4d4406, 0xc5abd458, 0x559c3b4d, 0xed2b52d4, 0xdc3e6c44, 0x44cc459d, 0x50d55b45, 0x5d555d24, 0x51545cc0, 0x5d4e950c, 0xb5dccec5, 0x43bbdeda, 0x5443cb3c, 0x94c2cab4, 0xcb0c3ca3, 0x55d3e304, 0xa42c5c85, 0x434c4d8a, 0x80ec85d9, 0x4e54db6c, 0x4445d3cd, 0xeb5bdd4a, 0x5a5a54e, 0x4dcd5b6d, 0x1da42534, 0x303d9040, 0xbde5bcd5, 0x55fc63d5, 0x4c3a9dd6, 0xb5cc34d9, 0x5d55611c, 0xbddd5bcc, 0x5c5442bc, 0xcdd3b4a4, 0x3b44dede, 0x438495a4, 0xd50485c8, 0xdc53c3b5, 0xc5e3d54b, 0xbb3b3045, 0x24c3b55, 0xcbc5a3ab, 0xbeb5c4e5, 0x445cd4c3, 0x5a5cdbc8, 0x56dd55ed, 0x4442b4d5, 0xde05eed4, 0x5d5dc3ec, 0xbdbbedbb, 0xa64c505d, 0xfaeb4d1d, 0xd4eb5c5e, 0x5dc45555, 0xcd4a3d28, 0x5e3b5e4c, 0xb5ccb4ed, 0xbdb4d8bc, 0x35531c20, 0x55e43ad3, 0x53242c4c, 0x6c5d635a, 0x344bdc44, 0xed4d4c5a, 0x1addc6e1, 0xc235c334, 0xdc555c55, 0xd3e40ce4, 0xde935ca1, 0xecd53d34, 0xdcc13e55, 0x45bc309d, 0x5dab354b, 0x55bc23cd, 0x455e4a44, 0x3a5c54c5, 0x5d1c25a5, 0xbce55353, 0x966c464b, 0xc1b46e6c, 0xc3b4a5e5, 0x5d4de553, 0xccc3a35c, 0x26cc8535, 0xb96d5aed, 0xdcdc4b13, 0x13edbe53, 0x53ec6d5, 0xd5bdcd35, 0xcecc4894, 0x5d555958, 0xfd4cdccb, 0x433948, 0xdc5b5255, 0x5cadb335, 0x66a65435, 0x54343d5b, 0x355508ee, 0xdad444cd, 0xed2bed5e, 0xd03edadb, 0x526dec2d, 0x6c52d9ed, 0xcc25559b, 0x3d4ec42b, 0xe5533ed5, 0xeb443bdc, 0x62248d5d, 0x2b55c255, 0x5455dded, 0xe4d4025c, 0xce43d584, 0xad39dc44, 0xcda4bb23, 0x22d554d5, 0x841dcc42, 0x4c92833b, 0x4e6e245a, 0x2d3c4eac, 0x5c1eddd4, 0x434eb455, 0x4aebadb5, 0x34d9bd5d, 0x43f55bc4, 0xd3a3545d, 0xd56e4ded, 0x45a5c3b4, 0xddc485a5, 0xa4953c45, 0xcd555dc4, 0x25e336d5, 0xdb53ee2b, 0xc4a4e5dd, 0xce424e55, 0x41e45416, 0x53354d44, 0x4d443e2d, 0x5568d4cc, 0xdab59bb4, 0xe6ee853a, 0xcdbe2ed9, 0xd2c83ed8, 0xa2d45434, 0xe6ddd48d, 0xda45b39a, 0x43645d4e, 0xc42b35a2, 0x34db66d5, 0xfdebafdd, 0xd45c48ec, 0xe5b22335, 0x158de845, 0xd4cb31a3, 0xb5d33854, 0x5d43da0e, 0xad45ca34, 0x4134c4cc, 0xddc64a45, 0x1dc36d43, 0x51ea5035, 0x4a538c9d, 0xcd5c4dd, 0xbad8dee3, 0x550402bd, 0x434cd224, 0x4ccdd4ce, 0xdd95e62c, 0xc555cb5d, 0x334de45e, 0x555cd2ec, 0xd48484d6, 0xb99d45da, 0xdde45e53, 0x92cc4434, 0xa53dcddb, 0xc6b3c5ca, 0xe5d44b31, 0xcbcb5c52, 0x54ed464c, 0x4d54dd4c, 0xb5ac554d, 0x534db4cc, 0xbcc44c99, 0x5cbdcea4, 0x5ddc40ed, 0x54dbd3dd, 0xb55bde12, 0x5b44a33e, 0x59e3c3c3, 0xdc6dbddb, 0x4ce54254, 0x50dd14d3, 0x5033ce5b, 0x5ec445b5, 0x9cd65ae4, 0xcd8d4d51, 0xba4ecd43, 0xd48d4154, 0x433dd334, 0xc54db4b4, 0x5565e144, 0xcb5c6c4d, 0xd4dd648c, 0xddb953ca, 0xe44e6dda, 0x55c2545d, 0x56433bed, 0x41b6da56, 0x4844a8b4, 0xbd34c3d2, 0xd4ad4d35, 0xedd1df5d, 0xc24c3dce, 0xcd6dae6d, 0x569eec3e, 0x3b554524, 0x3dda4cd2, 0x8c5a4bce, 0xdde365d4, 0xdb45edbc, 0xdc5d5be5, 0x1cdd0dd, 0xae3c4cee, 0xd4ecccac, 0xdb5e4555, 0xa6bd5435, 0x25eede4d, 0x3a454455, 0xe485e43d, 0xa3d48315, 0x2bac63d4, 0x45b5dbe4, 0xc9c55c4a, 0x309d5e53, 0x33cebc4c, 0x6e45decd, 0x5443315d, 0x5cde4453, 0x834ee4ae, 0x3b5345db, 0xe5de34e4, 0x4cca3d41, 0xc5545b44, 0xdd165e3b, 0xe4a56b46, 0x5e5de45a, 0x4ec4db4c, 0x8d4341cd, 0xb533445e, 0xbc5436ec, 0xe5449dd5, 0x44852cfc, 0xbbe6ce55, 0xa4b9dbce, 0xec323430, 0x5605dd5e, 0x2d6df359, 0x95bed35b, 0xa5a423cd, 0xaddb44d4, 0xe4ce5b68, 0xcdce4554, 0x495eaedc, 0x3d5dcecd, 0xd4ddd504, 0x4edad34b, 0x45d45a5e, 0x24e55b14, 0x89bc5d6e, 0x523dc345, 0xc44dabcd, 0x4a4e3e3d, 0xcece33e0, 0x3deeee55, 0x5dc4dc6d, 0x4482d4a5, 0xd54b593c, 0x46c3c5db, 0xc524e603, 0x58d6bb4d, 0xdd50adb4, 0x2c8edd41, 0xd933333c, 0x445d3532, 0x4554d433, 0x3c35cf55, 0xc49ce4b, 0xdd15555d, 0xa4a442cd, 0xd555d2de, 0xdd945453, 0xa5d505d3, 0x4eccd224, 0x1480cdfc, 0xc2c5cdbd, 0xdbca265d, 0x45cad544, 0x85455549, 0xa55c4435, 0x8dbe5d25, 0x4d55a5c6, 0xdcd8bdcd, 0xeddc4a36, 0xb548d25d, 0xc335c359, 0x453d355c, 0x654e442c, 0xee4c5430, 0xec8d44d5, 0x434dc5b4, 0x2bc15dc3, 0x6ebb6dbb, 0xdd3e63cb, 0x420ecd53, 0x444cda40, 0x5e25b4cb, 0xc2b5d355, 0x5589ecdd, 0xd22126cc, 0xc515a34c, 0x2e515d44, 0xd40d4b55, 0xcddcddcd, 0x3534d6b8, 0xb45accbe, 0xe395c4de, 0xa1a4c5ad, 0xcd52d435, 0x3c459cd4, 0x1dcdb2c4, 0xed44dcd4, 0x14be04ca, 0x644bcabc, 0x3d9dcd4c, 0xbfabecac, 0xcc4c453d, 0xd4d9d46d, 0xd444459d, 0x135c54b5, 0x2b4453c0, 0xadc4cd36, 0x13ed1c44, 0xcdcc8a33, 0x5551cb65, 0xc13cdad2, 0x4acbcdcf, 0xba2dd494, 0x5c34c95e, 0x3264014d, 0x5b5c32dd, 0xec443d05, 0x433cc155, 0xdecbdb43, 0xa5aee14c, 0x464d8acb, 0x55cc1fec, 0x5a5db55b, 0xc4c4dbdd, 0xc4b51685, 0x49a38eee, 0xcd644dca, 0x4ceecc3c, 0x34ddc5, 0xcc4a4322, 0x55c338e5, 0xbdbe3c56, 0x3bee5d46, 0x358d9044, 0x95c45cb2, 0xbabc411d, 0x5d8894d1, 0xeebdee5a, 0xec5e4dad, 0xdd64cd14, 0xc8de4b69, 0x3bae4452, 0xc4e5345b, 0xcbb19e45, 0x2c4c495d, 0xa442d3b4, 0x1d54b45e, 0x6dbd5449, 0x4c5dfbdd, 0xcc5545e4, 0xc43e34c5, 0xcca0de8, 0xdaab5b35, 0x334b2e34, 0xe4359344, 0xdc554335, 0xbc35bbd5, 0xceee5ebb, 0x34d562dd, 0xdcb5d19c, 0xddaac32c, 0x423c4534, 0xb23db3ec, 0x4b5cddb3, 0x8e5ccd4b, 0xd61555d4, 0x45c4ca4a, 0xca5543ed, 0xd4ecac44, 0xde905dbd, 0x43dc1d43};
//first channel is topmost bit

// Layer: L4
// Quantization type: 4bitlog
uint32_t L4_bitperweight = 20;
uint32_t L4_incoming_weights = 64;
uint32_t L4_outgoing_weights = 10;
uint32_t L4_weights[] = {0xda4ddadb, 0xddbdb4de, 0xded545c4, 0xd1c35ddc, 0xddd1c9a5, 0xcc24d865, 0xedc0aedd, 0xa0ddc5c9, 0x5dcddddd, 0xcd05d45d, 0xc4baed4d, 0xd5ccbc5c, 0xd56dc52d, 0xc39dd64e, 0xc4c4c4db, 0xd534ae4e, 0x54dcde3d, 0x55addcb5, 0x554c4455, 0x4adddd43, 0xd428edd4, 0x5cbbcdcd, 0xd4cdbdcd, 0x3cdd5c5d, 0xdcacd955, 0xd29addd4, 0xa35dcbcb, 0x55e515cd, 0x5dc4e41c, 0xac9bdbdd, 0xbc48c3cd, 0x61d55d3c, 0xd4549ecd, 0x2d845c54, 0xbdde5b4d, 0xbe1cabd0, 0xc4dd6ccd, 0xdc4cbd4d, 0x4ddb5c5d, 0x455cdddd, 0xcd9c45dc, 0x4d254ad0, 0xeddcdcdb, 0xb543d5cd, 0xd4d5cc42, 0x4e401ddb, 0xd34ddddc, 0xbcddd306, 0x2d5ec3bc, 0xcda3dc2e, 0xdced24cd, 0xcc5cdece, 0xe45c44cd, 0xade56ddb, 0xe54c4db5, 0x2c9cc5d4, 0xbbb4ddcd, 0xc2b9cb3d, 0x5566ded4, 0xddc4d1b9, 0xabdcd8b5, 0xccdbeac5, 0x5bdcc46d, 0xa94cc2be, 0xd5a45c55, 0x450d52be, 0x3ddcc24b, 0x3ccd9dd5, 0x4bc9b35d, 0x45ecacda, 0xdb45dac4, 0xbcdcbce0, 0xd3d41bbd, 0x5eab1cb5, 0xd3deaccb, 0x2d5c51a5, 0x5ee3decc, 0xe54c0bb5, 0x4cd355ce, 0xea34c5cb};
//first channel is topmost bit

