// Automatically generated header file
// Date: 2024-04-16 14:50:23.797392
// Quantized model exported from a21_Opt12k_cos_mixed_Aug_BitMnist_PerTensor_4bitlog_RMS_width64_64_64_lr0.001_decay0.1_stepsize10_bs128_epochs60.pth
// Generated by exportquant.py

#include <stdint.h>

// Layer: L1
// Quantization type: 4bitlog
uint32_t L1_bitperweight = 20;
uint32_t L1_incoming_weights = 256;
uint32_t L1_outgoing_weights = 64;
uint32_t L1_weights[] = {0x33a09903, 0x10a11aa2, 0x80291824, 0x4438b032, 0x83a82234, 0x4242c93a, 0x338baac8, 0x233ca1a2, 0x99033ab3, 0x283cc999, 0x30234344, 0x4cbbba88, 0x1ab23344, 0x5bdbca0b, 0x12033024, 0x5cedccbb, 0x934439b3, 0x4ceddcb8, 0x344444ba, 0x4dfdddcc, 0x344338c9, 0xbeedcdcc, 0x2338bcb9, 0x21ccccc9, 0x821199a, 0x213bccbb, 0x3188320a, 0x8b4ccb99, 0x88a83339, 0x2223ba82, 0x88a90ab2, 0x2432b839, 0x32339030, 0x34342242, 0x3331b1b3, 0x44544333, 0x342acddc, 0xca234133, 0x8acddee, 0xeeddbaba, 0x8b1445ad, 0xeedca2b9, 0x18444566, 0x6548138a, 0xa0233555, 0x65530030, 0x2ccabddd, 0xd0923440, 0x2bc09aab, 0xc8232481, 0x21a28a0b, 0xa8322ab9, 0x3922a890, 0x2ba28bb3, 0x423b1111, 0x301bbbb3, 0x4029a0a2, 0x9a0a1a20, 0x33331028, 0xa3aaaa14, 0x2330bccc, 0xa2a28434, 0x333812a2, 0x9221123, 0x3231a1cb, 0xcbcb1333, 0x38999cdd, 0xdddcca22, 0xbccde, 0xeededbaa, 0x201ab343, 0x3acdddcb, 0x22015555, 0x554acddc, 0x2202419b, 0x345449dc, 0x12a0bccc, 0xda45449b, 0x23a10830, 0xbbb44542, 0x33bbb42b, 0xbbb14443, 0x4443b9b2, 0x1bc04553, 0x44322bc8, 0xacc34444, 0x4333424a, 0xd2444322, 0x43842332, 0x4430bb13, 0x130bcbb8, 0x810bcb94, 0x4332b0ba, 0xbcc29343, 0x12143323, 0x10b14324, 0x3214249d, 0xdc344232, 0x341344ce, 0xeb544333, 0x233355df, 0xe56548b2, 0x3b356df, 0x1642acc0, 0xacb56bf, 0x46bccdc9, 0xbdc260e, 0x55ccc492, 0x28abc58d, 0x42d13422, 0x281ab328, 0x88a44443, 0x2bba829, 0x2a21ab28, 0x80112991, 0xa89a8980, 0x8292a082, 0xa0a02804, 0x9a838122, 0xa1a02133, 0x8aaaa098, 0x10a92322, 0x31aaac01, 0xb110832, 0x291091aa, 0x281b8333, 0x33820a42, 0xb898a183, 0x34333324, 0x33420432, 0x34421811, 0x123a2333, 0x22431841, 0x32203893, 0x338b8329, 0x32aa1ab8, 0x33bb8238, 0x848b30c8, 0x398b832b, 0x43cc9cc0, 0x381ba23b, 0x348cccba, 0x403b381c, 0x355cddcb, 0x224218cd, 0x465dedc0, 0x2833432a, 0x56dfecca, 0xb234532, 0x3dfebbb2, 0xa009a210, 0xcdb24220, 0x8020438c, 0xc0535412, 0x13a322ba, 0x11314434, 0x23442b2a, 0xaab92433, 0x3413a138, 0xacbb8244, 0xcccdcccc, 0xbcbccbcb, 0xcdccbca8, 0xb9bbbcb, 0xccb9b333, 0x9992babc, 0xcc912938, 0x898aaabc, 0xbc8380ba, 0x99cb0bbc, 0xc9299a81, 0xba99a9a8, 0xc8a20a83, 0x8bba2abb, 0xb9a21abb, 0xb9083aab, 0xcbbbab82, 0x33aa1ba9, 0xb8bb8ab3, 0x2bbb1a2b, 0xb19a92c2, 0xccc20448, 0x331acde, 0xecb34549, 0x93442a9c, 0x2455543b, 0xa4456667, 0x665549bb, 0xc3455666, 0x65541bbc, 0xcc919a39, 0x93bcccdc, 0x2223811, 0x32333321, 0x31301b22, 0x33321334, 0x14343438, 0xa9103333, 0x23433433, 0x24932292, 0x34439328, 0x3132aba3, 0x13454455, 0x432bb8b2, 0x803565bd, 0xc8ba3ca2, 0xcddefffd, 0x1a0a1043, 0xdeefed55, 0x33438324, 0xcdd15653, 0x23334422, 0x2a34441a, 0xbbab981, 0x80333bab, 0xaaaac8c3, 0x32339113, 0x3998b822, 0x29831239, 0x18bb1301, 0x329a029b, 0xb32a9233, 0x212b89b3, 0x29332413, 0x22210083, 0x34434221, 0x33388332, 0x33424132, 0x21183042, 0x88333aa0, 0xaaa3320, 0xb9cbcccb, 0x3abcb122, 0xccdddccb, 0x8bbcb344, 0x45554448, 0x10cc8138, 0xd4666655, 0xabbaaab, 0xdeea4555, 0x20baa234, 0x3cddcb34, 0x30bbc244, 0x42accbbc, 0x33bcc23, 0x3acccccc, 0x84319a90, 0x3acccccc, 0x94a33123, 0xb02cccca, 0x2233324, 0x29dddcbb, 0x382233a, 0xbdddcb82, 0x93224138, 0xbddc0a93, 0x3092abcb, 0xb9803323, 0x3223bccb, 0xb99b0932, 0x334431ac, 0xa3119a22, 0x94565538, 0xcb99b801, 0x23565666, 0x53922800, 0xab228adc, 0x3422ba22, 0xcdefffed, 0xc9130043, 0xceedb454, 0x30031334, 0xbc156642, 0x81293344, 0x14443bbc, 0x8220123, 0x333bb9ba, 0x1992a31, 0x12893233, 0x9abbbc09, 0x30b9ba2, 0x990a0b9a, 0x11bb1a09, 0xa0bb0233, 0x383a1338, 0xa0882102, 0x338b28b8, 0xb8223022, 0x19a88a9b, 0xcbbaa812, 0x3a99babc, 0x9a89aaaa, 0x8a9ba89c, 0xacba2b39, 0x18cc090b, 0x92403b20, 0x2bcbbc00, 0xa8b12022, 0xabdbba2b, 0x9a02332a, 0x8cdbcbcb, 0xbccb9bcd, 0xaccdcddd, 0xdddddedd, 0x220291bd, 0xddeeeeed, 0x45555554, 0x44aabcca, 0x54554455, 0x66555545, 0x34420313, 0x55666655, 0x3338abcc, 0xc8455654, 0x81889938, 0xdcc03244, 0x119b2042, 0x9accba33, 0x3312208a, 0x99ab0132, 0x98344544, 0x44222933, 0x33444400, 0x88913033, 0x143209cb, 0x88291313, 0x3a23331b, 0x8022810b, 0x181330b, 0x23820982, 0x99a98381, 0x33b19a8, 0xb89420a8, 0x93283332, 0x2190bab2, 0x12b1a3a2, 0x3482c033, 0xb22aa343, 0x38320344, 0x23311139, 0xbcc35655, 0x5430133b, 0xbdeed053, 0xbcbba8ab, 0xbdeeffff, 0xedcc212b, 0x9bcdeeeb, 0x33aab008, 0x32234555, 0x41c1b201, 0x32455554, 0x34333011, 0x32a32a98, 0x2aabab13, 0x3892bccc, 0xbbaccba2, 0xa2babbcb, 0xaca9abbb, 0xa2b3a8c8, 0x11bc29ab, 0xa1a18acb, 0x91bb3409, 0xa39cbbbb, 0xa2ba3430, 0x3a9cbbac, 0xdd034454, 0xbb9bbdcd, 0xd5554553, 0xbccc21ae, 0x6554443, 0xbcddcdde, 0x56442033, 0xccccccde, 0x5655233a, 0xcccabccd, 0x25544443, 0xbcc2399c, 0xb4455423, 0xbab210cc, 0x84444443, 0x9a2322ab, 0x18544442, 0xa329b1, 0x33432133, 0xa89aa09b, 0x3213298, 0x221098a9, 0xa0022383, 0xabaa3a1a, 0x8b901292, 0x22ab2299, 0xa2033323, 0x91bc0b9b, 0xbb0b0b2, 0x1a222934, 0x2222b2b8, 0x32332ab8, 0xb33213bc, 0x39331b33, 0xc943abab, 0xa8bcb354, 0xca33b121, 0xa103455c, 0xe84b0213, 0x234456df, 0xe5388288, 0x2445bff, 0xb5489190, 0x34332eec, 0x45430bba, 0x2ba8ced8, 0x45548b80, 0xaccddba, 0x4453aa8, 0xa0bbcb0b, 0x12433930, 0x444432b9, 0x34332234, 0x43442cda, 0x4530ab33, 0x4444cde3, 0x444bbbb3, 0x3443bed5, 0x433cacc0, 0x4444bec5, 0x5bb80bb3, 0x442bcec5, 0x4c21aa89, 0x2328cd46, 0xbd411320, 0x4324db55, 0xdc4ab214, 0x233bb354, 0xe848a882, 0x2acdb24b, 0xd94acc03, 0x2bcdb440, 0xdb9a0024, 0x32bbb444, 0x2bb22433, 0x30cdc923, 0x31923332, 0x38acba40, 0x34443213, 0x420bb238, 0x3248382, 0x43092aba, 0x99323234, 0x928aaab, 0xab8ba2bb, 0x180bac9b, 0x8081981a, 0x9000aa0b, 0x22aa023b, 0x109a3891, 0xb23338, 0xbaa34383, 0x810aab88, 0x2a232101, 0x2babbcab, 0xa891bb14, 0x802ab982, 0x9ba4323a, 0xb0bcc03b, 0xcc94552c, 0xccbb8440, 0xcccdb58d, 0xc9a23333, 0xbcdeeffd, 0x4344131, 0x1cdddc5, 0x55330383, 0x35555666, 0x53baa208, 0x94665654, 0x3bcaa232, 0xb2135433, 0xbbbb000a, 0xbb022839, 0xabcb81b8, 0x282bbccd, 0xccba8222, 0x80acddee, 0xddddba32, 0xabcdeedd, 0xdddc9bb1, 0x9bddda8d, 0x833a2a32, 0xabcc1433, 0x55520323, 0x98b25544, 0x54333823, 0x8434450b, 0xb2a93119, 0x3441433b, 0x248a0bc1, 0x23323b02, 0xcbbacccb, 0x8b28ccbc, 0xcab2caca, 0xbcccba8b, 0xb3232b20, 0xbbcbaa20, 0xaba32033, 0xa8b8bccc, 0x10894454, 0x1babbba2, 0x2a134544, 0x29123344, 0x44354444, 0x22345555, 0x54434342, 0x989abb91, 0x33448b, 0xa9bbb98a, 0x43444433, 0x98aa333a, 0x34444542, 0xbb099343, 0x33a33449, 0xbbb94443, 0x32223422, 0x1ac253a3, 0x4431042b, 0xb90bcb0, 0x333b1bbc, 0xcbba8245, 0x4acdcddc, 0xccdc3305, 0x4ccddeec, 0xacccddda, 0x3accccdc, 0xbb13dddc, 0x934443aa, 0x1a233244, 0x45555542, 0x2ab8292a, 0xa8555542, 0x2ac9bcb, 0x4454533, 0xa1abc9bb, 0x20334320, 0x89aba09c, 0xcbb03220, 0xaa919029, 0xccccbb92, 0x9238330b, 0x29bbb9b3, 0x2032322, 0x1333bbb2, 0x89abcbbc, 0x34330b92, 0x999bcbbc, 0x34344ab9, 0x890aa09c, 0xbb3540b9, 0xbcba3ce, 0xc4554adb, 0x8bcbccdc, 0x5655cdcc, 0x1ccbccc4, 0x55bddcaa, 0x1bb98034, 0xcdcba29, 0x31319022, 0xddc91132, 0x43331bba, 0xb2ba3243, 0x44333bb4, 0x539bb318, 0x23431bb3, 0x23432432, 0x343433b8, 0x4343289, 0x223432ac, 0xb0a221a2, 0xccccbaac, 0xbcbcbacb, 0xbcccbaaa, 0xaabcbabb, 0xbbbbaa1b, 0xbaaca0aa, 0xbbc9833b, 0x989b999a, 0xbb122028, 0x328a10ba, 0xcbbcac90, 0xa2393230, 0xc9cccdcb, 0x43334350, 0xa3abcddd, 0xdc134540, 0x344443ad, 0xeedb23bb, 0x45444443, 0xdededeed, 0x44122354, 0xcdeeeeed, 0x44334356, 0x53cedecb, 0x34442435, 0x56549430, 0x14321224, 0x56566651, 0xa33833a4, 0x5566654a, 0x9b101223, 0x2355541b, 0x43344445, 0x42233334, 0x33454444, 0x44023444, 0x44443232, 0x33303421, 0x44430294, 0x33333023, 0x33322a34, 0x43989b31, 0x40834944, 0x43b43b01, 0x43444548, 0xb2138c34, 0x4555549c, 0x330ba333, 0x45343cd3, 0x4ba01121, 0x3330bcb4, 0x30450cca, 0x2bbcdc25, 0x5454addc, 0x8bab8b32, 0xcdeeeeec, 0xaa9a2aad, 0xeeeeeedb, 0x28c2acde, 0xdddddcc3, 0x32492cdc, 0xdb8bb824, 0x22220ccc, 0xccb83133, 0xabb00a08, 0xaa233220, 0x9b9a223, 0xbcba322a, 0xbb023123, 0x9a2b3328, 0xa0882a20, 0xacc02222, 0x11c12232, 0x42b23ab3, 0x23ba80a1, 0xb49b1933, 0x44132aa9, 0x980232, 0x24454ac2, 0xbb18882a, 0x8a98ceb4, 0x8a9b188b, 0xccdeec56, 0xbb8bb199, 0xcddd3664, 0xe2413342, 0xcdc2366c, 0xe3333344, 0xa832454c, 0xedcb3444, 0x93244454, 0xcddcbbc0, 0xa455554, 0x9cdccb91, 0x11333454, 0x8083bb8b, 0x2baa9cc9, 0x92a13a82, 0xbb01cddd, 0xaabca838, 0x28a2bded, 0xaaccb801, 0xaa81cee, 0xdbcdda3a, 0x923aabee, 0xebddc30b, 0xa102a4be, 0xeeec3320, 0x333454b, 0xddb4b02b, 0x12424445, 0x54442922, 0x8348baa2, 0x420a899, 0xaa0a023a, 0xb2bab039, 0xb2a0443, 0x33122920, 0xa920ba28, 0x33544433, 0xaa2333b0, 0xb2431422, 0x81282980, 0x11b13383, 0x99bc2023, 0x804238, 0xab922333, 0x33243312, 0x93333489, 0x32122243, 0x32323434, 0x33230143, 0x20334492, 0x44453230, 0x88133211, 0x30332424, 0xab2423b, 0xcb932334, 0x8bc44443, 0x33a13444, 0xbcccb456, 0x655443b3, 0xacddddb5, 0x654438bb, 0xbbbbdefe, 0xd4481aab, 0xa23332df, 0xeca80aab, 0xa92a4449, 0xdca9942b, 0xcccca9a3, 0x9ca3239c, 0xacccbbab, 0xbcca1b9a, 0x2abbbca1, 0x80acbac0, 0x318222b, 0xbb82ab1, 0x32910b1b, 0xac9acaa2, 0x113112ba, 0x354a3240, 0x32441ced, 0x559dc203, 0x1342beec, 0x55dec043, 0x24543de1, 0x64ed4553, 0x44555dea, 0x59d35543, 0x444564e9, 0x5cc55a91, 0x433455ca, 0x3b34cdd9, 0x32cc93aa, 0x83bcdc8, 0xbcb03b2, 0x3b9b842a, 0x89ab3bc3, 0x42845533, 0x292b1, 0x39a9b8a8, 0x3338a1b1, 0x1a8cccb9, 0x182099ab, 0x323019b8, 0x8aaba23a, 0x2a332312, 0x3a9cbaac, 0x392b2322, 0x333ab011, 0x8aac0282, 0xccccdcdc, 0xccccbcdc, 0xcccdddcc, 0xcba20ccc, 0xccddccbc, 0x92b2a2bc, 0xcccbb340, 0x2b3033ab, 0xcca93099, 0xb0ba03bc, 0xca0a1bab, 0x12b9bbbb, 0xb1a903bd, 0xc2880aaa, 0xa834444d, 0xeb344422, 0xb3344563, 0xcccc4444, 0xcccb3564, 0xbdcd3454, 0xb0dddb45, 0x43cdb354, 0x34acca3, 0x4bcd1554, 0x355432bc, 0x2c135553, 0x24554443, 0x455554b, 0xb4434432, 0x155542bc, 0xbba24445, 0x55302ccc, 0x2322081a, 0x9ba23413, 0x3111bbcc, 0xbcca1333, 0x13bbddb8, 0x129ab044, 0x22bddc34, 0x332bba33, 0xa8bced42, 0x12123441, 0x18bced53, 0xbc214453, 0x8bccee33, 0xbccb3555, 0xaccdeeb4, 0x44944555, 0x8b3beed5, 0x54454455, 0x24554dd3, 0x43429b44, 0x344541dd, 0xb3aabdc9, 0x42334ac, 0xca9cccc0, 0x82021453, 0x22b8bba, 0x3aa04332, 0x31a83828, 0x12bccbbb, 0xa8339811, 0x3332aa32, 0x23438883, 0x8a8bcca4, 0x44433991, 0xbbbcdb45, 0x4443203a, 0x9bddb555, 0x44ab1aaa, 0xacdd3555, 0x3aaba2a0, 0xccdc4564, 0xccbcb323, 0xacd2465e, 0xdabcb088, 0xbaca45de, 0x14ccb930, 0xaabd44cd, 0x82cbbb93, 0x138d84bb, 0xbb23b991, 0xa20babbb, 0xb233bb2a, 0x9baa140b, 0xb01a0338, 0xab183113, 0x19b23343, 0x8a3328b3, 0x9b092238, 0xaaaa12b2, 0x800028ab, 0xa991201a, 0x14a89b22, 0xb1abbba8, 0x9ba98a2b, 0x22323321, 0x20110831, 0x33329a9a, 0xaba12313, 0x232a9bb2, 0x81a3b982, 0x31cbbcb0, 0xba309203, 0x38aa8242, 0x13221ba1, 0x3044552d, 0xc8a2b438, 0x83455efd, 0x51332393, 0x2231ffc5, 0x59ab1330, 0x222deb56, 0x4a8a2380, 0x320deb55, 0x43432120, 0x332cdedd, 0xb2333ab8, 0x334338dc, 0xcb413b92, 0x32334344, 0x38b22c20, 0x333222bb, 0xabacbb23, 0x221a830b, 0xa0c9ba23, 0x43211a20, 0x919a8310, 0x13299228, 0x22130330, 0x22311830, 0xab123833, 0x2290aaa3, 0x1b021a08, 0x23828a02, 0xac2839a3, 0x23121390, 0xcb230819, 0x2a022bb4, 0x9928ba18, 0x18b2bb9, 0x982a3912, 0x91088bbb, 0x820aba42, 0xa981333b, 0x420a9934, 0x802321d2, 0x50c02223, 0x91430dd6, 0x6cc23343, 0x9bbcde26, 0x59dcba33, 0xccdddc44, 0x54cddcb2, 0xbcddc025, 0x55addcb3, 0x99cc2135, 0x654bcc98, 0x83202454, 0x55599a82, 0x1333bbcb, 0xa9b34434, 0x33a0bc93, 0x44555433, 0x90bb3a3, 0x55565382, 0x399a9345, 0x543acdc8, 0x33434348, 0xdeefeeec, 0x32343ccd, 0xdddddedd, 0x32accc, 0xcb3452bb, 0xab1bbc22, 0x45454444, 0xbbba9c12, 0x43444244, 0x1bb81aba, 0x82282944, 0xb8183b00, 0xb2acac21, 0xaa9b1333, 0x4422aa0a, 0xb8ab208, 0x3102ac0a, 0x319b930a, 0xbaacccba, 0x203343a, 0xcaabca13, 0x43134332, 0x800a332, 0x23133308, 0x23343343, 0x30202918, 0xababa843, 0x23213808, 0x288abb28, 0x28833233, 0x12029acb, 0x339c88a9, 0xa1aa38bb, 0x3aa12212, 0xa22b3180, 0x8ca83333, 0xaa9aba20, 0xadec5542, 0xa88820ab, 0x2deffd84, 0xa1b10bb, 0x44adeffe, 0xca89a900, 0x55666651, 0x11221899, 0x45666665, 0x323810b2, 0x224133cc, 0x234ab02, 0xacccccb, 0x133bca34, 0x1acccc8, 0x18aa8202, 0x282a9b13, 0x43090323, 0x54444300, 0x823445, 0x5443accb, 0xb9333454, 0x542bbbb9, 0x31322334, 0x530acb0b, 0x8a232444, 0x43bccccc, 0x14544532, 0x43bcbac3, 0x55333444, 0x42bc8145, 0x54bbb884, 0x30bb4443, 0x48cddca3, 0x43933448, 0x8bccddb3, 0x4280393a, 0x244bed93, 0x43210a18, 0x354dec14, 0x53a54545, 0x440edb34, 0x44154544, 0x43cdd844, 0x430bc333, 0x8accb844, 0x543ab2c8, 0xa9434444, 0x55433335, 0x35545444, 0x2133a001, 0xa0231331, 0x328cbbb, 0xbb323302, 0x2acccca, 0xca234431, 0x918cbb04, 0xba934990, 0x33403823, 0xa23a090, 0x2442bca3, 0xbb01c1bb, 0x4555345a, 0xcba8babb, 0x445566ce, 0xb22abb2, 0x3553efb, 0x5a9b8224, 0xbcddffd5, 0x5b838344, 0xcdeee065, 0x2a041355, 0xccdca043, 0x24443244, 0xaba29a22, 0x44431233, 0x30329804, 0x4220bb82, 0x98220a12, 0x9b2ab9a9, 0x338340b2, 0x9aa98809, 0x1a901bbb, 0xcc330292, 0xa81cbccd, 0xddb543aa, 0x9abcbca9, 0xcec55588, 0xaabbbbd4, 0xbec55481, 0xbbcacc3, 0xde454a22, 0xbaccccb4, 0xed542a12, 0x8acddded, 0xe558b222, 0x1280ddcb, 0xa54819a3, 0x4454444b, 0xa4334893, 0x45545431, 0x8bb9bbb9, 0x4444490b, 0xab83082b, 0x33322553, 0x4334122b, 0x2331a031, 0x343323a8, 0xaa8bb12a, 0x3a9b01a, 0xbaab3, 0x2822a0ba, 0xba9b81, 0x92328a02, 0x33431bcd, 0xba8a1003, 0x44339ced, 0xc3433343, 0x3344beee, 0x84552444, 0x3543cefb, 0x54544554, 0x4454cef4, 0x63333084, 0x4430bef3, 0x540dcdc9, 0x34252ee2, 0x52bbbcca, 0x43355bd2, 0x3b823bba, 0x214454bb, 0x8a8b3289, 0xb89440ba, 0x8b333488, 0xb818182a, 0x12182900, 0x9333aba2, 0x98222a99, 0xaa9a88b8, 0x190239a8, 0x290a29bb, 0x8ba2b013, 0x408321a8, 0x82aaa33, 0x31112bbb, 0xbb0b8831, 0x23210444, 0x44443422, 0x3283334, 0x44444421, 0x28134343, 0x14444344, 0x8391310b, 0xbba03344, 0x99a832ac, 0xaba90044, 0x33ca8290, 0x923332, 0xa883143a, 0x80b19234, 0x9883b342, 0xb0a42823, 0x28921a34, 0x29bbbb23, 0x3408bb30, 0x8cccb054, 0x3122a23a, 0xbba10343, 0xaa043444, 0x4554441a, 0x9cdb2355, 0x555418bb, 0xbcddccaa, 0x1cbdddca, 0x8ceeeee, 0xeeeedcba, 0x331ccdee, 0xeeedcb1a, 0xbbcccabc, 0xbab30bbb, 0xbbc03542, 0x3223300b, 0xcb355555, 0x5555543b, 0xa0456655, 0x66654548, 0xb355543c, 0xbcb21b20, 0x14540bcd, 0xddb32cc9, 0x133bcb34, 0x420a2ccb, 0xa81cba09, 0xbbccbcbc, 0xbb9b989c, 0xcccccbbb, 0xccb9c9a3, 0xa1b9bcbc, 0xbbb1ba80, 0xb434bbcb, 0xbcb81988, 0x8aa2989a, 0xccdc9a2a, 0x1919ba9c, 0xcbcba343, 0x4982bbab, 0xcbbba30a, 0x3238ccbc, 0xcbbb88cb, 0xa89bcbbc, 0xcbbbbb45, 0x5544accb, 0xbbccba03, 0x566550bc, 0xcccdcddc, 0xd566543a, 0xccdccccd, 0xc8466540, 0xbcddbccc, 0xdc356549, 0xbccba9ab, 0xdcd06553, 0x23443200, 0xaccc4653, 0x440889a, 0xbbb24454, 0x888b9208, 0xaba33244, 0xba3020ba, 0xbb881a34, 0xa12831bb, 0xac20b808, 0xb34100b2, 0x981bba88, 0xb923299b, 0xca9a2b8b, 0xbca1230a, 0xbc033bc, 0xcccc82aa, 0xab3120bb, 0xcccbb8bb, 0xbb89babb, 0x43423a2a, 0xb8ab2323, 0x2333388a, 0xaabbca23, 0x23342998, 0x2ccdcba3, 0x3433a29b, 0xb3bbcdca, 0x440100cb, 0x142ccddb, 0x331b0aa8, 0x21bbcedc, 0x42328bcc, 0xc0342dec, 0x302b8bc0, 0x43453ddc, 0x22bb1324, 0x8c554ddd, 0x41bb3458, 0xe954bddb, 0x43bc221c, 0xc550bcca, 0x43bcc1a3, 0x5543cdb0, 0x241cbba3, 0x421aba13, 0x2433a242, 0xb8904243, 0x4455443b, 0x9a244234, 0x233332c8, 0x2444334, 0x32232442, 0xccc93334, 0x3323444c, 0xeec04312, 0x33343552, 0xfe245413, 0x33134462, 0xfd5553a0, 0x33349469, 0xf4543bca, 0x43810261, 0xe543acc9, 0x33aa295b, 0xd43bccb0, 0x18a394b, 0xb18abb22, 0x29a2a902, 0xac219300, 0x2b80aa32, 0x3b323338, 0x9bb3332, 0x392b3228, 0x3291ab23, 0x80913cb8, 0xab10aa9, 0x3091ba1, 0x821b0ab0, 0x3089ac99, 0x10a330b3, 0x811a0029, 0x123a92aa, 0xbb331283, 0xa9291299, 0x3a098232, 0x82982333, 0x24222432, 0x2ab89304, 0x403ba839, 0x2ab02355, 0x42344443, 0x8bc21455, 0x55656654, 0xacc88255, 0x55545565, 0xacccddc1, 0x44b92444, 0xbbbbdedc, 0xcd1802c3, 0xaa32bdcd, 0xddcb9adc, 0x34130abc, 0xccddcbdc, 0x843a880b, 0x3bc9adc, 0xa1ba2084, 0x2823adcd, 0x21b83349, 0xbbbdcddb, 0x21381c9b, 0xbcccddcc, 0xaa9bcbba, 0xaccccbcb, 0x12bbbbcc, 0xcccccaba, 0x330322a8, 0xbaaba904, 0x3309abba, 0xbdddcc92, 0x23addddd, 0xdeeddcb1, 0x30adeeed, 0xdddccccb, 0x1bacdeee, 0xeccccbcb, 0x3ca2cddd, 0xa443300a, 0x89433345, 0x55343342, 0x911cb344, 0x43244344, 0x8228018c, 0xcbb43443, 0x84420cd, 0xcbb33449, 0x2a0b932a, 0xba9b2139, 0x29229344, 0x21a80813, 0x24332011, 0xab144234, 0x33433230, 0x1442444, 0x14444443, 0x34534543, 0x33345444, 0x44444433, 0x33099a1b, 0x9a9b9b33, 0x2802a233, 0x38bcb323, 0x1aa923c, 0xbbb34454, 0x31bb9231, 0x45565554, 0x8bc80ab, 0x23554508, 0xbabc9abb, 0xdeffeedc, 0x91aa8345, 0x554ceeed, 0xa2b220ab, 0x345654bc, 0x3120131c, 0xcb244431, 0x282bbb33, 0x8293344, 0x3102a921, 0x88000234, 0x9332b908, 0x30bb9b33, 0x18233833, 0x22a31b33, 0x3232a1ac, 0x2818aa38, 0x3303829a, 0xa21a813, 0x20132332, 0x32990332, 0xbb83331a, 0xa9a9abbb, 0xb203449a, 0xaa8ccacb, 0x23344cb2, 0x300bcb8a, 0xa4554c33, 0xaa91ba2b, 0x44554b12, 0xcc32bbaa, 0x45554933, 0xa82b9930, 0x35544448, 0xba2c23ab, 0x3555651d, 0xca2902bb, 0x244454cc, 0xccab3883, 0x24544dcc, 0xbbcd3231, 0x45454c92, 0x3cb9838b, 0x35543209, 0x12118bcc, 0x824391b2, 0x49dccddc, 0xababdcdb, 0xbdeccdca, 0xbccddddc, 0xcddcbccc, 0xbcbccdcb, 0x88bcbabb, 0xccc988cb, 0xcbbbbccb, 0xbcb292a9, 0xa830aaab, 0xb003429b, 0x9188291a, 0xba344533, 0x43a92bab, 0xb2345542, 0x344232b8, 0xc14455cc, 0xa3220a1b, 0xb83443cb, 0x54443389, 0xcb233325, 0x55444328, 0xbccc3244, 0x444bbb2b, 0xcccc9455, 0x319cbbca, 0xbabaa354, 0xabdddccc, 0xa40ccbcc, 0xdcddcccb, 0x2330ab9c, 0xccbbbccb, 0xa2434200, 0x89a9accc, 0xba143343, 0x99abcccc, 0xbbb1b8ab, 0xbccccccc, 0x33312445, 0x55443333, 0x43821145, 0x54334332, 0x332cc055, 0x4ca33232, 0x21ccb345, 0xacb93892, 0x22cba244, 0xcdbcb829, 0x2bcccc55, 0xba003a19, 0x22abbc45, 0x44433343, 0x29aa3455, 0x34454444, 0x1b334544, 0x24444343, 0x8ba03348, 0x33453142, 0xbcccbb9c, 0x3444921a, 0xbcdcccdb, 0x82bbbbcc, 0xcccdcddd, 0xddddddcb, 0xbdbccbc, 0xcddccdaa, 0x2abbbb8c, 0xbcdc1b02, 0x829b9bab, 0xbbca0318, 0x9333455, 0x48dcba11, 0x31845555, 0x3dedcb33, 0x38356552, 0xdeec92a3, 0x805554bd, 0xee903124, 0x214552ee, 0xe9424444, 0x23424bed, 0x25433444, 0x100a4ceb, 0x54302a30, 0xaabb30a4, 0x4bbbcbb2, 0x99bc9420, 0x2b20bccb, 0xabacb33b, 0xb349abcb, 0xbb2b3432, 0xbb3b99cb, 0x98b9a332, 0x94abcbba, 0xb1bc2322, 0x2b8b92b9, 0xaa9a8332, 0x218b3199, 0x92abb283, 0x13303430, 0x3a1abba2, 0x34433083, 0x4342233c, 0xccc11443, 0x334230ad, 0xeecc2434, 0x343241ba, 0xdeeda223, 0x34a80342, 0xbdedb014, 0x43294334, 0x3deedb23, 0x33282022, 0x42cfedb3, 0x43343bb4, 0x554dedc0, 0x443322c9, 0x454cdca9, 0x43bbbbcc, 0x143bccbb, 0x32bcbba9, 0x328bb8ba, 0x421a0322, 0x22314013, 0x333a312a, 0x24432143, 0x420803ac, 0x13284333, 0x34232821, 0x3a224344, 0x4323439b, 0xac349943, 0x33431133, 0x19323233, 0xacbbcba0, 0x1cbbcacc, 0xbabbb342, 0x8abbba99, 0xbcbaa301, 0x39a943bb, 0xbaba1a81, 0x33493b98, 0xabbb0a43, 0xb33a9b22, 0xbabba132, 0xab881833, 0xcbca3943, 0xc392224, 0xc8bc3451, 0xc2100281, 0xa421455d, 0xd3cc8aa8, 0x244456de, 0xccbcbccb, 0x455556ed, 0xbcbbb8ca, 0x355555ab, 0xbbc00ccc, 0x5555428, 0xb3cb8ccd, 0x355553b, 0x3bbbbcdc, 0xb1145423, 0xcbbbcccc, 0xbbb83544, 0x22a1abcc, 0xcccdcccb, 0xc1abcbcc, 0xcccb0aba, 0xba28cccc, 0xcb8549cb, 0x2180bbc, 0xcc455332, 0xb8902bbc, 0xcb555393, 0x4bcaacbc, 0xa45658c3, 0xcacca0c, 0x4556ceb, 0x3bccc0bb, 0x5566eeb, 0x4bbbabcc, 0x35556de0, 0x4bb9cccb, 0x5455cca, 0x2cb8cacc, 0x3445402c, 0xca9aab3b, 0xa4353441, 0xc880032a, 0xb424321b, 0x8820b53a, 0xb1434231, 0x2244442b, 0xcb234439, 0x83a44acb, 0xcccbbba8, 0xb0020bcd, 0xbb9a1b0b, 0xc19ba9ab, 0x8ba201bb, 0xba8baa8b, 0xab83411b, 0x948aba2a, 0xab881ab, 0x80a1122b, 0xbabaa1b9, 0x143449bb, 0xccb8129c, 0xc9824233, 0xcba8a3ab, 0xbcd35434, 0xaa3420cb, 0x1de25444, 0xab4332b4, 0x5ee45554, 0xbb9b2a25, 0x4fe55543, 0xbbbcca44, 0xee56543a, 0xbcccd33c, 0xc4554433, 0xcbb1b301, 0x90434332, 0xca8018aa, 0xb88a1220, 0xbb11928a, 0xa9ba281, 0xb9b9980b, 0x8aaa80a1, 0xba28a0bb, 0xbbaaa2aa, 0x21130bbb, 0xcb8a21ba, 0x898aa09c, 0xd2392312, 0x8991b433, 0xbd34a232, 0x89bb9481, 0x8da43532, 0xbc022bb, 0xadc5543b, 0x901313a4, 0x9ec5553b, 0x89839b84, 0xde45650d, 0x8a30a2ab, 0xdc5654cd, 0xbb89b9bc, 0x85644cdc, 0xbaaba030, 0x453cddb8, 0x93429a8b, 0xabcbb324, 0x84400a08, 0xa9133444, 0x24b13933, 0x811b2343, 0x99232433, 0xaaacaa33, 0xabb0341a, 0xa9918a21, 0x32342300, 0x3333333, 0x243230bb, 0xbb13a343, 0x331280bb, 0xc3344344, 0x4434430b, 0xa883ab33, 0x4104442a, 0x32913333, 0x1ca43443, 0x230c2083, 0x2ab2955d, 0xd449bc91, 0x4bc9355f, 0xd40caab1, 0x2024554e, 0xc2ba93b8, 0x222444ce, 0xb323b9a2, 0x8c93254c, 0x24543a8b, 0xacca0b93, 0x444492ca, 0x2cdcdc34, 0x4331b2b9, 0x2addb302, 0x2333abb8, 0x2acc2343, 0xaa12cb91, 0x348b30b2, 0xbc21a944, 0x2332454, 0x3bcb0093, 0x83a23345, 0x42ccc9a2, 0x8aca21a4, 0x554ccdcb, 0x1ab9abb2, 0x4553bddb, 0x8bac9bcc, 0x16541cdc, 0x9a088bbd, 0xd565bded, 0xa813b98c, 0xdb652cdc, 0x39911b1a, 0xe9659cdb, 0x338300bc, 0xc454cdc1, 0x32201bbb, 0x9439cb90, 0x23b29a89, 0x342c3333, 0xb0139bb, 0xc9a32433, 0x229a30aa, 0xbb204433, 0x2933298, 0xbcaa2332, 0x844282b, 0xbbb9133, 0x33823328, 0x99a8b818, 0x8aabbbb0, 0xa013222b, 0xaacb8032, 0x24433221, 0x8bc034a, 0x342330a, 0x89b00933, 0x2b943108, 0x1cb29803, 0x3b822423, 0xabc91a44, 0xa4ab2432, 0x28ccb223, 0xa4b82124, 0x22bccdcb, 0x82030298, 0x8438cddd, 0xba444b1b, 0xba455555, 0x3855441b, 0xcdc93455, 0xb35544aa, 0xbddeeddd, 0xc55443b9, 0xacddcddc, 0x4544a2b9, 0x12845345, 0x550acbba, 0x12455554, 0x2a1acb9a, 0xa82308bb, 0xba1abbb8, 0xcbcccccc, 0xcbcccccc, 0xcccccccc, 0xa9cbcccc, 0xccccbba1, 0x329bcbbc, 0xbcb81cb1, 0x3423babc, 0xbb1b8ccd, 0xcbcb8bcd, 0xcb30abcc, 0xdcca8bdc, 0xb814ccba, 0xabcbabbc, 0xb333a1b3, 0x1bbb822a, 0xa3331134, 0x29345544, 0x24543433, 0x34355552, 0x94445444, 0x55555542, 0xb0455666, 0x6554443a, 0xcb144444, 0x2ab98a0a, 0xcb090420, 0xa20bc9bc, 0xcccbb999, 0x34abcbab, 0xccbbbbb0, 0xbcbbbcbc, 0x2aabbbbb, 0xb212432a, 0x281a01b, 0x282222aa, 0x223429ab, 0xba09a22a, 0x21444a22, 0x22033433, 0x1444a2ba, 0x92444330, 0x245443bb, 0x29212230, 0x3455554b, 0xa2494132, 0x22555554, 0x24343aab, 0xccb35565, 0x444421bb, 0xcdeeedc4, 0x32ac04bb, 0xbcdeeeee, 0xddcaab8a, 0xbbb8c22a, 0xbcccbc19, 0xb8455318, 0xabbaab1b, 0xb92309aa, 0xa9bbaaaa, 0x9a18ba9b, 0xa9bb32a9, 0xb99bbbbb, 0x122b8109, 0x30333430, 0xbddba230, 0x32234445, 0x3dedc213, 0x34434445, 0x4ceec032, 0x34312a55, 0x59eed334, 0x44abcc46, 0x5ceeb422, 0x43bacc35, 0x6efd5444, 0x4a1abba5, 0x5ee34413, 0x2b18abb4, 0x3db55333, 0x38218a94, 0xac352132, 0x2031a008, 0x9a11a293, 0x20239b93, 0x280ab311, 0xaa82321a, 0x830b8329, 0x992131ba, 0x8329b1a8, 0x213023a, 0xbb33a9bb, 0x21820a92, 0x88b198b2, 0x33312214, 0x323ab201, 0xbacdd, 0xcbba2a2b, 0xaaabdddd, 0xccab11a2, 0xbbacdedb, 0xb8224339, 0xaacdee22, 0xbc433343, 0x1acded44, 0xbbb22444, 0xbcded255, 0xcbcbb455, 0xbcddc455, 0xdcbb1245, 0xbddc4343, 0xccb02245, 0xccbb1801, 0xca123444, 0xba28ac80, 0x343a2303, 0xbbb43244, 0x429b9b24, 0xb1b13452, 0x9b0abb35, 0xbbb1a399, 0x82491454, 0x8a101312, 0x35444544, 0x1aaaa834, 0x33344542, 0x92213931, 0x33454239, 0xa0334431, 0x13a22892, 0x923438cb, 0x2cabb00, 0x32433acc, 0xcb8ccb10, 0x24444898, 0xa42cabba, 0x4555544c, 0xcccccdcb, 0x55655653, 0xcbcdddcb, 0x45545455, 0x8dddbddc, 0x343cda56, 0xcddaa80b, 0x1abc9155, 0xccc92a38, 0xacb45342, 0xcccb9332, 0xbab340ba, 0xdcb11133, 0x2bcbccb9, 0x8ccbbbab, 0x8abbcbc2, 0x4b8cccca, 0x23a8a280, 0x9b3bccaa, 0x44432aa, 0x2bc8cb21, 0x334540bb, 0x1bcbab11, 0x1b824442, 0x81028a98, 0x29456552, 0x1800301a, 0xa9356554, 0x33120212, 0xbab44565, 0x54382b92, 0xbdeedddc, 0x33423931, 0xceeffffe, 0xdc182130, 0xcdb13553, 0x80b91a38, 0x34556555, 0x40a2b938, 0x4443bab9, 0x92a21022, 0x44ccc8bc, 0xa80b0843, 0x20b038aa, 0xba9b1330, 0x22819b03, 0x9aacabb1, 0x221a09b, 0xa2a90999, 0xaca12912, 0x1ba33209, 0x19bcabca, 0x2233339a, 0xa0ba9a00, 0x14333320, 0x23313a2a, 0xaa9a3232, 0x4333abac, 0xabb22834, 0x220bb2bb, 0xb12acb82, 0x349ba9ac, 0x89bbca22, 0x42bb2333, 0x55565544, 0xbcab9ac, 0xc9556554, 0x32bababd, 0xefffeecc, 0x31bb8a04, 0x44ceeeed, 0x12299184, 0x45553cdd, 0x4320a324, 0x4334322b, 0x82093190, 0x14240098, 0x32ba3233, 0x8a230232, 0x30991333, 0x43319334, 0x3218ba33, 0x10bab833, 0x339ab8b2, 0xa9089143, 0x34332212, 0x34922334, 0x33333245, 0x4409bb21, 0x4308bb04, 0x554bcca2, 0x31abbbba, 0x4559ddc2, 0x22881ccc, 0x464aded1, 0x2a22a0cd, 0x465beec8, 0x2aa3b9bd, 0x465eee94, 0x2118a91c, 0x56dee344, 0x321418ac, 0x54dd4554, 0x33133a01, 0x2bc45444, 0x23328112, 0x2a222343, 0x32baba9b, 0xa9892292, 0x33b9b0ab, 0x181ba83, 0x2323a08b, 0x8829cb03, 0x3228a8bb, 0xbb322829, 0x30128232, 0xba203908, 0x400b028a, 0x1b128833, 0xccccbaa0, 0x34399cc, 0xbccbbbab, 0x223220ab, 0xaccbbdbc, 0xb81a430a, 0xcbb2abbb, 0xac09831c, 0xab2abacb, 0xbba9b18c, 0x92aabbba, 0x3333bb1a, 0x344399ab, 0xcccaba2c, 0x4554480c, 0xddcbcccc, 0x45655514, 0x542cbbcc, 0x25556555, 0x65440ccd, 0xc9142343, 0x34342acb, 0xcddddddd, 0xd3343a0c, 0xcccdcccb, 0x9a30331a, 0xcba88343, 0x2b43338b, 0xc814431a, 0xbc924489, 0xba934303, 0x33333abc};
//first channel is topmost bit

// Layer: L2
// Quantization type: 4bitsym
uint32_t L2_bitperweight = 4;
uint32_t L2_incoming_weights = 64;
uint32_t L2_outgoing_weights = 64;
uint32_t L2_weights[] = {0x90b30990, 0x21b00208, 0x49013222, 0x82109, 0x1580cf95, 0x10c093aa, 0x1892198a, 0x2e1c10, 0x1a833aba, 0x80000229, 0xa89990c0, 0x113192a, 0xe02bc812, 0xe0c01180, 0x9351b203, 0x2aae81, 0x90192d2, 0xe011b4a8, 0x9110a888, 0x9d2291a3, 0x220a018, 0xc001aa50, 0x32891893, 0xe12c9308, 0x83850920, 0x4592130a, 0xd9e11107, 0xc88a321a, 0x8b09bd96, 0x80a221a, 0x18182a18, 0x2b8210a, 0xb0008a10, 0x9c13841, 0xae844300, 0x982b4809, 0x4d0a8192, 0x928ab810, 0xc8101481, 0xa8241008, 0x9b01a598, 0x99b0b09a, 0x90b38901, 0x9100b8a, 0x1186a882, 0x88d212a8, 0x11080822, 0x829aa19, 0x10a84f89, 0x2488998, 0xa9839909, 0x8a11a299, 0xaa81a8ab, 0x9a011449, 0x810101a2, 0xb9189190, 0xa9302c1, 0xf881021e, 0x9880a990, 0x1030039a, 0x9020db11, 0xcb218221, 0x9209ab81, 0xb320d210, 0x12290191, 0x991b8201, 0x9c01ba98, 0x214ca090, 0xcf11281a, 0x9518000, 0x14192809, 0xe4085f8, 0xa09b9289, 0x8c09083, 0x123f0abc, 0x51811998, 0x9c90109b, 0x929d2f83, 0x81b1a210, 0x9b400aa8, 0x2a038910, 0x821a7021, 0x8001831, 0x803c136b, 0x20190a83, 0x2821a009, 0x932a2bdb, 0x2018388, 0x9880c328, 0x98792190, 0xb08fb1c2, 0x80111880, 0x1a8809a0, 0xa1828181, 0xa018115d, 0x81009011, 0x862ca282, 0x29280a93, 0x1b908680, 0xa8898188, 0x8d14d98, 0x95209202, 0x90b99980, 0x8b8322c8, 0xb28ab871, 0x4210bba8, 0x13d0a80, 0x80b49a09, 0x59b0900a, 0x991b48b3, 0x1ba9e813, 0xb12280a, 0x820c9148, 0x28b98ab9, 0x11a81b2b, 0x2ba80ab, 0x3a1101bb, 0xc004890, 0x3bc0e2a0, 0x8b19288a, 0x8280a120, 0x48101b08, 0x92800312, 0x8af18111, 0x42a88200, 0x120b89a2, 0xaf00b000, 0x83c35049, 0x900a8a1, 0xbdfa2808, 0x11cf39a8, 0x40a3080, 0x21090890, 0x91904d2a, 0x8e80ab91, 0x9220f089, 0x2bb40dc1, 0xc19112ed, 0x9083228, 0x218319b0, 0x3bba83, 0xa9801221, 0x382889aa, 0x2013c291, 0x89199323, 0x8abb0939, 0x99c1bb29, 0x1289d213, 0x18840928, 0xc208910, 0xab0b8023, 0x21b19408, 0x881801c1, 0x8cb81858, 0x2012198b, 0x259a8048, 0x8c180119, 0xb8020011, 0x982089b8, 0x5989809d, 0x3aa07088, 0x9b5ac03d, 0x9bf690a9, 0xc990b211, 0xf0299038, 0x20110101, 0x182200b0, 0xb99890aa, 0x80989089, 0x18080899, 0x90990999, 0x90098888, 0x899a8099, 0x88988998, 0x9980090a, 0x90898809, 0x2da2081d, 0x11013039, 0x98941ab3, 0xc291921, 0x8318b8a8, 0x1c0b111, 0x99ac2202, 0x83aa0d40, 0x2390d28, 0x539389c0, 0x81081ec8, 0x990322ac, 0xb1ea320a, 0xe802989, 0xa3811190, 0x8816188, 0x398cf009, 0x2021119a, 0x22010a3b, 0x8a198b0, 0x18380b0, 0x8d911290, 0x4aaa00a8, 0x3b34948, 0x829b390, 0x1ab19838, 0x3181fb28, 0x93a5a053, 0xa391089b, 0x8b8dabc9, 0xe9c980a0, 0x22882119, 0x211b8281, 0x3a993a28, 0xe988d349, 0x9a899311, 0x89a8b819, 0x808dba5, 0x182b1, 0x919853a0, 0xd83011a8, 0xc1d3282, 0x1a18988, 0x3428b899, 0x81210238, 0x23c2b012, 0x9610289, 0x88182f0c, 0x31892181, 0x8a908868, 0xb3b2989a, 0x2482904b, 0xaa8b0018, 0x18202198, 0xab01082d, 0x49a20084, 0x14980031, 0x53499898, 0x82201399, 0x1818120, 0x4918408, 0x91109988, 0x1a2292cb, 0x93884928, 0x9a82f80, 0x88b02880, 0xa8f008a1, 0xb8992a04, 0x92ad0111, 0x90b83083, 0xa2142210, 0x129a9a30, 0xa918a9d8, 0xb0b11b92, 0x8b1c88, 0x211a008b, 0x99a11089, 0xb938380a, 0x8181ba03, 0x3a2b8285, 0xba932028, 0x99811929, 0x110a36a4, 0x31180a98, 0x2080a987, 0xa898b910, 0x99141099, 0x3819938, 0x182c8198, 0x9a1f0931, 0x11b1ca1b, 0x9ba0cd01, 0xc3b82238, 0x28b118d1, 0x199a9011, 0x13b89d59, 0x8081a28b, 0x89b21100, 0x9ab311a0, 0xb90118f2, 0x2d118110, 0x9dca9015, 0x10280103, 0xf1880a0d, 0x2aa30011, 0x1812a088, 0x41118919, 0xa2819291, 0x9959a9c2, 0x320c9248, 0xbd9d8029, 0xd0038199, 0x18a3298, 0x10300050, 0x988d238, 0x1029071, 0xb818083a, 0xa99f9920, 0xea21b218, 0x1a0b00a1, 0x1d1a28ad, 0xd909a811, 0x11888f0c, 0x23b0b09, 0xa10450b, 0x19f91932, 0x11139380, 0x901afe19, 0x29a0901a, 0xeb93a00, 0x31883851, 0xd3ac1a0a, 0x818099, 0x18a138a0, 0x8a9392df, 0x30a28e0c, 0x9801b921, 0x91140093, 0x10989d92, 0x218280, 0x59a029d0, 0x33298dab, 0x82a0000b, 0x80180001, 0xf0281b2, 0x8013908b, 0x82898293, 0x11821588, 0x8631b991, 0xa0198a59, 0x8a00389a, 0xb2a9893a, 0xac31329, 0x8f268998, 0x29c19930, 0xb39a0c08, 0x11449b09, 0x2894222a, 0x9890988, 0xaa2acba, 0x1800453b, 0x84f81028, 0x124d009a, 0x89009830, 0x32a48a98, 0x13b9cc80, 0x812288cb, 0x10119b0d, 0x121a301c, 0x21288181, 0x984881aa, 0x9d98aa0a, 0x9c09108, 0xc0088895, 0x811184a2, 0xe9023a80, 0x98a09288, 0xa91cf1d1, 0x230a8191, 0x19bc0c8, 0x198518b1, 0x2aa84098, 0x8808ba8, 0x9294b920, 0x33a8ab2, 0x9089a03, 0x98aa89aa, 0xa90f10, 0xa8ac8020, 0x21884ab3, 0x90009812, 0x80102081, 0x321a2089, 0x1108aaac, 0xa858c83a, 0x13cfaa90, 0xa431931e, 0x8b1aa89a, 0xa808a211, 0x89bc7224, 0x18ba1c9a, 0xb98201d8, 0x388ac899, 0x90103883, 0xb9080919, 0xa8010084, 0xb1903329, 0x229e030, 0xf021009c, 0x9a3cc888, 0x1889a1d8, 0x9084ca81, 0x82180248, 0x32c8c082, 0x20301432, 0xe81e9f99, 0x99988a3, 0x91991c30, 0x2b580800, 0x22990871, 0x99b01e08, 0x182a398b, 0x8d99b21, 0x1a10a1a2, 0xd113c8c8, 0x88cbd1f0, 0x892888a1, 0x28084afa, 0xba122822, 0x1191090, 0xb12a1930, 0x8080229a, 0x28a93c33, 0x822aa9b9, 0xb9400168, 0x3caf1098, 0x12a8028, 0x410d9b90, 0x1201250, 0xf0a2ad88, 0x8888509, 0x2272a891, 0xb2aa10, 0x1810b058, 0x101988c8, 0x820ca009, 0x90c0a0aa, 0x1101882, 0x202214a1, 0xa90f8180, 0xc8a988c1, 0x9110dbc8, 0xb0111221, 0xa12828, 0x40b088b0, 0x981a9098, 0x8908005b, 0x159a083c, 0x18582bb9, 0xca1bb20a, 0x30189808, 0x89c09a28, 0x1a03c8a3, 0xb0100010, 0x210221a0, 0x8a9b2542, 0x81029a0, 0x88331103, 0x28188991, 0x2439b93a, 0x3412108d, 0x99298ab9, 0x8bb39e20, 0x11383999, 0xaa848822, 0x81820aac, 0x1109d8e1, 0xaab116ad, 0xa9b0081a, 0x39882a13, 0xc34c4900, 0xa30a01, 0xa0809b9b, 0x81801480, 0x890a042e, 0x92280911, 0xa9228110, 0x8f8e13f8, 0xd01184c4, 0xab34e8ad, 0x9994d8b1, 0xa8a9a188, 0xa102f812, 0x2a009230, 0x98311102, 0x89d8d99a, 0x52811f12, 0x10c13280, 0x8914208, 0xbe9032a1, 0x29e1888, 0x151a1999, 0x192a2aa9, 0x98814502, 0xdb02c0b2, 0xa1008189, 0x88889381, 0x22840692, 0x8059bc02, 0x349b14c, 0x108e9c21, 0x2c9490, 0x802b311, 0x24f8111, 0x19288910, 0x2012e211, 0x8329b9a, 0x1352914d, 0x219f0e28, 0x1b8023a8, 0xa80900f0, 0x582b8929, 0xa128429, 0x18d2a919, 0xe0802303, 0xc8480b8, 0x1d8a2880, 0x5b34212, 0x9ab7999b, 0xc0c809c1, 0x9c100226, 0x2a0f10a9, 0x318a192, 0xf1c28818, 0x12213190, 0x46a98a23};
//first channel is topmost bit

// Layer: L3
// Quantization type: 4bitsym
uint32_t L3_bitperweight = 4;
uint32_t L3_incoming_weights = 64;
uint32_t L3_outgoing_weights = 64;
uint32_t L3_weights[] = {0x908d823c, 0xd2b81388, 0xcc80b0c0, 0x18891e9, 0xa19b51c1, 0x98320040, 0x8d12a14, 0x8100991c, 0x38a20888, 0xc3ac991a, 0x2a00b038, 0x8adc8a4, 0x9fa93100, 0x93b03010, 0x9292a208, 0x20b89ab2, 0x23a1c89, 0xd011933, 0x93d0c992, 0xc821910, 0x9a901830, 0x88a283c2, 0x28901a82, 0xe2c44a89, 0x2c19b880, 0x18a981c1, 0x980800b, 0xa98880d0, 0x2992bbe1, 0x380ab9a9, 0x90191321, 0x1f40310a, 0x199a8009, 0x2408212c, 0x8c383180, 0x1a90a2c2, 0x90b3a9c0, 0x10918018, 0x22091, 0x9a102381, 0x31010010, 0x119b288a, 0x4c0020c8, 0x29a9a9c4, 0xa9a18a91, 0x12b122a1, 0xd2219311, 0x89d331a0, 0x20d21a92, 0xda180981, 0x98b3e940, 0x298b039d, 0x28880132, 0xa683910, 0x90e00935, 0x41ccd389, 0x9168b022, 0xc1a8bb8a, 0x901809, 0x91411a20, 0x8929b13c, 0x913209a0, 0x189ca81a, 0x3888cb, 0x28c0c92, 0xa8089111, 0x24e0b19b, 0x1d1b0850, 0x8083983c, 0x209111b5, 0x3012c98c, 0xc0819989, 0x8a120311, 0x23dc1119, 0xaa0c2802, 0x8d82e1b0, 0x8a139090, 0x21308d88, 0x8a3b9088, 0xa14a3119, 0xa14da831, 0x11902f99, 0x8a00a1, 0x8e482011, 0xa30a90b8, 0xeb010190, 0x991119a, 0x8138108d, 0xc85a0c0c, 0x1b890b4a, 0x18a1a0c0, 0x91b0913, 0xd9008a29, 0x88389192, 0x4108a998, 0xd2a120fd, 0x905a00d2, 0xb2c91281, 0x8b2ab889, 0x2289b8a4, 0x12809a82, 0x81c112a0, 0xa9092498, 0xe10a8883, 0x80e0320b, 0x999b8142, 0xc800890, 0x3ca0a0a3, 0x91938201, 0x85bf1011, 0x8a8a1a9, 0x14002a8a, 0xaa2cc830, 0x28812acb, 0x12220a8, 0xa09b19a1, 0xcb911a98, 0x1289c808, 0xb0820891, 0x894311a9, 0x3293321, 0xa8a0d8b8, 0x9180182b, 0x89880020, 0x1a4a030c, 0x8a03a089, 0x1190b339, 0x2d98092a, 0x90c80380, 0xb0248898, 0x8023988c, 0x30b12004, 0x4c9001a, 0xa1981111, 0x98a308ac, 0xa8b8cb11, 0xa901b08b, 0x191a5aa0, 0x8929409a, 0xd2424828, 0x91819280, 0x218b9220, 0x292920a9, 0x8a102918, 0xeab88b0, 0x221c2201, 0x22ac081c, 0x8b90a82b, 0x8323c108, 0x83ca19a1, 0x2a1a81c0, 0x88b8c108, 0x8a932031, 0x1e890081, 0x140f9021, 0x80ac309, 0x395199e1, 0x2a808e0a, 0xab0b4049, 0x8209901a, 0x80888198, 0xc8239098, 0x89110100, 0x11892020, 0x94010810, 0x8810a291, 0xb9932a89, 0xc125ba9d, 0x53319102, 0xb8a0b8a1, 0x1398c83c, 0x299080a, 0x49001c3a, 0x21288990, 0x1014111, 0x1d8980a8, 0x880b4110, 0x2c3228a9, 0x902c910a, 0xaf030b02, 0xba08d4a4, 0xe4a341b3, 0xad9f2801, 0x8b8088d8, 0x1f82a099, 0x18292190, 0x881c218c, 0x81da89aa, 0x422fc98, 0x948b3cb8, 0x88895822, 0x8a99c202, 0x82012a, 0x30dd2238, 0x898a0190, 0x3caa81b1, 0xa222b888, 0x93803b88, 0xbc9e8228, 0x420c8321, 0xca22938, 0x9f1e1c8b, 0xad641048, 0xa80911d, 0x9b300a90, 0x1b1aaf48, 0x3b95098a, 0x2a8a98a1, 0x9b0bc189, 0x82913391, 0xa83808ba, 0x92c8209a, 0x82a88891, 0x1199e128, 0x81291aba, 0xcb1a003a, 0x89c0308b, 0x1a28109, 0xa119c019, 0x8cba01d0, 0x11288180, 0x8c002a18, 0x8ab98b31, 0x31baa030, 0x18841ab3, 0x1b019082, 0x8ab81811, 0xd026082c, 0xc890991, 0xab09b138, 0xa8aba82, 0x90012993, 0x19da99e4, 0x19321101, 0x9881a0c3, 0x928414a9, 0x2ac88103, 0x1a00ba8a, 0x98891991, 0xf8810509, 0x92019892, 0xaa90e108, 0xa8880939, 0x19b08109, 0x380c899e, 0x99280800, 0x1899b94b, 0x29aabc12, 0x9b219010, 0x508029e4, 0x19998089, 0xbb010999, 0x399ba883, 0x1d109890, 0x8d1a8800, 0x200d1100, 0xac101c9, 0xb2a08332, 0x880989b8, 0x329c8a08, 0x88c90094, 0xa8c01188, 0xc08001c1, 0xa131c83b, 0x2b11b31a, 0x291a0bbb, 0x981820a0, 0xb8388800, 0xb0188b08, 0x28028ad, 0x129025b8, 0x2f1113c0, 0x9080282, 0x81018020, 0x289a1131, 0x2b18014c, 0xb8509290, 0xa9181082, 0xac1c12b4, 0xa9b0aa98, 0xc11a28aa, 0x91806020, 0x919199b8, 0x11881908, 0xa209841d, 0x2a1522ba, 0x8898008d, 0x93118b8b, 0x108808a1, 0x5981c881, 0x30f91929, 0x8b03824c, 0x1b1a9888, 0x40b08000, 0x8e0de381, 0xd692ac, 0xb990cf09, 0x388182a3, 0xc2f281d8, 0x900d7808, 0xa3908329, 0xaaa1b18c, 0x8af130a1, 0x4b281920, 0x80b1281b, 0x13882021, 0x3a098909, 0x8a11c91b, 0x813191ca, 0x801828aa, 0x329c9220, 0x80aa19ad, 0xa9924009, 0xe8a80338, 0xa09a2883, 0x1a198818, 0x92d8902, 0xd9211a10, 0xa90ada01, 0x23019c11, 0x9a189928, 0x100a8db1, 0x3a892020, 0xf043911c, 0xb219c298, 0xd128990, 0x2c3b2201, 0x909802b9, 0x9089d001, 0x11bf9128, 0x1b1831ab, 0x29c08be1, 0x2a1fab2, 0x83d91991, 0x981b0089, 0xaa599000, 0x4303a18, 0x8a190139, 0xa2d8f910, 0x1b190981, 0x80a0938, 0xa0524002, 0x32b8ba80, 0x28e03981, 0xaa18812d, 0x39a2080, 0x2c9a30d0, 0xfa20a189, 0x9119d802, 0xd00c3ba, 0x2c4a9001, 0x821a211a, 0xbc2098, 0x83190a21, 0x49881920, 0x900c189, 0x892221c1, 0x180838a3, 0x10bc185, 0xb19089b8, 0x8a491811, 0x228e00c8, 0x248e1902, 0x32ff9ad2, 0x2a829c98, 0x193a9b93, 0xb02a0841, 0xd28820b, 0xe12888, 0x89620b1b, 0x8121809a, 0x92c22010, 0xc0a20839, 0x910aa02a, 0x11c59ad9, 0x989889b1, 0x9c29b182, 0x238c00b9, 0x249c311d, 0xd11cb10, 0x1043a0eb, 0x13cb00f2, 0x2a6e84a8, 0x9b28199e, 0xaa911b18, 0xcbab9301, 0x81aaa982, 0x2b1c9102, 0x10880a10, 0x88208241, 0x9832984d, 0x1289bc2b, 0x190ac01, 0x2b880912, 0x98c9a993, 0x8b134118, 0xa9909048, 0x92ab2952, 0x8b8bb983, 0xb8d55806, 0x4119031, 0x3939c828, 0x11b1009a, 0x8c9a0d12, 0xac0095a, 0x83991bc1, 0x3a20918a, 0x93031d9, 0xa91ba819, 0xa098a311, 0x9a00209a, 0x21198182, 0x93091d2a, 0x1988b149, 0x1018b9a, 0x1029a028, 0x20030091, 0xab91b4a4, 0x18b019, 0x908a8d02, 0xb092e31, 0xb2108299, 0x10049aad, 0x1bd88f84, 0x988ab128, 0x11008bcc, 0x9d02b082, 0x8a181091, 0x934a222f, 0xf814b219, 0xa0aa929, 0x2199db11, 0x2218a32c, 0x1819019a, 0x11c0b801, 0xc020820, 0x80889838, 0xca9000d1, 0x7939a0b0, 0x3ae09a81, 0xa948d0, 0x19c4990, 0x93da0129, 0x1d12d811, 0x3804589d, 0xeb2b82, 0x984a8801, 0x819aa118, 0x82aba888, 0x10240919, 0x12108bb, 0x8db19b2, 0xa8914810, 0x339b02c9, 0xd38228a9, 0xb82048c9, 0x88239813, 0x988c9ab8, 0x931140d0, 0x98094d10, 0x8028ea68, 0x3089c98, 0x89389038, 0xa6a188b, 0x19b2981c, 0x3b81409a, 0xc0021990, 0xe9530c18, 0xcc122308, 0x88c10a, 0x1391a920, 0x800021d9, 0x891a8008, 0x92809b0c, 0x8b00e0a2, 0x10008804, 0x81c8223a, 0xf982a192, 0xb38499, 0xb0d1bcbb, 0xaca09008, 0x811088a1, 0x1830104a, 0x82d1403b, 0x18020aa0, 0x231dbb5c, 0x11833aa0, 0xa928d109, 0xca99b201, 0x189b219, 0x9c19518a, 0x2a291290, 0xa498c0c0, 0x8182841b, 0x20300318, 0xa00aa831, 0x28819992, 0x9140183, 0xa1020080, 0x92ac03a9, 0x88a20b09, 0x8898c899, 0xe1802ba1, 0xdc211120, 0x1cb44081, 0xa3181194, 0x83202010, 0x8bb00ac, 0x383929b0, 0xcb01a989, 0x98a22010, 0x298a120};
//first channel is topmost bit

// Layer: L4
// Quantization type: 4bitlog
uint32_t L4_bitperweight = 20;
uint32_t L4_incoming_weights = 64;
uint32_t L4_outgoing_weights = 10;
uint32_t L4_weights[] = {0xbbd3bbca, 0xc34d80c0, 0xc4ababbc, 0xbb9cd2b4, 0xd23bb43c, 0x5cd53dc4, 0xbb2cc433, 0xcb3cd3cb, 0x3bbdc94c, 0x4dcbbbcc, 0xbc4334b4, 0x90b2a1cc, 0xcb3c5b1c, 0xdccc34c4, 0x2acbbcc5, 0xbcdc4c32, 0x43bdbc4c, 0xc4b0bbb2, 0xbcd4cb9a, 0x4cc5bb30, 0xbb3ac343, 0xdc303c0c, 0x4bb4a4c8, 0xba31c3b2, 0x4c1d9bca, 0xbabb4aca, 0x33dc4c39, 0xb343b3cb, 0x49a2c1aa, 0xbcbcbc2b, 0xacb4bcc8, 0xa0dc4344, 0xb32ad8b2, 0x2bbbb2c4, 0x3c0cb4b3, 0xabbbab59, 0xb3cccd91, 0x9b49dc3a, 0xc84c4a4b, 0x2baccbbc, 0xcdc344bc, 0xc1bc0b4b, 0xc3c2c02c, 0xb44cc43d, 0xc4bc93ac, 0xbabbbb3c, 0xbabbb0ac, 0x4a2c3b4b, 0xbcd58284, 0xc4313c42, 0xcbc3d31c, 0x2dcd3cb2, 0xa3cdb4bc, 0xb4b9c4b4, 0xbc4b9cc9, 0xc5c2cbdc, 0xcb3cda3c, 0xccd9b2cb, 0xc3bc3c4b, 0xbccc53c3, 0x4c311cc4, 0x9b1c29bc, 0x44c34a2a, 0xca41cb23, 0xc5ac34dd, 0xc9b144cb, 0x1b3bcac4, 0x3bbc3c0d, 0x2992094d, 0xb5ba3bdc, 0xbcbb9aa0, 0x3ac423cb, 0xba4cbba4, 0x3a35c33b, 0x488b4caa, 0xbb09bcc3, 0xcdb4ccca, 0x1c38cb3b, 0xca3dc33c, 0x4d248bcc};
//first channel is topmost bit

