// Automatically generated header file
// Date: 2024-04-27 14:30:33.634711
// Quantized model exported from opt_sc16_Cosine_lr0.001_Aug_BitMnist_PerTensor_4bitshift_RMS_width64_64_64_bs128_epochs60.pth
// Generated by exportquant.py

#include <stdint.h>

#ifndef BITNETMCU_MODEL_H
#define BITNETMCU_MODEL_H

// Number of layers
#define NUM_LAYERS 4

// Maximum number of activations per layer
#define MAX_N_ACTIVATIONS 64

// Layer: L1
// QuantType: 4bitshift
#define L1_active
#define L1_bitperweight 20
#define L1_incoming_weights 256
#define L1_outgoing_weights 64
const uint32_t L1_weights[] = {
	0xb9aabbcb,0xbbb99b1b,0xab9bcccc,0xcdcaa09a,0xabbbcddb,0xcb443248,0x9ac0bcbb,0x2ac34343,
	0x0bc92224,0x3bdc5554,0x8aba3b35,0xaccc4655,0x8bc92c0a,0x33de4655,0xa9039cbc,0x43ee4565,
	0x9a33b8ac,0x2ceb5655,0xb81a92bc,0xbca55545,0xaaacb3cc,0x3345442a,0xaba94483,0x31a12a20,
	0xba82441a,0xbba8b2a4,0xb9b3332a,0xb81c0203,0xbbcc444b,0xabb81110,0x9bb9b329,0x4321332a,
	0x44320aaa,0xc9cba922,0x3322aa99,0xab8b8004,0x23aab332,0x2ba34544,0x01bcca31,0x44565554,
	0x0bccab23,0x44655311,0x9bcccdbd,0xeeffefed,0xabcbbccc,0xccdeeeed,0x9bca1b84,0x444542dc,
	0x13033443,0x93243440,0x34432330,0x30443453,0x32123330,0x43343343,0x1204a823,0x3209ba44,
	0x102aa922,0x0383b143,0x223baaaa,0x0a930a44,0x238248b1,0x01332a33,0x44333309,0x11a83333,
	0x1108bcbb,0xcccb02b0,0xbbbccccc,0xcccb011a,0xa8abbcb4,0x43cca038,0xa9bcbb11,0x31cd4343,
	0x9bbbb328,0x244a0443,0xabb830ac,0xb3430210,0xa33bb19c,0xc2444302,0xa328832a,0xb12350a0,
	0xb33341bb,0x04834b99,0xb33443cb,0x29b14442,0x445553da,0xbccb2544,0x455651cb,0xcbcbb218,
	0x356653cd,0xc9a2acca,0x145654cd,0xccaccccc,0xb2456653,0x8ddcccbc,0xa9045554,0xabccca8b,
	0x42331801,0x33389033,0x430bcccb,0xbbbbb081,0x431cdeed,0xcc0a9aa3,0x4430bcdd,0xdccc1b89,
	0x34555665,0x3ba019ab,0x44666666,0x65399320,0x3934bddd,0xb0222223,0xbdedeeed,0xc2492032,
	0xbddc9453,0x2b220403,0x1a345421,0xa9233313,0x424329ac,0x08a203b3,0x332a2200,0x0a910933,
	0x33002a33,0x092ab910,0x3302a328,0x99cbbb22,0x243aabaa,0x01a92133,0x232033b1,0x8a8ba234,
	0x55455434,0x33344445,0x44432ab9,0x33093444,0x54442980,0x3233bb34,0x44329a82,0xb1913912,
	0x44208033,0xa0aa9102,0x53221a23,0x019a33a2,0x4a3a223a,0xbab0b223,0x4bb9b93b,0x09ab8424,
	0x40cacbaa,0xbc992313,0x4330ba8b,0xcb09ba00,0x54544444,0x554249b2,0x43444555,0x65524cc8,
	0x4adc3440,0x1dddddc2,0x4adedeee,0xfffeeca1,0x42bddeee,0xeddcb324,0x442380aa,0x18343455,
	0x33233218,0x11123343,0x1831a029,0x81acb813,0x301a9212,0x34382833,0x13ab123b,0x344bbb23,
	0x33acbb0a,0xc34bc034,0x30bbbc02,0xd1538a14,0x42aabc45,0xec60ca94,0x22ab9856,0xf45abaa3,
	0x01aa335c,0xe54bb022,0x8880322e,0xb54ca213,0x2bcb30dc,0x43984222,0x21b1ab94,0xab808880,
	0x92bcb431,0xa39ba903,0x20bb041c,0xbbcbca23,0x32bb3429,0xc088ba13,0x31224321,0xba231921,
	0x302323ab,0xa9a08a03,0x30123a0c,0xccbaca30,0x82bccccc,0x94342448,0x30cddded,0x94bb8228,
	0x1abddeee,0xcbbb3342,0xbcbcdeef,0xeccb2555,0xababcdef,0xd3444445,0xabaa2acb,0x55543445,
	0x29cb3442,0x449ba945,0x02c8343b,0x8abccd13,0x291ca20c,0xa9aabdb3,0x2232331b,0x14449c13,
	0x32343993,0x44242a30,0x8339aba2,0x2a933201,0x209a18a8,0x03002213,0x13328344,0x43332813,
	0x203208a3,0x33343422,0x3133bbb2,0x43333203,0x4438bcb4,0x34a2a283,0x334addc1,0x43a33129,
	0x2432bbcb,0x43b10210,0x438431c8,0x49bb9aa1,0x438ac24d,0xc2bbcca0,0x013445ae,0x30aaa032,
	0x134555ed,0x62820303,0x34455df2,0x54333343,0x820adfe4,0x54555454,0x2acdeea3,0x44443454,
	0xabdddd20,0x34444454,0x9cddccba,0x32344441,0x31cb8cc0,0x32ab3323,0x322a3334,0x2b319203,
	0x43398b04,0x5540b813,0x343bdd26,0x64ddca23,0x130ced46,0x6dedc243,0x333cee56,0x3ed93544,
	0x2233dd46,0xce402334,0x2434bd16,0xcd3aa243,0x3829bc95,0xcb8b3144,0x1a2bcb24,0x13b13923,
	0x2baa0233,0x31a21180,0x02a23332,0x389abb92,0x921a1ba1,0x3020389b,0x131a8a20,0x301aa2ab,
	0x0aa23a21,0xb122bcbb,0x3213b830,0xa202baa0,0x3089ba20,0x88a03323,0x93a20baa,0xb813a212,
	0x232331b2,0xabaa2223,0x1328ba81,0x921a0231,0x228b8aa1,0x20ab3902,0x330b9a03,0x3ba822c3,
	0x41bbb313,0x231b1303,0x08b23214,0x302a3243,0x38133444,0x38bb3243,0x38880334,0x3bcdba80,
	0x21bcba44,0x3accccc8,0x243bcc15,0x5ccedcba,0x04489b05,0xaeddcc18,0x13343844,0xdeedcca2,
	0x34444343,0xdedc08b2,0x8324448c,0xdedda090,0x31234332,0x2bcb2233,0x31023324,0xbdcc1133,
	0x23290a1b,0xb9a28319,0x33324432,0xaccab013,0x01345442,0x10221231,0x13444483,0x3443a422,
	0x322132b8,0x92332423,0x83234538,0xccbb2021,0x1a045554,0x134a3332,0xbcddb366,0x55544443,
	0xbdeeeec5,0x65444432,0xaacdefff,0xdb3b0343,0x0256654d,0xedaac209,0x8a444330,0xbcca022a,
	0x0bcccbba,0x8bb1a111,0xabccba9b,0x9bcba102,0x0908120c,0xdbb89b1a,0x2188ab9b,0xccca8829,
	0x23332433,0x43333333,0x43200134,0x44442334,0x41abb224,0x44442444,0x31ccc904,0x54134544,
	0x3bdccc34,0x40002445,0x9ddcaa44,0x64403835,0x1ddeeec4,0x644a8334,0x9ccdeffc,0x53431412,
	0x33554dff,0xc22189aa,0x3455660e,0xcb32aacb,0xbabc254c,0xa2829288,0xbcd28bcb,0xb82822b1,
	0x9ccaab20,0xb032ab01,0x499c3389,0xbbbc9ba1,0x4321bbb0,0x10ab8202,0x4423ac2b,0xbccb2334,
	0x302220bb,0xbbbabb92,0x383328ab,0xca28aba2,0x13454443,0xa233aa9a,0xa1566555,0x43234aa8,
	0x82455665,0x5433bb2b,0xaccbbefe,0xd939b110,0xcdefffec,0xb2a2b323,0xcddb5555,0x5288a22a,
	0x0a465534,0x2bba0204,0x342302bc,0x2c982233,0x43ca1aa0,0x9ba03182,0x3380aaa1,0xaacc0833,
	0x332298a8,0x019aba33,0x8ab22a18,0x2918239a,0x2aa932b2,0xb1233a29,0x0988b9a2,0x23433339,
	0xbcbb1445,0x55543bbc,0xbc924435,0x566658cb,0xbbcbab31,0x2556653b,0xbcccccba,0xc2556650,
	0xbcdddddd,0xdd245654,0xcddddddc,0xcec85555,0xcaab1bb3,0xadd14344,0x34544340,0xcc892293,
	0x345331aa,0xca282a83,0x01233bbb,0x29babc14,0xa913bba1,0x2a9bb919,0x89401129,0x88239aab,
	0x8b3aa9bb,0xbb239abb,0xaca2b04b,0xca1bbcdb,0xbcbccbcb,0xca9b9bcc,0xccbacccc,0xcb2bbcab,
	0xccbbccbb,0xcbcbccbb,0xbccba924,0x2bbcccac,0xccc91332,0x9cb412bb,0xcb38aa3a,0x32ba0209,
	0xb33b9322,0x393ababa,0x84bb30b3,0x42b9bbcb,0x34a9acbc,0x2acbc9bc,0x0543aabc,0xb02403ac,
	0x14310cb1,0xb324533b,0xa22ac882,0xac855553,0xca8baabc,0x1cc56554,0xcab133cd,0xded55654,
	0xccb833bc,0xcda65654,0xbbbbbcbc,0xc3555540,0xbccccddd,0x24454418,0xbccbccc9,0x444313bc,
	0x018398bb,0xaab38a38,0x03299acc,0xcccaab23,0xaa9bbddc,0xbccba9aa,0x02bbcb98,0x1b3201b0,
	0x381aacc3,0x92833489,0x23abda24,0x4431b813,0x02023555,0x3aa0a244,0x29b451ce,0xec044348,
	0xbdddeeec,0x232442ab,0xbddeda55,0x4ccbabba,0xbcca4345,0x2cccccab,0x24443ccc,0xbaaccc93,
	0x455588cd,0x33399333,0x34551344,0x54434444,0x34444223,0x3a244444,0x33319233,0xa9334411,
	0x90aa3344,0x3cddcbb0,0xaaa13466,0x52cdddbc,0xbb084445,0x654bcddc,0xbbbb00a4,0x5650bedc,
	0xb9cbbbbb,0x25665bdd,0xbbcabccd,0xda4553cd,0xbbcb88ac,0xdb2454cc,0xb21ca9ac,0xc8340cca,
	0xa88a0cab,0xb2809cb2,0x339a248a,0xb2cbab08,0x33398bbb,0x0bbb0833,0x33392001,0x8abb8330,
	0x83422213,0xb80a8209,0x1328180a,0xa14232a9,0x09320a29,0x33a34128,0xbb228320,0x3231b9ba,
	0x22a1bbab,0xbcbbb089,0x229aa9bb,0x99aabab1,0xa89920bb,0xbac9000b,0x10bc8c9b,0x3c9abbb9,
	0x1bcbcbba,0xab9808ba,0x0bc8cabb,0xc0aabbcc,0x08dcbccc,0xdbccbccc,0x8bcbbbbc,0xcddcdded,
	0xa83ccccc,0xbcdeeeec,0x32443420,0x40bbbcb8,0x34454455,0x55566554,0x24443443,0x85666665,
	0x0a13881a,0xdc245654,0x8ba08b3a,0xcddb2443,0x88234344,0xacccc120,0xa1223838,0xbbbba818,
	0x383249cd,0xa24320b8,0x82333ced,0x8564cca8,0x22333cfe,0x565addb8,0x33434bed,0x55beec02,
	0x343454ed,0x55deb554,0x149354dd,0x54ed5553,0x438b35bc,0x3dd44439,0x498bb333,0x38344baa,
	0x921aa022,0x0331aca0,0x3118200a,0xa8b99032,0x200a91b1,0x23a23343,0x3a298383,0x034333b1,
	0x3a092232,0x282b3988,0x22122baa,0xbaab1992,0x3212393b,0x2b2a819a,0x81a182a8,0x209ab121,
	0xbbabb8bc,0xcbab8ba8,0x9cba2bac,0xccdcc9bb,0xca039b34,0x3bccdccc,0xab33a1b8,0xbcbc0bcb,
	0xba334932,0x1cdb1acb,0xb033abcb,0x3cddcbdc,0xbb0a3cdd,0x41cdcddc,0xb0002cdd,0xa33cddda,
	0xa39b9acd,0xcb120bcb,0x339830cd,0xca35442b,0x23b14bed,0x03343b8b,0x253545ab,0x14b12aba,
	0xa4445543,0x981383ab,0x94556444,0x8baa230b,0x13455543,0x43323810,0xb0224433,0x2432aa9b,
	0x34428a20,0xbaa91133,0x3303ab9b,0xb9b11230,0x3110ab20,0x842a2332,0x2280ba83,0x3322bb43,
	0x12bb9bba,0xbbbdba33,0x8bc82bc9,0x45655554,0x38a391bd,0xd8566542,0x0428333b,0xefffeedc,
	0x328b1844,0x44deeedd,0x232b2814,0x5554cddd,0x318a101a,0x25449cdc,0x30a340a9,0x823441bb,
	0x01b81201,0x2a133921,0x398a0024,0x42339230,0x223b909b,0xb01a2333,0x33421238,0x32342323,
	0x2313a9ab,0x82032030,0x13990000,0xa82a8308,0x33229a02,0x33298493,0x321a9191,0x3ab13332,
	0x23a28a00,0x82238899,0x02341382,0x22208198,0x3a2a2139,0x8b3a0991,0x332bb9a1,0x19b11232,
	0x03553321,0x33333118,0x90456654,0x4029a381,0x9deeeecd,0xcdcbca81,0xbdeefffe,0xbbbabbb2,
	0xacbcb355,0x43baa292,0x2a456653,0x4bb021b2,0x23455543,0x2a918800,0x833318cc,0xbbbbab98,
	0x833a128b,0x8a83a233,0x30020800,0xab9a0222,0x083bb09a,0x82a02303,0x22acb4ba,0x93a33213,
	0x0aa9b2bb,0x23b3aba1,0x2a321212,0x40bbbcb0,0x3b0432ba,0x943cb1a9,0x0c231394,0x114aba12,
	0x1a9cb943,0xc943b232,0x1aaa455c,0xd44b8132,0x238445ae,0xd53cbbbb,0x43244cef,0xe549bbcb,
	0x33942ded,0xa45343b1,0x428adeed,0x15554412,0x10abdddd,0xa3444300,0x0328cc23,0x34454321,
	0xbc912381,0x32abab9a,0xba834303,0x43228a0b,0xb0343323,0x29b0abc0,0x89443331,0x32220222,
	0xb232b443,0x3b828831,0xa1283335,0x4c2aa324,0xa9bbbb35,0x4ca8b433,0xbaba2355,0xcccba422,
	0xba13466d,0xd4812a0a,0xba84563e,0xcb203a09,0xb83443de,0xddcbb4b0,0x03443bbc,0xcdcbbbdb,
	0x1333312a,0xacd2cdcb,0x1830331b,0xbdbccdcc,0x9a09230a,0xc8ccc9bc,0xabbb9823,0x12accbcb,
	0xab123118,0x330208bb,0xba034332,0x8299a2bb,0x8a444122,0x28ba8bba,0x92455452,0x9bccacab,
	0x92324443,0x33238418,0xa33a3334,0x55545543,0xb3124442,0x45555651,0xb9a4443b,0xb045554a,
	0xbbbb2430,0x9b44439b,0xbccdcb29,0xaa2acddc,0xcbccccbc,0xa290cddd,0xcabbcddc,0xcbbcdedc,
	0x9b33909c,0xbbcddddd,0xb8032314,0x3bdddccb,0xaa94bb2a,0xccccccbb,0x98a22aaa,0x0abcccbc,
	0x0aa0bbba,0xb92bb09a,0x9801b888,0x20ba08a2,0x90a2380b,0xb8bcb142,0x91ba892b,0x9b18b322,
	0x29129a31,0x22104a32,0x282a2a9c,0xab990333,0x2bca0ccc,0x44442449,0xbacbcddc,0xc083348c,
	0x129b30be,0xeddcbddd,0x3423444b,0xeeeeeeed,0x45444455,0xbeeefeed,0x34433456,0x6549bddc,
	0x44541403,0x566549bb,0x34323181,0x34554488,0x13344403,0x4445552a,0x92233343,0x3435431a,
	0xbbbaba9c,0xcccc0aaa,0x0bbbbbab,0xbcccbbb8,0x99abcccb,0xbcdccb02,0xa8cdbcbb,0x1a30c188,
	0xabbcbbc9,0xbbbcb919,0x80bcccca,0xacca1340,0x918bbbcd,0xedc33532,0xa0bbcdde,0xb4440ba0,
	0x224b8456,0x6548cbc9,0x34355555,0x555333bb,0x24454343,0x22344421,0x33442bcc,0x24444412,
	0x22234a93,0x2328338b,0x30292229,0x2228128a,0x23134213,0x21323108,0xa3344433,0xa332310b,
	0x922033ab,0xdc034012,0x090234ad,0xee254229,0x3234345c,0xfe5653ab,0x3423255b,0xfc664cdc,
	0xa332b26c,0xf562cddb,0x823bc16d,0xf54cccb3,0x08a8a36d,0xe5bcba34,0x0b14224c,0xc2b83442,
	0x29111131,0x9a34224a,0x009a2a12,0x2b8aaa3a,0x8a18ab80,0xaa9b9b39,0x23b08b31,0x01903ba0,
	0xa1b32118,0x01120020,0xa901acb3,0x32293813,0x0baa2302,0xb12b88a0,0x291082bb,0xb0803000,
	0x23239aca,0x24344444,0x31099243,0x34455433,0x32223434,0x55565421,0x80a33345,0x443cdddb,
	0x2991234c,0xdefffeec,0x3241aabd,0xccb9bdec,0x2b390cb2,0x13555448,0x2bbbbb40,0x03345455,
	0xab9bbc22,0x83333a45,0x2b13aa13,0x32321c33,0x2899224a,0x023b9ca3,0x922ab233,0x43b98bba,
	0x2102b9ba,0x9b84acb1,0x008ba42b,0x8accccb2,0x121a812b,0xbacbb800,0x33301333,0x81a02332,
	0xa1333342,0xccbba898,0x8334330b,0xcdec9a38,0x24444335,0x9dddc813,0x44545454,0xbdeed933,
	0x34443445,0x4eeec034,0x4432b336,0x4efdc244,0x449aa235,0x4eed0333,0x31923145,0x1ddc2331,
	0x30a28b44,0x1dc4321a,0x09b28a33,0x9c343b29,0x1aa20982,0x2c229908,0xbb838102,0x231b9320,
	0x2188091b,0x313aca98,0x2800aa82,0x19a89131,0x1a221ba3,0xaba92aa2,0x23123a33,0x3422313a,
	0x44455555,0x55444444,0x44444444,0x43113444,0x4413b894,0x13018313,0x433a9080,0x32222a10,
	0x4811aa03,0x3332324a,0x39102842,0xab8b3302,0x3b240122,0x80c92343,0x42330bb8,0x918ab0a3,
	0x44119ba3,0x212bb443,0x44429235,0x44811148,0x40334444,0x430431cc,0x1ac8bdde,0xeeeedddb,
	0x1cddeeff,0xfeeedddb,0x3bcddddd,0xcdbbcca3,0x412acba3,0x41333344,0x43333244,0x44443444,
	0x2a11babb,0xb889aa11,0x10abb98a,0xab18b8a9,0xa10cb2cb,0xccb32b28,0x9bbb03cc,0x22aabb9b,
	0xbbba2abc,0xbcccbc02,0xacb9cb1b,0xca384232,0x9cbbbc02,0xcbbba342,0xaabc9cac,0xd3224553,
	0x9bbddcce,0xc6455542,0x2abbccdd,0x5654311b,0x8a81abcd,0x555432a8,0x891438cd,0x8655443a,
	0x9aa44ccc,0xb5554441,0x9accdddc,0xb5453441,0x08bcc983,0x93444442,0xa9aa1228,0x91444433,
	0xab00a2ab,0x8b2aa99a,0x90baccbc,0x28baabaa,0xbbbccc10,0x1309bccb,0xbbccbbbb,0x9bbaabcb,
	0x1abbbccc,0xbabaa9cb,0xabcbcabc,0xcbbbbdcb,0xb9b19bcc,0xdcccccc0,0x933334ab,0x9a244442,
	0x34444554,0x35555554,0x13445554,0x55455554,0x33333544,0x3223444a,0xba124432,0x0a9b9a2b,
	0xba844333,0xbbab88ba,0xabccb888,0x89a89b90,0xbacccbaa,0x41bb009b,0x8bbbbbaa,0xb91a9bab,
	0xcbababb9,0x2a01baba,0xcc9bbb23,0x2223209b,0xcabb0243,0x833b2180,0xcbab9291,0x13392328,
	0xcb9bb093,0x44218882,0xbbba2a02,0x83543b88,0xbbb20a2b,0xdc45443a,0x8a43abab,0xcec55442,
	0x0a233ca4,0x2ee44543,0xbaaccb35,0x3fd43440,0x0bcdc254,0xee35443b,0xbcbb231d,0xdc5443ab,
	0xb14434dc,0x8444439b,0xa2429ddb,0x344a089a,0xb93bcdc3,0x443192bb,0xb9bbbcaa,0x122a2a0a,
	0x83a9aba8,0xb8111031,0x399bba89,0xb9323133,0x20083043,0x4321aaaa,0x98bba821,0x83ab0ba2,
	0x0b208b08,0x1bbb29b8,0xa222a920,0xbb3bb29a,0x8b28cbbb,0xcdccc91b,0xbcdcccc1,0x0cda82aa,
	0xaddcdc93,0x43cacccb,0xaccc83ca,0x54abcba8,0x284452bc,0xa8cb1144,0x3455542b,0xa3324554,
	0x33555556,0x55656554,0x39234545,0x55555433,0x20cccddd,0xdcccbb3a,0x20bbcdde,0xdeddcb82,
	0x2102131a,0xacca4292,0xa2123033,0xbddb4422,0x0222ab45,0x4ded4553,0x04438ab4,0x5de26543,
	0x32a99bc4,0x6ed55582,0x00a23bc4,0x4e3558ca,0x231033a4,0xbd553cca,0x31183413,0xbb4bddcb,
	0x834231ba,0xbbccccb0,0x834a8ba4,0x9a044422,0x82488c83,0x80281899,0x2a4b28b4,0xa3a30bc9,
	0x8bb8423a,0xabc0bbaa,0xbbb32b28,0x3a00bc02,0x992ba0ba,0x23b9b000,0xaa1b38ba,0x933bb028,
	0x333333bc,0xcb043323,0x32210bcd,0xdb455402,0x248b12bc,0xcb455393,0x33b139dc,0xcd255b20,
	0x301133ca,0xdc564dca,0x3b3354be,0xe5650cdc,0x389bcddd,0x4664ccdc,0x3b129c33,0x553ddccb,
	0x4821a042,0x33acb299,0x2444389b,0xcb994348,0x4432483a,0xb2444183,0x34210048,0x21234b22,
	0x41221940,0x2a243c33,0x22aa0088,0x3233ab82,0x40333533,0x0a0aa034,0x42322324,0xa3308344,
	0x32133334,0x548ba984,0x31301114,0x551cdc03,0x232abcb0,0x562cddc2,0x439babbb,0x460ceeb3,
	0x3238b1cd,0x564dfd04,0x12448bcd,0x663eec35,0x3113008c,0x65dedb44,0x22a2320b,0x4bdd3554,
	0x42320812,0x3cc05343,0x033313a1,0x09203332,0x2330a0b3,0xba882901,0x4320a8aa,0xb1a8cb80,
	0x230ba39b,0xa222bba0,0x311a09aa,0xa0223a13,0x33211298,0x8b813333,0x33139228,0x20aa9002,
	0x2822bba1,0x229a1382,0x31aaabc9,0xabcbbbbb,0x021b2aca,0x223bbbca,0x2ba2ba22,0xb03128bb,
	0x2a009a3c,0xbc34340b,0xb91a0acc,0xadb5443b,0x2121a1c3,0x3ed654cc,0x082a9bb5,0x2f9554cd,
	0x19ba3004,0xde564adc,0x89bb03bc,0xdc642ddc,0x1ccc98cc,0xa543abba,0x90c82b89,0x43149323,
	0x9181a834,0x31933444,0x321328a1,0x2ab34453,0x92892392,0x0ac24343,0x83224224,0x29183333,
	0x3248bccc,0xca434443,0x3428dddd,0xb0221334,0x442deed8,0x82312834,0x40cded14,0x43403334,
	0x3bded255,0x43c98c24,0x1bddd465,0xaccb9bb4,0x3bdbb56b,0xd2b80b34,0x3bb0454e,0xdbb83024,
	0x89a244ad,0x9a9a1b24,0x4bb1398b,0xa29abc92,0x3bc10903,0xaca82ba3,0x3bb98940,0xbbbbb844,
	0x2a12a320,0x23308244,0x11331292,0x22333444,0x422bbc83,0xaca23443,0x3432a09a,0x90243443,
	0x44444344,0x29444334,0x444211ab,0xb1813143,0x44100229,0x99a21313,0x44aba033,0x888a9233,
	0x4491b139,0x181b3322,0x4332a382,0x33ba33a3,0x4323292b,0x43ab2cb1,0x339a023c,0x13abacb0,
	0x3bbaba1c,0x34bcba83,0x3cb242bd,0x55b23482,0x2b3444cc,0x63db3383,0x41444ce1,0x62dc9883,
	0x3441cde5,0x65decc14,0x344cedb4,0x55bddb04,0x449dee04,0x54bdc133,0x43abc134,0x548cb143,
	0x83313454,0x31301932,0x08824555,0x42430b22,0x29033322,0x54344b90,0x02cccddc,0xcd32bca2,
	0x31cbcddd,0xcb22abc0,0x4234a325,0x4239b8b0,0x35555665,0x412399cc,0x3555550d,0xcbcbcbb0,
	0x2292cefd,0x9babb333,0xcddeee34,0xb3444443,0xbdeec543,0x33343443,0xbcca418a,0x2aaab393,
	0x9bb33211,0x3ab8abb3,0x23943343,0x212bcb83,0x02300b92,0x8228cb29,0x3139b8a3,0xbb20ba22,
	0x44443829,0xabb98134,0x33389bbc,0xddddcb93,0x431ccdde,0xededccb3,0x48ccdeee,0xedcc89a3,
	0x2addeedc,0xc3312333,0x3addd125,0x55434544,0x3bdc4445,0x50044435,0x1bcb4448,0x9caa2934,
	0x3aba883b,0x203b3024,0x433412cb,0xa80baba2,0x22233389,0xab8baab4,0x31033434,0x2239bb24,
	0x22b33349,0xaa228344,0x23830930,0xb22b4445,0x44323220,0x1a814444,0x44445545,0x44444444,
	0x2301308a,0x18902833,0x483921bb,0xbca9bb08,0x33232a38,0x2ab01a09,0x81138320,0xa8310419,
	0x3aabb383,0x299b808a,0xa143255c,0xccacc108,0x845565ef,0xbaa10291,0xaa43bff1,0x53283438,
	0xbcddef56,0x43a13243,0xbbcddc43,0x0bb93238,0x29429dc9,0xbc831333,0x3b322bba,0x234429b2,
	0x08a84133,0x330a9bba,0x3ba232a8,0x382aaba2,0x03224b0b,0x8419cba1,0x23100838,0x19229303,
	0x32244444,0x43343411,0x42882454,0x04344444,0x29aa9310,0x011a1344,0x21bb1290,0xbab98a34,
	0x30ab022c,0x02013a43,0x2aba8aa9,0x44321124,0x2cba0c2b,0x33290434,0x9ba32323,0xbbaa2122,
	0x24345555,0x308a2354,0x45444804,0x48c24354,0x45540cc8,0x44244454,0x43438b04,0x44445534,
	0x2a2acacb,0xbaa440a9,0x9bcddded,0xddddddbb,0x1acdeeee,0xeeeeedb2,0x38bccccc,0xcdddcb93,
	0xa1bcccb1,0xa34331bb,0xaadddc83,0x32333a22,0xccddc250,0x44911a18,0xbded4540,0x431b1230,
	0xcdd0564a,0x329b0a33,0xbcb4560e,0x2a8cdb11,0xb93465ed,0x32bbb012,0x925454ec,0x9bb0a231,
	0x234444cc,0x8aa10a84,0x0440b3c8,0x2cb3ab30,0x8448ca00,0xccbbab42,0xb3883330,0xa18c1903,
	0x00c83432,0x8a99b230,0x120b83ba,0xa03b9943,0x932922aa,0x2923339a,0x90a10823,0x432332a1,
	0xdcdcccbb,0xcbbbcccc,0xcccdcca2,0x191b80cb,0xccccba22,0x2223439a,0xcbbc8832,0x3344442b,
	0xcab34432,0x0223310a,0xb2234410,0xdcdcca2a,0xa8333a23,0x2bcb228a,0xc14ab855,0x5cca280b,
	0xba024456,0x4cbbac0b,0xccbc2455,0x0bbbcabc,0xcccdcb44,0x2333bccc,0xcbccbbb8,0x4443a1bc,
	0xc0238b99,0x134a910c,0xc14329b3,0x4421aacc,0xcb244444,0x4309bacc,0xcca33442,0x440bbccc,
	0x3344343c,0xcdca2343,0x4443244c,0xdedca344,0x33383443,0xcefeba34,0x43abb144,0x4ceedc13,
	0x43bdba25,0x53ceedb2,0x38cc0ac2,0x554aeeca,0x33331bcc,0x3544bedb,0x4322899c,0x354a0cdb,
	0x44308bbc,0x2343bcb9,0x432093ac,0xb32accb3,0x44238222,0x82310b33,0x44302922,0x33244833,
	0x44388090,0xa2a22133,0x4432ab8a,0xba324334,0x3444900a,0xa3143044,0x4434330b,0x03234433,
	0x20a14555,0x43abc819,0xa9a35564,0xaccccb08,0xba84555a,0xdddddbaa,0xacb4564e,0xebcb3343,
	0xbcb0562f,0xb3a45433,0xadda562e,0x3b044344,0x8ccc46bd,0x4a039b44,0xaccc05bc,0x4a28bba4,
	0x1bcc249b,0x99abbbb3,0xa8ba92b8,0x8cbb2ac0,0x9bba1332,0xab2ba21b,0xa9b0a333,0x828b13bb,
	0xbaa90a21,0x891b2aaa,0xa0b232a2,0x018a8cca,0x2aaba993,0x010b1910,0xaaabccbb,0xcc83aa0a,
	0x33223229,0x89333343,0x3209bcbb,0xab213a33,0x333ab0ab,0x0bccdcba,0x328b8a8c,0xbcccc133,
	0x338a1944,0x55556655,0x0380211b,0x81565544,0x08318abc,0xdefffeca,0x3199bb04,0x41adeedc,
	0x39999983,0x44554ccb,0x9381b01b,0xc0333ab2,0x80b2118c,0x4303339a,0x39b22124,0x0933a323,
	0x1b8bb843,0x314ab833,0x02309922,0xa8bcba32,0x42bab003,0xa3aa0234,0x32238344,0x34813343,
	0x9828bbbb,0xbcab2a3a,0xaa2aabbb,0xabaab122,0xa1444443,0xcc9a4431,0x93355655,0x54454553,
	0xa19a1456,0x66544443,0x2abbb9bc,0xdbab9332,0x9b09bbde,0xedcba343,0xbacdcbcc,0xbb1b2321,
	0xaacddca2,0x38a119bb,0x0bccd823,0x44328a88,0x1cb439a8,0x2321cc9b,0x3385421c,0xa8cabb02,
	0x8302233a,0x8b40b98a,0x0bcbcbb9,0xbccb0a20,0x1aabbbb0,0x4bbbabaa,0x088b1aab,0xbaa8ab91,
	0x322344bc,0xcb033242,0x43444bde,0xca143444,0x34443dfe,0x03444544,0x34453efc,0x54443444,
	0x44454ef3,0x5440ab94,0x43453ef3,0x54bbbab0,0x2214bed5,0x5ab0a014,0x19a4ac45,0x2ca2a984,
	0x8bba3244,0xbcba8aa2,0xaa234a12,0x8b1243b1,0xab3bbb22,0x8b9aa3a3,0x9331b983,0x2bbbba03,
	0x09b90302,0x229b3b21,0x399aa3ab,0x10223281,0x31aab884,0x1b300213,0x338a88ab,0x83238003,
	0xcccccccb,0xcccccbcc,0xcccccccc,0xacbccccb,0xcbbcccbb,0x2aa90bcb,0xccbb9019,0xab00bbcc,
	0xcc231ab0,0x13ac93cb,0xcb4abb88,0x98bba38b,0xbbcb1bcc,0xcaa22343,0xc8b28a49,0xdb245554,
	0xcaabc344,0xccc35443,0xcbb98544,0x8ccdcdc1,0xca038bcc,0x0cdddcbb,0xc22444bb,0x8cdc033b,
	0xa9b94543,0x9cb24558,0xb20b3455,0x5656665b,0xc0b34455,0x6666651b,0xcaab8b34,0x4545409c,
	0xbabbb8b0,0x908a8b0a,0x0b8b9aa0,0xba99aab0,0xbbba9a0a,0xbb8803aa,0xbbcbab88,0x212aa34a,
	0x8b9b9aa2,0x2b2a0200,0xab0a0abb,0xbb910421,0xb92389aa,0xca0111aa,0x0a3a9a82,0xbba2cdb0,
	0x80b8aaaa,0xabccba03,0xa9bab033,0xbcca3442,0x148ccaaa,0xccb14543,0x84439acb,0x34565544,
	0x85555556,0x66654340,0x24445555,0x553acaaa,0x098b9894,0xcccddcca,0xbbaccdee,0xeeedccc9,
	0x208021bc,0xb0aba138,0x29813333,0x3bbbba22,0x8a845455,0x40bba332,0x03444455,0x55444430,
	0x124453bc,0xccaacddc,0x32432cdc,0xdccdeeed,0x12313456,0x4bcddddd,0x98903542,0xaccb10cb,
	0xbbbaccde,0xb3444442,0x80bbcccc,0x24345453,0x3322ab33,0x82234554,0x83428344,0x32892922,
	0x834022aa,0x1910dcb2,0x0824432b,0x0accddb8,0x019249b9,0x29ccccb1,0x222b9a9b,0xcbca8b82,
	0xcabcc98a,0x08341abb,0xcbaab222,0x34444230,0xcbb29824,0x33445440,0x90223932,0x41335442,
	0xaa454444,0x4a431243,0x04455552,0xba249298,0x045543cb,0x144434bc,0x84413ba3,0x4544addc,
	0x828a4a84,0x43cdeedd,0xbb092221,0xaddedcdc,0xccc298bd,0xddc2808a,0xcccb8acc,0xba94441b,
	0xbcdaabaa,0x323243ac,0xcccbacc2,0xa93343bb,0xbccbba0c,0xca13bbaa,0xababcccc,0xababbbbb,
	0x22a988bc,0xb1331481,0x2921bb82,0x88223233,0x23823242,0xb8339243,0x21208183,0x2aa09a10,
	0x3238ab83,0x31884323,0x2444b381,0x283a09a2,0x244553cb,0x33b99a02,0x33454dd8,0x43b00b80,
	0xb1adee35,0x519b8233,0xbceee465,0xcb3a2433,0xcded256b,0xec921433,0xbcdb454b,0xdcc82210,
	0x0b044434,0xbdb923a0,0x21830193,0xbccccba2,0x89329333,0x3bccbb91,0x09923331,0x31029199,
	0xcccbacba,0xbbbbccbc,0xcc0133ab,0xbbcca9bc,0xcb454bca,0x949a9acb,0xb3565dd0,0xa419accc,
	0x85554bc2,0x3b09bccc,0x25665bd4,0x3a9aabcc,0x45566deb,0x388c39ac,0x45456cec,0x200b809c,
	0x45566bec,0x120cb23b,0x454559dc,0x2bcbb9cb,0x933444ac,0xbc8aa89b,0xb3423433,0x3b8ac2ab,
	0xb3438338,0x2b0ba20c,0xa120b033,0x0b242cbb,0xbcba9318,0x0ab0abbc,0xbbbbbacb,0x9bbabbcc,
	0xa0332a8b,0xbcb89203,0x2a2babba,0xb1aba9b8,0x2a0bac1b,0x9baaadc2,0x9a99aa99,0x8182bdca,
	0xaaba2434,0x4acbacc9,0xabba2c93,0x3bcc9331,0x0bbacb02,0xa0bc0339,0x8ab39439,0xc29ba342,
	0x0a92133b,0xdc2aa031,0x0333b9cd,0xdd0a1243,0x023433ce,0xd2535533,0x23344499,0x56544428,
	0x2a3ccb25,0x65543193,0xa2bbca55,0x508ccba2,0xa9ca2554,0x2aabcba9,0x39123443,0x23c0a993,
	0x22200ab2,0x24428320,0x00abcccc,0x83421332,0x00ccdeed,0xdc88b133,0x818ddeee,0xddcbcaaa,
	0x294bacef,0xfeddbcba,0x3344454b,0xdecc3acb,0x44555455,0x542ba99b,0x354ba945,0x550098a2,
	0x442ba343,0x2bb9cab2,0x144228ab,0xcb923312,0x42441bab,0xab903443,0x3243bb80,0x22433423,
	0x339338a0,0xb2324229,0x3ab89323,0x33300210,0x1333300a,0x34923310,0x23344543,0x42443333,
	0x2a234554,0x44403ab9,0xa0455443,0x38334201,0x18231188,0x40893808,0x99bccbba,0xb0cacdcb,
	0xbcbcdddd,0xccbdddcb,0xbbcccddd,0xcccddccb,0x22455565,0x53254443,0x45655455,0x55555555,
	0x35443234,0x44445555,0x18cccc20,0xcbb23244,0x1cc8abbc,0xccca1132,0x9cca0149,0x8bccbbbb,
	0xbbdccb9b,0xb9abccbb,0xbcccddd8,0xb98bbc90,0xa1bbcccc,0xbcbcaba3,0x23032243,0x2aa03118,
	0x80839a2a,0x9c9b2280,0x3022090b,0xbcaa0210,0x82381ab9,0xbc2b98a1,0x321b1b82,0xbc9c2a02,
	0x03301b9b,0xcc3b21a3,0x88443bbc,0xcb89112a,0x32433b9c,0xccb9330a,0x3a34331c,0xb3545438,
	0xbaa134dd,0x55543443,0xabcbdee5,0x54bc233a,0xacdeedb6,0x4b0cab20,0xcdddb256,0x49b8cc21,
	0xbcc9a345,0x43a8a13a,0x9bbab444,0x44322322,0x32883445,0x55434432,0x22124443,0x44321333,
	0x222920ab,0x2b924423,0x111ab091,0x913a9333,0x23a9bc09,0x1abb8843,0x02032031,0x82a10323,
	0x2b931910,0x3209a982,0x2221391a,0xbcab2932,0x13449cca,0x12300134,0x3b355443,0x33381333,
	0x0cd46665,0x8b193012,0x8deffdb2,0x48a82bb0,0x9ceefffe,0xc8b90ca8,0x04345654,0x21a80203,
	0x33665554,0x1a231023,0x445443ab,0xa022a303,0x41a9bbb2,0x22182232,0x3219bbba,0x90111132,
	0xbcccacbc,0xccbbccbb,0xbbbbbcbb,0xbcb99bac,0xaab9ac9a,0xab88109b,0x9ba28231,0x18ba20bc,
	0xb91b1039,0x3ab112a9,0x99081a82,0x818b8908,0xbaa911b8,0x0b801120,0xb1b82232,0x8288bba9,
	0xb11bcba9,0x23920caa,0xb9931bb2,0x32bccb12,0xcb133434,0x43baa440,0xaaba82cd,0xedc22448,
	0x13bcddee,0xed24443a,0xb4428cb4,0x5642334a,0x03455666,0x6554433b,0xba455555,0x554302ac,
}; //first channel is topmost bit

// Layer: L2
// QuantType: 4bitshift
#define L2_active
#define L2_bitperweight 20
#define L2_incoming_weights 64
#define L2_outgoing_weights 64
const uint32_t L2_weights[] = {
	0x3b4834bd,0x3bbb03a1,0x4cbcbba0,0x2cdbcbbc,0xc0abdc34,0xb14c2433,0x34343323,0x043accc3,
	0x393c4ac0,0x4cdcc3c8,0x392a8ed4,0xacbb03bd,0x3b2c33a4,0xdd909230,0x4b9244a1,0x4b2c85d3,
	0x8bd2b0a5,0x3c33ac4c,0xbc43bb3d,0x1ba3b445,0xdbaba32c,0xab135c42,0xca3b20b8,0x3dd9a3ad,
	0xbb4b0255,0x48bc2cc5,0xc8422424,0xb284b10c,0xd34544c3,0x383423cc,0xa0c952cc,0x4ca343b2,
	0x4c429ca4,0xcc324384,0x39c31dc3,0x244cbac2,0x4d1cbba9,0xc42c4b42,0xcca144a4,0x3cdb33c1,
	0xb0b5008d,0xa23354c3,0x341b032c,0xc542a343,0x3024444e,0x44ba2dba,0x99bd38ab,0xacb81a48,
	0xb4adcaad,0xb444d91b,0xb2cc304b,0x3a4c83c3,0x43dab813,0x4c3a1140,0xb4c0dec3,0xb3cbb83c,
	0x0d431348,0x44dc9bca,0xa823cc54,0x4dc03c29,0xc4934232,0x4401acc3,0x5a23acdc,0x343433cc,
	0x23833024,0x3423cc94,0xbba1b33c,0xb4dc3dcc,0xd341bd23,0xa24bb2bb,0x38043348,0xc1043a53,
	0xa80342c4,0x9bcb8dd2,0xc549bbdb,0xc3d349a8,0xdd343402,0xc45b083c,0x824a34a4,0x40a2d5b3,
	0x4b03b0bb,0xb4a894c2,0x42ddd422,0x4d3a0243,0xa3dc824b,0x3c2bdaa4,0xac4cec94,0x330cc04c,
	0x4c3b222b,0xda3ab53a,0x5bdccacc,0x2a1cbc13,0x90ac294a,0xcc3a3145,0xbc8b0483,0xa1bdb383,
	0xc9835d2d,0x424b0b34,0x2d2b34dd,0x8c2bb2c4,0xcd4343cc,0xc4252cab,0xe431341b,0xdd29bc54,
	0x1c3dc44b,0x424ccbcd,0xb433d33c,0xa333c2c3,0x43043433,0x4c40a23b,0x3ed23cb1,0xb31cc93a,
	0xb8b4d224,0x4a21530b,0xd4410344,0xb335c4b1,0x23c5340c,0x34c13e33,0x3ad9cccd,0x5d09a33c,
	0xa23d0bd1,0x4bdcc08d,0xaa342c44,0xdb8313b2,0x23ab42b5,0x3c33a831,0x39d5489b,0x2b3b90dc,
	0xdc3c3c3c,0xbdbb3339,0x4c2c2dd5,0x3841c5ae,0xab0244d8,0xd0d45b43,0x9bc09225,0x02bb2dd3,
	0x312338dd,0xc3bc24ac,0x39c4144d,0x1bbc2b49,0x312cdda4,0x443c24b3,0x230dba34,0xd5438c33,
	0x8434b349,0x844413d3,0x24348c52,0x4ac8b2bc,0xd4ca124c,0x44bcdac8,0xa33cdc93,0x4cc144ad,
	0x253c32db,0x2423ca1b,0xa09bca3c,0x3bbc4da1,0x342ddd94,0x4bbd344c,0x448439b3,0xac2d9a3c,
	0xacad3152,0x53b4bb3a,0xbb33c33c,0xbb323344,0xa928540b,0x3da33dbb,0x5bb592dd,0x338ad443,
	0x03259a3c,0x0d0443c5,0x33b4bc84,0xb43a4301,0x344dc81b,0x23b40bba,0x2c488c21,0x5dcaabdc,
	0xba8c2c03,0x5094ac3b,0xcc1c2cb3,0x29b5cec3,0x8d35accc,0x0b2b2b4d,0x439a43b3,0x4abc34ca,
	0xcb8b4cc9,0xb444cb33,0x8ccd2440,0x4c4d28bb,0xcb4bbbcc,0x3a9c3c41,0x2bcc2443,0x318cc253,
	0x3883d95c,0x2bdbbd3a,0xd408cab1,0xb480a4d3,0x52c4b833,0x8154c233,0xabb1acc9,0xc3944bcd,
	0xdcccc4c0,0x34b39cca,0x0bcae942,0xca84c5d3,0xc83d35c3,0x484b3434,0x8db328b4,0x13a4c013,
	0xdab3dab3,0x202c32cb,0x34ac114c,0x3b223483,0x5dc344ca,0x41ca3821,0xb91adea9,0x33ec43cd,
	0x3b23dccd,0xd23dacc3,0x3be34bcc,0xb43cabb4,0x50bdbd03,0xbb4bd432,0xc4004aca,0xb3b21110,
	0xc4c433a3,0x32843242,0xb3485434,0xb3d55353,0xd49abac3,0x2390338c,0x2443b84b,0x194bdc35,
	0xc4c42d5b,0x8c333243,0x8b9a4480,0x30122bba,0xb4a22bd3,0xc934a02b,0x2541242c,0xd8442c35,
	0x0b30d94a,0x34c044ab,0x4c1bcb83,0x3d21b4da,0xb3b3438b,0x593a8c8c,0xc443acb3,0x4bd324dd,
	0xabb05b3b,0xa534a9dc,0x2cc11dc1,0xaa9b024c,0x25283aaa,0xa5bb4ab1,0xb420233c,0xc20bbcac,
	0xc9b3dcdb,0xbdac4a4c,0xb3414332,0xc333cbcc,0x0cc403c4,0xbb24c44b,0xcaabb323,0x39221cb4,
	0x334d9aa4,0x5a3cedbc,0xd159a889,0x21343903,0x4a853213,0x8bd3839b,0x5ad38bc8,0x051b33ba,
	0x3ab21cb4,0xcca4c5ca,0xd0503a98,0xcaa50548,0x28a2deaa,0xbcbbb0ad,0x44bc13a2,0x2ac543a1,
	0xa3cadbc0,0xccdd3c44,0x12dbb483,0x353ca352,0xbcccbb03,0x0b42dc34,0xbc0bdbc4,0x3bc442c5,
	0x302844a1,0xcddd03ab,0x33b4ceda,0xc3bb1234,0x41344843,0xab453384,0x0ba3a43b,0x83302aec,
	0x3428334a,0x4c98bd3d,0xccb32ca8,0x4cb13d8b,0x04cb3db4,0xad432b30,0x32c434bd,0xa3442bb3,
	0xbda54c23,0xabdcdd33,0xc3db43c8,0x44cb4b34,0xbab08abb,0xb3584ba2,0x33c089bc,0x89c530b2,
	0xc5c62c4a,0xca2254d2,0x433343c4,0xa33b4a4a,0x1c3bb1cd,0xcac44d2b,0xc4ad1843,0x2d935b10,
	0xa1ac938c,0x4bb0a029,0x94325833,0xc5443aab,0x3131882b,0x2c3328b0,0x4394a2ce,0xb419ccab,
	0xb0954830,0xc81b5431,0x3c332831,0xb03cc2dc,0xa383431c,0xa3c40e83,0xd80c334d,0x3d453a32,
	0x4314c393,0xb322b0a4,0x33c30a3d,0x020c4cc5,0x42aabd4a,0x434bda83,0x0248cc93,0xab31248d,
	0xd58a1c49,0xb231ad33,0xd8bb5324,0xb52d5c9b,0x9bbcadd4,0xc83ab44d,0x95b53359,0xb3aa4c30,
	0xdbc4dcbb,0xc41c4bc4,0x32cca4ac,0x334c0ae4,0x28bc43cc,0x4414cd43,0xb38bdb2c,0xbca22b4b,
	0x950c9ca4,0x8c33cc51,0xdb885cca,0x8c3b58c4,0x2d3a30b3,0xc1a4a93d,0x25c23341,0xb31d3ab4,
	0x88448ac4,0xb4bc43db,0x13b4ac48,0x3adb4222,0x3312cc9a,0x34c4c8b9,0x384c3b4c,0x402444bb,
	0xba2b33c3,0x44b0c1dd,0x1b41931b,0x3cc4436b,0x59a023b2,0x22c80194,0x9b34db3c,0x980ccb4c,
	0x9b44233d,0x1bd4b0a4,0x4b94ccc8,0x2cd3b04e,0x123ba393,0xb83ca304,0xac330321,0xc344bdc4,
	0x3c93d4d5,0xaa3d8a4a,0xc44c1841,0x3535c9ea,0x3ad4a233,0x392dc44b,0x8a2cab88,0x25a33140,
	0x2334cb5b,0xb9ac4a53,0x9a84aa24,0x3d3c3b49,0x44c2bc1b,0xcb1c3bd5,0xba4dbc3c,0x1b44429b,
	0x3cb2e482,0x44322c43,0xcc4b3344,0x4e13c3d3,0x34d3a131,0x43c1a0ac,0x0b24cdc3,0x30b3403c,
	0x41c8d48b,0xa80d8c2d,0xaa3a245d,0xb8290cd4,0x24c24244,0x5941b402,0xa133accb,0xd334b34d,
	0x4c3c3444,0x23dca50c,0x4da4dc42,0x2dd3c44b,0xd4022445,0x4d54a4a3,0xbb45b0c2,0x149ad8db,
	0x3c420c13,0x8cb3bc3a,0x1da1bcd8,0x3d0bb3cb,0x3c0224bc,0xbb3c1c53,0x0cab24b3,0x2cbbb3ba,
	0x22ba591c,0xa455cab1,0x2ba8b41e,0x3a29334b,0xb24a332c,0x84baabc3,0x98bb4223,0xdd4dca54,
	0x4dbc20ca,0x1ca8c242,0x1b2cd51c,0x4d24b808,0x44ca1331,0xbbbb3b23,0x1db1dac9,0xc39ba845,
	0x2b0aa3c5,0x3bbdc935,0x28aab31a,0xbba34304,0xdc33c043,0xa436b5d8,0x3b5ab2c4,0x4b9124b4,
	0xbcd91c33,0x20328bba,0xbb1d2583,0x5ccab054,0x1ccbcbba,0xb9d42b8b,0x3908cdd2,0xa0da4bb0,
	0x42c228cc,0x42dcddac,0xbc32ddcb,0x4c034234,0x32c2cb3c,0x3ddc3c94,0x5ac384cb,0xc34224dc,
	0xd9c05910,0x2322bcbc,0xdd12bc84,0x4d94bc58,0x4343bcca,0x93a259bc,0x8824c483,0x222b3acd,
	0x3c19b4b3,0xcbdcaac8,0x14c4ca4c,0xbcdbc4ca,0xc43c0c33,0x3200a3b3,0xbb93533c,0x4a42c394,
	0x4bb32494,0x0dac82c3,0x25c8c54b,0xd581c441,0x3a338443,0x24ac43b4,0xcd11b231,0x2b3a3c58,
	0xdcc33cda,0xc434241c,0x40cb4445,0x40d3c5ad,0xa4a455dd,0x23d0bc23,0xd3ccbb4a,0xbc332d49,
}; //first channel is topmost bit

// Layer: L3
// QuantType: 4bitshift
#define L3_active
#define L3_bitperweight 20
#define L3_incoming_weights 64
#define L3_outgoing_weights 64
const uint32_t L3_weights[] = {
	0x3b4949b0,0x43c32acc,0xbad324d9,0xb3d3c9b4,0xbd42b54a,0xa54c1b34,0x2b3ca44a,0xd32c351c,
	0x43424aa1,0x3ac9b83a,0x43d43433,0x3c043239,0x2c43dc34,0x3da4da48,0x112b3abb,0xcb4b434b,
	0xb423b303,0xca8c2325,0x2c23429d,0x2b2bac3d,0xb44b49dc,0x4bb329b8,0xcb33abbd,0x444523bb,
	0x1dcdbb1a,0xbd342bdd,0x84caddb9,0x8394c4a3,0x2cd4433a,0xbc3d3c20,0x1b303c04,0x4cb30c1b,
	0x445c3da9,0xdbc8bd23,0x43d32833,0xc8c32bb2,0xa43bc2b1,0xcc04b3c8,0xdccd894c,0xa1433cd4,
	0xbb1c380b,0xdaa489bb,0x4a034a84,0xcbc83494,0x31c4da9a,0xba9a0484,0x34baa941,0x50cc4bc3,
	0x9abd8bb2,0xa03b9a0d,0x4c44c438,0x83410d4b,0xb3deea33,0x3a3222ac,0x93433a34,0xb3394dca,
	0x01542b09,0x9c53ac93,0xc4c33d4d,0x1d3333ba,0x12c23442,0x38b324c2,0x9c2ab1ac,0x424423bd,
	0xadcbc9a2,0x4c588cb9,0xc233c3b4,0x490c4320,0x4024b43a,0x0b93b94b,0x942b03c4,0x40cabdc0,
	0x34bb439d,0x4a04c13b,0x44a4c4da,0xc34a1c42,0x9b2cbc83,0x424d8d54,0x48ccc1ac,0xc2dab331,
	0x334ccdb3,0x9c4313c8,0x2204cdcc,0xa44d921c,0xa444243b,0xc4abd4b4,0x3214943c,0x30451acd,
	0xcb0a34c2,0x434a4d43,0xad3da0c8,0x12bb3330,0x3343dc39,0xb43b4ab8,0xd24abc03,0xa5d5cca3,
	0x34243ae4,0xb2ab8224,0x92a35a4a,0x34c5c24a,0x2c0acc4c,0xcd338c4c,0xb341313d,0xedb332cc,
	0x343493d4,0x54980b24,0x2d8c82ca,0xc23c414b,0xca4cc3a2,0xd84b3d44,0xd23a5244,0xc1a4a44c,
	0x32c2c391,0x331bbb33,0xe5aacccd,0xbb4c34bb,0xd28c458b,0x454b5a25,0x11353cac,0x2ab0c13d,
	0x4133c8b5,0xbc43c024,0x323134cd,0x24dc1c4c,0xc85ae4a9,0x3523cc0b,0xa85224ca,0xa8e8ccda,
	0x4d34d444,0x251b499b,0xb2a4c49c,0xa25c5b2a,0xdcddb533,0xbccc4ca4,0xcad42422,0x433b3c4c,
	0x44334a4d,0x42a3b538,0x83db0408,0x324bccd2,0xcb593598,0x32cc8c34,0x4cccba3b,0x58a0934b,
	0xd35b4d43,0xd2c303c2,0x4c443033,0xa5b3ab8c,0xa34bdcac,0x8c3290bc,0xb34b4c44,0x4c0c2c19,
	0xb32034a3,0x43c0dc4b,0x4aad04bb,0xb053bd38,0x8cabbd43,0xac4b4d42,0x9d3a2c28,0xa4943343,
	0x2b1c84c4,0x44bd423b,0xc93bc24c,0x59ac038c,0x24bcc423,0xba0381ab,0xb5952249,0xb3cd8cbc,
	0x2dd2c324,0x448303c3,0xa882bbab,0x94cd513d,0x8a33d512,0x149ddc4a,0xd20115c9,0xa8c8d23c,
	0xa32a0bd4,0xcd49cc33,0x30d12c18,0xc3c4d0ca,0x4494343b,0x3bd4a4a8,0xcdd1dc92,0x3c533bc2,
	0x44594cd2,0xc4b4d0b3,0x52d1493a,0xabc2ba23,0x32ac14bb,0x8b28c4b3,0x43bd435d,0xbcc43bb3,
	0xa1333343,0xcb022444,0x0b3d5ccb,0xcb3c54b3,0x314b0cdc,0x2332bbc4,0x2c38c9c8,0xb9224c33,
	0xcb0c5ac2,0xc3c0ca2d,0x2cc3c454,0x9bb4cd3b,0x02bbcc22,0xac3bba49,0x85b23b38,0xbb2c4a4a,
	0x8daa1cac,0xcbd42402,0x42dabaa3,0x4a22a3bd,0x33c20939,0x342b3bc3,0x941c4231,0x53cd9224,
	0x33a3c4c2,0x28c14583,0x1cba42bc,0xc03d489a,0xbacbbcda,0xcc9cacc2,0xcc3a4880,0x33031c4b,
	0x3813b113,0x31ad339b,0xa3424b33,0xca23a1bb,0x84dab32c,0x41c4c8a1,0xc2c5cbc3,0x39413a9b,
	0x30b22239,0x1944d39c,0x45ccd3c8,0xb438c3cc,0x8a538303,0x14c8dc4a,0x8b3382cd,0x334a3433,
	0xcbc234bc,0xc4b34b0a,0xabbdc3c8,0x239233c4,0x4454cc33,0xb2bb8b34,0x129cc8c4,0x45392423,
	0xc1243c5c,0x29c0c3a3,0x45849b4c,0x2c43b0bb,0xc3db528a,0x4b32a3d4,0xabc43ccc,0x4b33022a,
	0x31442242,0x45c08431,0x4acd2309,0xc44b3d9b,0x022ccdc3,0xbc2cdd3b,0xcd3c3b83,0xa1b3b44a,
	0x3322b13c,0xab22c442,0xb4d2003c,0xcb1acbbb,0xc91c3acd,0x31cd1dc4,0x2bcaa43c,0x4b0c8340,
	0x4453adc3,0x3dc4d034,0xc4d24c0b,0xabc31802,0x8c3c442d,0xbbccaac4,0x309ed15d,0xa1d3c4dc,
	0xaccbd40d,0x4bcd3420,0xbb994549,0x32baabca,0xc4cb9bdd,0x4cbcc9b4,0x33a44cb3,0x4cc9ac3c,
	0xbb3c31ad,0xb0a43c43,0x3cab2b42,0x99cbaba8,0x3dc5dd44,0xd44230ca,0xb3dd3c4b,0xc4cd42c4,
	0x5233bc41,0x0b42dac2,0xc5db990c,0x42b004bc,0x3a4a4433,0x24bdbca2,0x3d4c924e,0x43c3b3ab,
	0x2cbbac4a,0x4ba13abb,0xdb355ca2,0x1ac23333,0xabb3c34b,0x4b3333b8,0x4acb8bb4,0x4dbcbdcc,
	0x2a8c522c,0xa3c4cbbd,0x1baad921,0x8b29c82c,0x313b2cb9,0x4a23232c,0x401b1dac,0x98accb43,
	0x3b25ab94,0x4bcd2b44,0xb524431b,0x80c82393,0x81cbb942,0x4cd4a549,0x084ed3cb,0xc3ba300d,
	0xd3a2332c,0x34ccc543,0xccac3c4c,0x4c3cc0dc,0xc3da4cac,0x4acab4c4,0xb4c32cad,0x3cc4b54c,
	0x3a2bb3b1,0x1c4a344d,0xd2403ac4,0x9acb44b4,0xbd0c4bba,0x3bd34ba4,0x49cac494,0xcbdcbac1,
	0xcbaacc3a,0x384334c8,0x4243b234,0x8531bc2a,0xb1294ddd,0x2ecddd23,0x41151a45,0x5dba4b43,
	0x02c22c2b,0xc823a0c3,0x3323dd93,0x2414c20c,0x9da04c2b,0xad24989c,0xb24b4aa3,0x8dddc824,
	0xc04c4cbc,0x0bd23add,0x2ddb4403,0x3a2149c3,0x9c249343,0xa31bb539,0x134c4b4a,0xc232343c,
	0xbb8aa452,0x344adb32,0x4340d3cb,0x423b2b4d,0xbc4c4424,0xab433b4d,0xc23444bc,0xb42dd2b4,
	0xcbcdd344,0x2d2c81cc,0x3cc33013,0xd24dbb25,0xd4ab14c3,0x318ab414,0x3cb232c2,0x4c454bbd,
	0x8b3c4332,0xbbccb94c,0x3b3a8428,0x0c40cc1c,0xd43d9bc2,0x5c8bbcb2,0xb2058c98,0x325c2943,
	0x8cc9b22c,0x3b48423c,0xb00253b4,0xc8cc44d4,0x4ab4a242,0x48d34a44,0x13ccdab3,0x443a33b2,
	0xcdac446c,0x3cc429cc,0x2c9a0bdc,0xbb93d3d3,0x3dc34333,0x113c232b,0xcca3cbb3,0x531ca8a4,
	0xd4220280,0xac2b3d33,0xbc0cdcaa,0xcd3ca432,0x4b484d28,0xc4424b34,0x3b03ac02,0xb45433b4,
	0xc8dc3292,0xdc4402bd,0x4a8d0bb3,0x32c2b3a4,0x4c54ccca,0xaa8dacbb,0x33ba3c34,0x34dc3bb4,
	0x33500cc3,0xd3b0bbcc,0x58ac2b54,0xa3d34c24,0xb919dc29,0xda4bcbcc,0xa3cb444c,0xdc424cd4,
	0xbb3bbc49,0xca40c244,0xb4540ad4,0x5542cc4d,0xdb0c3319,0xab43438c,0xb0434334,0x9cccdb03,
	0xc482caba,0x231bbd53,0x2acb84cd,0xdc3b49cb,0xb4404c93,0x233bc332,0xcd34ddcd,0xd4522542,
	0xbabc4348,0xbc5a4c32,0x308bcdb1,0x8cdbb3d4,0x44c448a1,0xa4b044b2,0x3bccd949,0x44243bc5,
	0xcca5c2b2,0xb42c3b34,0xb218a4c8,0x43ac5343,0x3344dc13,0xc3b44c3a,0xd22883c2,0xcac2cd02,
	0x43b84d03,0x3b49323b,0x35c31222,0x52c934a4,0x32b4c438,0xa9d3b849,0x532dd45d,0xbc3c4acb,
	0x124c2da4,0x454bbcdd,0xbbb44444,0x4bbb4343,0xcc4bc323,0xab52b45c,0x1cc2b211,0xdc3439dc,
	0x245b2cc4,0xcc4acb24,0x04043dac,0xc334cc4a,0x23b413bc,0xbca3a3b3,0x3e92c33b,0x4c442bca,
	0xc39c02b3,0xb8441bc3,0x23bd0cc3,0x34448b33,0x2c39a242,0xba3d2b22,0x3820a348,0x188ab2c3,
	0xc1babd4c,0xbd4c320c,0xc4331d23,0x24a1b4b3,0x3cc4153c,0xb3a333cc,0xb348cbab,0x3b2c4bca,
	0xb34c8b40,0xdcccc534,0x42414ab8,0x43a3ac4c,0xc34a4ccd,0x2c345cbc,0xdb43b33a,0x4ab1bcc2,
}; //first channel is topmost bit

// Layer: L4
// QuantType: 4bitshift
#define L4_active
#define L4_bitperweight 20
#define L4_incoming_weights 64
#define L4_outgoing_weights 10
const uint32_t L4_weights[] = {
	0x3cb4acc4,0xb33cbb2a,0xa38cbcc2,0xacc3c4aa,0xd45bc4cd,0x3c43cbdc,0xaccccadc,0xac3c334b,
	0xc14d4cbd,0xdcb344c4,0x4b33b1cb,0x3cb5bd3d,0x422ccddc,0x8dc0d3cc,0xa11cc122,0xc4bc4ab4,
	0x43b8cccc,0xc4bcc3bc,0xc3c4c4b0,0x829b8431,0x4dc1cb34,0xcbc9a82c,0x4933cac4,0xbcc1abbc,
	0x3bdcc3cb,0x3a04aadb,0xbab1bbcb,0x3139cb4a,0xd8bb4dc8,0xcb4bc3a0,0xc3433cbc,0x44aac2bb,
	0xcc3cb84b,0xccb9cc2b,0x243b4ccc,0xa33c3ac3,0xc405b9bc,0xb4c4ccb9,0x4cbba20a,0xccc8cc04,
	0xa3cc92c2,0x4acc2cd9,0x2acb4c0b,0xac894aca,0xc0c3cc4b,0x403c33b4,0xb4bccccb,0x8333cd4c,
	0xb24c4ba4,0xdc4bac0c,0xabbddd53,0xbddb3bc4,0x2ccb2cca,0x44ac4cc3,0xbbcadcc4,0x3b8c4ccc,
	0xbcc1ac3b,0x2343c344,0x3cb445cc,0xc1bbcbbc,0x89ccacb2,0xcacccc4b,0x2c84b03c,0xb3b9c49c,
	0x83cc33bc,0xc0cc4aba,0xac3c1bb4,0x0428bbca,0xccca3ab3,0xc2cc43c2,0x9bca349b,0x1c34b1cc,
	0xcbc4c332,0x3abccc3c,0xb93cbccc,0xc03cc132,0xc03cc34c,0xcc944a3c,0xcbad4a4c,0xd8c3c443,
}; //first channel is topmost bit

#endif
