// Automatically generated header file
// Date: 2025-09-03 22:29:17.620915
// Quantized model exported from octav_CNNMNIST_Aug_BitMnist_4bitsym_width96_64_0_epochs60.pth
// Generated by exportquant.py

#include <stdint.h>

#ifndef BITNETMCU_MODEL_H
#define BITNETMCU_MODEL_H

// Model class name as defined in models.py
#define MODEL_CNNMNIST

// Number of layers
#define NUM_LAYERS 8

// Maximum number of activations per layer
#define MAX_N_ACTIVATIONS 96

// Layer: L2 (Convolutional)
#define L2_active
#define L2_type BitConv2d
#define L2_in_channels 1
#define L2_out_channels 16
#define L2_incoming_x 16
#define L2_incoming_y 16
#define L2_outgoing_x 14
#define L2_outgoing_y 14
#define L2_kernel_size 3
#define L2_stride 1
#define L2_padding 0
#define L2_groups 1
#define L2_bitperweight 8
const int8_t L2_weights[] = {
	15,7,23,-2,-44,-48,18,55,53,8,65,-55,-69,61,19,-14,
	40,1,-2,24,42,9,12,11,49,31,-26,34,-51,14,-8,76,
	-8,32,-6,-29,12,32,38,-76,55,8,-20,52,-20,-46,0,-9,
	-18,-116,-6,45,-47,-100,19,15,-43,6,-34,-74,35,86,10,8,
	70,-8,-99,-61,44,16,3,-47,48,13,-19,24,-36,96,6,-51,
	-47,10,-8,23,16,-34,6,4,-55,77,-25,32,49,-43,63,-22,
	-85,-33,-13,9,53,44,-5,-53,23,-15,17,32,0,56,-93,3,
	-91,5,-122,25,-2,63,29,-65,71,12,127,6,22,-11,-32,36,
	6,-70,-125,-31,1,-52,-101,87,-21,1,60,-39,-23,35,30,42,
};

// Layer: L4 (Convolutional)
#define L4_active
#define L4_type BitConv2d
#define L4_in_channels 16
#define L4_out_channels 16
#define L4_incoming_x 14
#define L4_incoming_y 14
#define L4_outgoing_x 12
#define L4_outgoing_y 12
#define L4_kernel_size 3
#define L4_stride 1
#define L4_padding 0
#define L4_groups 16
#define L4_bitperweight 8
const int8_t L4_weights[] = {
	15,-8,9,11,25,7,1,4,44,-27,-29,-36,15,-20,-108,10,
	29,-8,21,16,21,9,13,-3,3,4,5,3,-6,-4,-16,-26,
	21,9,33,-23,30,2,-128,-1,-9,-53,-14,-21,8,-3,8,33,
	28,34,12,13,29,38,16,14,1,2,12,5,-46,-68,-32,24,
	18,24,19,29,32,26,19,15,-40,16,23,-5,9,36,5,23,
	-4,0,1,7,-4,34,13,39,34,41,4,17,21,28,11,-25,
	-35,-33,-6,-21,-31,-31,18,16,6,9,17,16,-41,-23,-6,-16,
	-3,40,-1,20,30,-51,-72,-21,14,5,-33,-18,23,14,-56,-37,
	-31,-43,41,20,-46,8,6,-71,2,-1,-58,17,11,-19,-15,26,
};

#define L6_active
#define L6_type MaxPool2d
#define L6_pool_size 2
#define L6_incoming_x 12
#define L6_incoming_y 12
#define L6_outgoing_x 6
#define L6_outgoing_y 6

// Layer: L7 (Convolutional)
#define L7_active
#define L7_type BitConv2d
#define L7_in_channels 16
#define L7_out_channels 16
#define L7_incoming_x 6
#define L7_incoming_y 6
#define L7_outgoing_x 4
#define L7_outgoing_y 4
#define L7_kernel_size 3
#define L7_stride 1
#define L7_padding 0
#define L7_groups 16
#define L7_bitperweight 8
const int8_t L7_weights[] = {
	-16,-5,-21,19,-41,-22,35,26,79,-7,52,81,-8,64,71,3,
	13,-10,-5,80,20,-12,-4,-40,-39,14,-29,56,27,2,42,23,
	30,23,76,11,58,77,42,36,60,52,19,18,3,-22,-39,-50,
	-35,54,83,-32,-66,18,52,50,71,1,18,19,1,11,2,-39,
	-52,-40,-49,-13,1,35,46,64,-101,-128,-21,-37,-13,44,3,26,
	34,3,-3,15,-1,-32,15,-69,-25,92,28,11,5,104,34,20,
	48,3,-15,5,38,77,-4,11,-30,-6,4,-17,-4,-38,-114,39,
	33,-80,79,48,-21,0,-6,-5,43,25,13,96,69,62,32,41,
	89,59,99,63,114,87,65,80,9,51,1,4,20,-10,-13,-4,
};

#define L9_active
#define L9_type MaxPool2d
#define L9_pool_size 2
#define L9_incoming_x 4
#define L9_incoming_y 4
#define L9_outgoing_x 2
#define L9_outgoing_y 2

// Layer: L11
// QuantType: 2bitsym
#define L11_active
#define L11_bitperweight 2 
#define L11_incoming_weights 64
#define L11_outgoing_weights 96
const uint32_t L11_weights[] = {
	0xa2a20aaa,0x820a80aa,0x00a8a2a8,0xa228aa8a,0xf6005220,0x308b3f22,0x0a002a43,0x80ba2000,
	0x85882c18,0x1aa10ab9,0x0a210b00,0x008f0eb0,0xa58ed12a,0x80a2ff88,0x1064a222,0xa00282ee,
	0xb68e9a20,0x20002fea,0x50083c80,0x006e3019,0xbf122102,0xa00a0b70,0x388ba898,0xec8a8040,
	0x2286180a,0x68bb8a01,0xde9feccd,0x0b912864,0xb4a75802,0xce24b801,0xaa0b2822,0xcc669a41,
	0xaf0e32a0,0xf58e0bb0,0x08830000,0x4006a0ba,0x420af94a,0x0a24862c,0x2a89fa80,0xeaaaa420,
	0x01202280,0x980ca800,0x622f0a00,0x2a7fcfaa,0x9a696249,0x1022280a,0xeea1707a,0x42e0e2ba,
	0x0a225afa,0x020fb080,0xbe2a6422,0x6024cf00,0x2e8a100f,0x2b82b2a6,0x0a1502b2,0x542f4a00,
	0x0873ea2a,0x1908014d,0x988b23b2,0xbe2385fa,0x028aba04,0x4a0afaf4,0x05818ea8,0xa28fa194,
	0x0818baa4,0xa8beb000,0x2681800a,0xc422f0cc,0x82c8b1ce,0x0acc92c6,0xaa811808,0x3c84dee0,
	0x8f01e0e2,0x00ffb888,0x820100f0,0x480fe81a,0xcf2221af,0xc28a2958,0x05630302,0x222fc00a,
	0x0e932c12,0x2af88668,0x2015d2d8,0xaba33120,0xea282148,0x92152828,0xe3aa3f22,0x08ae8868,
	0x22aa2a8a,0xaa88aa00,0xa88aa2aa,0xaaaa2a2a,0x00422afa,0xa8a2faea,0x80208e22,0x242aa855,
	0xb820291f,0x6a2a0322,0x2b85e96b,0x86846fa5,0xa1b8a3fa,0xb400020f,0x4690c6e9,0x00000260,
	0xbf024a6a,0xa843277b,0xba2b1602,0x04894e63,0x2faa812b,0x80baaa5b,0xa328a2a0,0xa0fac448,
	0x1598aba0,0x70a88e0a,0x42002e0a,0x282866ce,0xb12f0a00,0x00a0206d,0x26afe60a,0x8aa0c06a,
	0xa8a0228a,0xb01b1229,0x40af86f0,0x4a021f48,0x05130ba4,0x308a282d,0x690ba8ab,0x20202889,
	0x8ab2aa0a,0x40a8e212,0x552ba0fa,0xaa0304ee,0xcc236880,0xe23c2d0c,0x20000680,0x204c894c,
	0x2aaaaaaa,0xa022aa28,0xa88a8aa0,0x2822aa22,0x288284af,0x8222fe2a,0x863fa227,0xd9230410,
	0xaaaaa822,0x8222aaa2,0xaaaaaa2a,0xa88aa28a,0xfa3411ea,0x64a7080f,0x0a1120e8,0x00640a08,
	0x2fab0902,0x19bca041,0x0aaba08a,0x0aaec88a,0x22242a82,0x0e750a9e,0x03bb0a8a,0xcc031cb0,
	0xfb0e10a8,0x54bb0fee,0x00000280,0x8402a68e,0x59ba83ac,0x0698613a,0x0e342b22,0x4a2908ba,
	0x00098b00,0x4200aa87,0x40aaeef0,0x8c0c00e3,0x3a74c0f2,0x2a089212,0x0ab3228a,0x28669a1a,
	0xa2a90800,0xe89ca60a,0xfa118408,0xa0b49f58,0xa324aa82,0xea818ac2,0xa00f00d8,0xff460c48,
	0xa1003240,0xb898026a,0xba80eb12,0xe0ec8a60,0x2b8a098a,0x12aa6aaa,0xea22015a,0x28a4a0e2,
	0x8a4430aa,0xbabf0100,0x890f2822,0x0c8c2b84,0xa0a8282a,0x22222a2a,0xa8a28aa8,0xaaaa8aaa,
	0x021a6e04,0x30b82720,0x688aaa12,0xaa2a79a0,0xa8aaa8a8,0xa8222882,0xaa8aaa0a,0x0a82288a,
	0x86b98388,0xf2a21092,0x0389e821,0x278406a4,0xa3c90281,0x88108be3,0xaa822151,0xeca70aa0,
	0x882322ff,0x04a90cbc,0x0a902a9a,0x236e2905,0x8882a2aa,0xe2320a00,0x80850a08,0x826800f8,
	0x0f0690a3,0x8e8b21a6,0x280b4a02,0x207e08ce,0x00c94e24,0x1a08a8e2,0x20a85f82,0xb50c26cb,
	0x8d6a06ac,0x14bc2d88,0x2033253a,0x5a84caaa,0x22080a62,0xfa23473a,0xbc80ca22,0x84813277,
	0x288b48bc,0x006b2ab0,0x201fae1f,0x4eac4880,0x041a20a0,0x30238880,0x620f0c88,0x0fac608a,
	0x0f83a08a,0x785e9012,0x20b4e0a8,0xf8c009e0,0xa08a28aa,0xa222a22a,0xaa82aa8a,0x08028aaa,
	0x80a88200,0x4a9b8af0,0x30b3c8f1,0xccd26a02,0x8f28a440,0x482f8a51,0xeaa0b4b2,0xa6e2e80a,
	0x274182c2,0x8e418fba,0xa00b0a18,0xec3b8e00,0x80c9a14c,0x4a1a0265,0x8aabbe09,0xafefaf62,
	0xa6288400,0x83200086,0xa7ee2c88,0xa2ada44a,0x90bc88ac,0x02a8c8e9,0x857308ba,0x0cd00280,
	0x0e22812a,0x88af88c4,0x22af5e82,0x950c0aeb,0x0181e808,0x82050aff,0xafa10206,0x888280fa,
	0xa0a690e8,0xde2428c2,0xe20b5822,0xac46c0ca,0x020ac9ea,0xeee820e8,0xd8024005,0x2e00f0ea,
	0x91c83b01,0x022209b0,0xe8bb6320,0xa81c8a6a,0x40224eaa,0x3a00909b,0x40b2c0c0,0xfe025f80,
	0x290af042,0x0a2003a5,0x28a518ea,0x050e4fca,0xaf82a088,0xd8a0002f,0xe2042800,0x8c002528,
	0x8a022560,0x82a4b1a4,0xf2bf2e03,0xa0ad005a,0x21231ba2,0x00a0b000,0x403322bb,0x86748008,
	0xa98016cc,0x0a0098c8,0x020aafa2,0xeeec0801,0x23849022,0x180ab206,0xab9f2d00,0xaa602a82,
	0x1034e8a1,0x18a9a00e,0x991823b0,0x0e8fce4a,0x0d08a222,0xb03ab202,0x4815e02a,0x8402a8e8,
	0x4f3f882a,0x0111008c,0x8da7822b,0x8aae81a2,0x2a9ac140,0xa8aab34f,0xe0a2e042,0xe084f0a2,
	0x008a82a2,0x9822a0c0,0xa89f0402,0x826222ce,0xa468e0a2,0xf8f06ab2,0x5aa008f5,0x0240f4fa,
	0x0840bbfa,0xf62e2c0c,0xa4032a28,0x02282162,0x426afaa2,0x02c8f0c1,0x8e81e2b8,0xa28ee156,
	0x0369b888,0x8fc54dc8,0xe7a8484a,0x8aa28408,0x0501e801,0x1aa9a22a,0x2ba90802,0x00a02bca,
	0xb10fac00,0x80b80e21,0x12af848c,0x0b02e6bf,0x0b26b98a,0xb2658b12,0x00b3a2a2,0xed0704c0,
	0x202802ff,0x22a0fee2,0x62328a23,0xc0a30210,0x00b00460,0x4300f190,0x8cb128fa,0x24c02042,
}; //first channel is topmost bit

// Layer: L13
// QuantType: 4bitsym
#define L13_active
#define L13_bitperweight 4 
#define L13_incoming_weights 96
#define L13_outgoing_weights 64
const uint32_t L13_weights[] = {
	0x808b0019,0x81150c31,0x819bb800,0x9f9a8bcc,0xd8818190,0x91a018a0,0x09981289,0xab1da108,
	0xe2842dd3,0x018a93ba,0xb3190902,0x0202d828,0x8a9c1090,0x8282cca0,0x20ab018d,0xcc0cac0a,
	0x198a0891,0x1ad1048a,0x800820ab,0x88d30280,0x211362a9,0x001aa13b,0x338fb920,0xc249a3f2,
	0x0a2f99bc,0x28ba8233,0x10491088,0x2828808a,0x01018a98,0xc6019f18,0xa8300922,0x0a119930,
	0x93f0ccc3,0x80085802,0x9d132c82,0xa1c0c2e2,0x8b3d2a71,0x1ada98c0,0xc09c2a91,0x01c28b82,
	0xaa8f012a,0xc899d0a2,0x08281842,0xab29d8a0,0x38e1c190,0x8d3b31c1,0xba28d8f0,0x4898aee2,
	0x0b039dc1,0x199a4338,0x85291088,0x95ca0022,0x181281ba,0x158a9cf3,0x00b0b8b2,0x880c2ca8,
	0x0a9d8491,0x449c0104,0x0f080894,0x010a1d12,0x0191c0bb,0x40a99c08,0x0489cc8e,0x241ba20b,
	0x308b90d2,0x1a133028,0xa0a022c1,0x98121b40,0x139a8330,0x9a932ada,0x8da21190,0xd128c411,
	0x08ebc4a1,0x01c1819d,0x0201210d,0x8013c409,0xb3000200,0x01123891,0xb0a0a008,0xbd390839,
	0x029cb809,0x2990b398,0x9a11918a,0x018023c1,0x04007911,0x0c2b8b32,0x99afde01,0x80ef6aa4,
	0xa90b830a,0x983dac89,0xc9382408,0xf8d112c8,0x1c122888,0xb1ba2aa1,0x81181bb6,0x98912ab1,
	0x0832bfa1,0x89832daa,0x018d1981,0xa0cc2502,0xc00980a0,0xb98a0908,0x28908200,0x334bb0d8,
	0xa0bb8010,0x082a0b81,0xe822bb29,0x4a004991,0x8235aab3,0xa010513b,0x9b00a889,0x6b08f1c1,
	0x9802090c,0x7ab82c11,0x3098bc90,0x8a20aee8,0x88e59100,0x3a992a82,0xb0a213c4,0x89929012,
	0x882fc080,0x800a8189,0x1180410a,0x03b02523,0xf3028901,0xa0090510,0x90388a30,0x98199890,
	0x0d8bfbc3,0x91840aa8,0xce8109b2,0x5902099d,0x118a0981,0xb12ac94e,0x98a2120b,0x82a1b11d,
	0xa21a041b,0x44aaa0b1,0xd8991911,0x28101c10,0xe01a201a,0x2199b199,0x0b1b3a0c,0x813a2a18,
	0x88ac48d1,0x912b9041,0x0c121282,0xb712008a,0x928c842a,0xd2928c8c,0xb0280d62,0x4a8a8b81,
	0xf02a1f9b,0xd39b0028,0x98401b88,0x93399ad0,0x0390428c,0x1019b299,0x2c289201,0xa21d128c,
	0x188f034a,0x6b38c988,0x30203010,0xc1c11100,0x102aac1c,0xc8bc90aa,0xb142b182,0x481879b1,
	0x92c10d81,0x2d0a8aca,0x3ffe9815,0x921f4233,0x898c00a2,0x8bd08119,0x284080a2,0x08920380,
	0xdf1b0fa8,0x2839b804,0x1093d822,0x4198591e,0x8d1b9a1a,0xa29ac030,0x8b113812,0x099081a3,
	0x8a088a97,0xb32db188,0xd029195b,0x20a1a100,0x90018a93,0xa810b192,0x0b213800,0xc410c180,
	0x812a4b8c,0x00ab99a0,0x808f3011,0x181c3821,0xbb0b092a,0xaa28cf82,0x60202981,0x3af24218,
	0x00129039,0xc2003aac,0x40b98813,0x89d019d0,0x82042884,0x19a8131a,0xb1120191,0x21cfa890,
	0x02948881,0x4999a183,0x08890100,0x293a1aa0,0x1a5b9328,0x358a9031,0x998889a2,0x5b3d9348,
	0x0080dbb3,0xa9a12bbb,0x818ddf81,0x928bd989,0x331a01d0,0x03a21a10,0x88b020d1,0x1821c900,
	0x010b9402,0x29208991,0xbb009b02,0xa9009424,0x8c890840,0x92ab0814,0x390c2904,0xad2820c1,
	0x0a810a01,0xf9380abb,0x91088810,0x8081d910,0x40990399,0x99020912,0x8023219c,0xb42103c3,
	0x88128fa1,0x081c1829,0x3b801089,0xb2e10645,0x10890003,0x1bf00018,0x9001da90,0x283b9988,
	0x82e82019,0x198a0803,0xb9900033,0x00007a21,0x98808a08,0x88899989,0x90800089,0x08008989,
	0x88080800,0xa9980998,0x88888990,0x8a988a88,0x88989889,0x98a00900,0x80999990,0x89998998,
	0x82b94319,0x600912ac,0x894ea49a,0x203d8950,0x0a199236,0x8d0101a9,0x90189308,0x09911118,
	0x70083989,0xcc90a81a,0x02ac8988,0x1e9833c0,0x0180a093,0x0181a818,0x8bc8118a,0x0b30b1b0,
	0x98838981,0x9aa82138,0x981811da,0x9980c938,0x931881a0,0x89019101,0x82028328,0xbab0c309,
	0x888989e1,0x1016181c,0x29009318,0xcc9a8d8a,0xf08389f3,0xa3392082,0xa888b3b2,0x891f8d89,
	0xe1329bb0,0x2328b088,0x09328808,0x8000d023,0x92012282,0xb2089818,0x09c8368b,0x0b030190,
	0xa0000b10,0xb0092839,0x282918cc,0xbdb48200,0xc9035b89,0xdaa09028,0x00102098,0xbb819198,
	0x11830943,0x00325b28,0xc2990f84,0xca100c38,0x8b060389,0x4b822200,0x28110209,0x3baa0290,
	0x4922aa29,0x0401cbeb,0xa519802d,0x229af13f,0x13b52123,0x2c1829bc,0xa8c2a808,0xb3301150,
	0x82088239,0x1ba15199,0x00a992ba,0x2499c8c8,0x4d29119f,0x0948c00a,0xa3cc9a0e,0x1aab0abb,
	0x80c2c288,0x41aba919,0x1ba23281,0xb883e2a1,0x8104899b,0xca2c0132,0x880810be,0xfeb99881,
	0xa9de0aa1,0xd122d20d,0xa9a51211,0x99baa23f,0x8a31bb9b,0xa248abf8,0x13805288,0xa2cb4910,
	0xd18b19a0,0xb8c9b20a,0x01889a18,0x031b3388,0xaea29183,0x81013a2a,0x2980db03,0x1c130a9c,
	0x9a8b1171,0x91aecba2,0xa181389a,0xc282e119,0xc2130d3b,0xa82fb912,0x8098388a,0x91a9f018,
	0x429210c8,0xad19a29c,0x401fa1af,0xb10bdee0,0x08d88920,0x01ac6320,0x2d182b01,0xb23230c2,
	0x4c810a21,0xa3191f99,0xb9008f0a,0x48c99000,0x98c8bb9b,0xd08b1a94,0xd0132119,0xc1b9bbb0,
	0x0d2ca230,0x9910a823,0x9254910a,0x8191d830,0xa200112c,0x8811c888,0x2199992b,0xac59b888,
	0x43a2121e,0x8a2e881c,0xa02888ba,0x840ab2f1,0x81b02881,0x109aab88,0x19080980,0x92802003,
	0xb000183b,0x0a1ddb08,0x58392099,0x02b23188,0x8a88c908,0x8428b019,0x38849213,0x4b88092d,
	0x09218dba,0x0e000200,0x9005a484,0x0c8c81f8,0x100a0c8d,0x02a9da92,0x3890f902,0x84016290,
	0xa8983321,0x812d8850,0x29dd2b80,0x31383981,0x8182890b,0x30060ca8,0x100ccb09,0x09814aa8,
	0xd98302b9,0x3a01a891,0x800023b8,0x0a3db2a8,0x85318b03,0x01a812a9,0x02938224,0xb1021230,
	0x00b181e8,0x0b3c209a,0x9110e880,0xa0281b49,0x5a8383b0,0x1903a98d,0x00a891ca,0x45238018,
	0x22000438,0x9a321c31,0x43bdcc1b,0xcac01320,0x09321318,0x080a88b0,0x9110220a,0xa9001d0c,
	0x08091888,0xd838890c,0x900003bb,0x14b8d118,0x48023403,0x90183189,0x222cad88,0xda91c198,
	0x8a2c39bb,0x491da836,0x10190413,0x2e012b89,0xad988c4a,0xe90cbda1,0x0828eaa2,0x90b11019,
	0x2392ba00,0xc1ad3938,0x0b905192,0x829bb4b0,0x0b20f289,0x8d928dab,0xa41c0a01,0x3bac8a8a,
	0xfa0302e1,0x40b888d2,0x88c88898,0xb92ec0b0,0x9128e9d3,0x010902ad,0xfaa99912,0xa9339112,
	0x00a3410a,0x8202c881,0x99119a06,0xb8d84889,0x69838918,0x213ac849,0x48002830,0x00f34288,
	0x29443093,0xa111eb9b,0x68598bd2,0x38194058,0x0aa91510,0x89111ba2,0xa120aa93,0xb0a91092,
	0x80811b1b,0xf14ccd02,0x411082b9,0x981a0110,0x20081589,0x902bd829,0x4289988a,0x3809aa22,
	0x81c9ab12,0x1a0083b8,0x30888917,0xa88098ea,0x8a840888,0x1fb181b0,0x10a811c4,0x12aceb90,
	0xa20ceb13,0x32b09082,0xf4811821,0x8010012b,0x831398bd,0x01230aab,0x01c89a8a,0xb02b1a9b,
	0x1a1880d4,0x2311182b,0x918020c9,0xe8918900,0x199343a5,0x8a32b1a9,0x394a88aa,0xb003c911,
	0x04882341,0x808a20b0,0xb089100a,0x393b0911,0xa88a095c,0x181dba24,0x11292832,0x2d822140,
	0x8b019b2b,0x8ca29a08,0x32a90888,0x88da2dd8,0x0ca18981,0x981a3015,0x11139192,0x90a49949,
	0x40009210,0x3b14198c,0x98b8ae10,0x8303ca88,0x2098220c,0x88998901,0x0a11080f,0x35092231,
	0x01082892,0x3108a91a,0x1901288a,0xa90f8910,0xa78a11b2,0x83a22310,0xa8204228,0x992ab418,
	0x08813822,0x80318219,0x19228ba3,0x013944d2,0x981a1399,0x21a00998,0x09d9181a,0x0810c114,
	0xb188001f,0xa8b9403a,0x08408328,0xc3939280,0x0890dfa1,0x8b311010,0xc9ca280a,0x8bc8ee99,
	0x01b09222,0x0c882192,0x92a89288,0x9a18a081,0x3a8c8949,0xbea202a8,0x28102180,0x09034480,
	0xad28443f,0xb88abc12,0x42888d31,0xa81b04b9,0x09309402,0xc028112a,0xc0a31708,0xa8b11030,
	0xa1828901,0x8061143b,0x01a889a0,0x898bbc10,0x0142a1b8,0x1a131880,0x3a388bab,0x1ab98a20,
	0x0b838be8,0x9a4c0a02,0xb290fd81,0x90bc3809,0x7e0189f3,0x80238899,0xb980281c,0x23038811,
	0x20211590,0x80859aa2,0x112ba3aa,0xe018051b,0x8882919b,0x30eac282,0x80003a0a,0x19001898,
	0x1882089a,0x984a9e18,0x001802d9,0xc0981849,0x28a9f881,0xc9b141c1,0x8e9422a3,0x8cdaa48c,
	0x0899a258,0xb08eb9c2,0x9999810b,0xa841a220,0x4c818b48,0xcd7da902,0x30001bab,0x22812038,
	0x4803102b,0xada11a9a,0x239b938c,0x49d81120,0x010308b9,0x8201e489,0x09852289,0x9923d08e,
	0x8217001b,0x350cb088,0xf0a8c8ab,0x3a181a39,0x088a1b18,0xa2918328,0x3d922029,0x909d8379,
	0x08a3c191,0x82a80592,0x31403881,0x2c21c808,0x83000219,0x79a04808,0x20a8b98c,0x8a08c828,
	0x13d1b8b8,0xa301938a,0x019493a8,0x80903892,0x8f0bb21a,0x3a288b91,0x1213a819,0xbb569821,
	0x00800078,0xda93a99a,0x401998a0,0x43001121,0xa2c9c94b,0xb8103811,0x332a8819,0xebc0d90a,
	0x82842c82,0x009aa142,0xc090a815,0x31b19211,0x30011400,0x3b85088b,0xb8802930,0xbf1b1918,
	0xa10b8991,0x80f010b2,0x100310b9,0x81b03242,0x0adc052b,0x48c8999b,0x30112a1b,0xa218080b,
	0xd00a808d,0x232b9181,0xa890a813,0x1a880020,0x391bdfa8,0x941cc2a8,0x9aa22800,0x531a3f9c,
	0x831248c9,0x018a4129,0x98dab019,0x25cf2382,0x808d022c,0x40a80021,0x00901152,0xd8013b81,
	0xac8998b1,0x103ab8c0,0x8d902c22,0x389a00ba,0x010138c1,0xb1899dc3,0x20c93099,0x8e09b3c9,
	0x09118910,0x19cb2202,0x9129902c,0x80b4a088,0x8da03090,0x12b8a240,0xa3aaa439,0x8c229188,
	0x0b1b909a,0x29089198,0x08429280,0x82ab2a82,0xc28808ab,0x0113d0a0,0x30009003,0x232b02a1,
	0x89bc8910,0x218a2159,0x92a01802,0x510818aa,0x998d11b1,0x9abe38d4,0x24888f00,0x28924d90,
	0x9b0d0089,0xe82308a0,0x18080294,0x39b91050,0x21a9e9aa,0x9ac378a2,0x99920cc1,0xa888d9f8,
	0x80261bf0,0xc030892a,0x3b132088,0xdbb81891,0x23018e90,0x92b2214d,0xb011d900,0x110d0881,
	0x98290901,0xb9281928,0x89329a0b,0x38928188,0x90092a11,0x28089c0b,0x8082100d,0xd28b082a,
	0x148e08d8,0xb1b1341c,0x908031a0,0x9aa09808,0x08322198,0x9830c81b,0x8b129aa2,0x012bd3c1,
}; //first channel is topmost bit

// Layer: L15
// QuantType: 4bitsym
#define L15_active
#define L15_bitperweight 4 
#define L15_incoming_weights 64
#define L15_outgoing_weights 10
const uint32_t L15_weights[] = {
	0xbfdd98e4,0xccdd121c,0x2a088808,0xc1aec8c1,0xa292ea1d,0x21f84a90,0x20bc4bb2,0x9d309c01,
	0xa9cf3cdc,0x3208d0db,0xf22c399c,0x8cabbca8,0xc8aa2e98,0x71acb3ad,0x21b13828,0x4ca0bb1a,
	0xa8ad08ac,0x2a1c8d6c,0xa9c938c0,0x99dbe3d9,0x324002eb,0xd33db100,0x9bab9dc4,0x9a312a39,
	0x31098808,0x0b2c9dbd,0xc029cab2,0x4b4192ea,0x9ba39897,0xe93a8b89,0x0d899d98,0xab818c99,
	0x8018db24,0x88943901,0x9bd308a8,0xb0c989b4,0x1a9dab1f,0x9a8d939e,0xc0a9b229,0x88dca30a,
	0xa80ea51a,0xbef9aa0a,0xc931b920,0xb953a818,0x8cd909c0,0xab93ba12,0x183cbfa0,0x3b0f99c2,
	0xd0d629c8,0x1ecbbb81,0x0b939829,0xd9acca69,0x3dd8331b,0x12a221a8,0xc15d2c88,0xbf8cbd9b,
	0x90193a8e,0xa0232580,0xe29c08af,0x2acccae2,0xc029accc,0xeaae2e00,0x9ac1d18b,0x953820a8,
	0x1488bcdb,0xda3ba8a3,0x81b9c811,0x33c1a0a1,0x08ea00cc,0xb9c2c01a,0x33d8bac9,0x0ed39832,
	0xaa28e120,0xa588b990,0x4a9aa8e1,0xb2835b9d,0xa199a04c,0xbd998c91,0x90a4a31c,0xa8d103c9,
}; //first channel is topmost bit

#endif
