// Automatically generated header file
// Date: 2024-04-19 16:57:41.096677
// Quantized model exported from a11_Opt12k_cos_BitMnist_PerTensor_2bitsym_RMS_width16_16_0_lr0.001_decay0.1_stepsize10_bs128_epochs60.pth
// Generated by exportquant.py

#include <stdint.h>

#ifndef BITNETMCU_MODEL_H
#define BITNETMCU_MODEL_H

#define MODEL_FCMNIST

/*
Total number of bits: 9024 (1.1015625 kbytes)
inference of quantized model
Accuracy/Test of quantized model: 94.22 %
*/
// Number of layers
#define NUM_LAYERS 3

// Maximum number of activations per layer
#define MAX_N_ACTIVATIONS 16

// Layer: L1
// QuantType: 2bitsym
#define L1_active
#define L1_bitperweight 2
#define L1_incoming_weights 256
#define L1_outgoing_weights 16
const uint32_t L1_weights[] = {0x8022800, 0x88000, 0x800a888, 0x8aa000, 0x28aa00, 0x8a2282, 0x22aa2808, 0x882aa8a0, 0x82a02a00, 0x828aa20, 0x282a2a2, 0x28aa282, 0x202a82, 0x82202082, 0x20000000, 0x202020, 0xa02aaaaa, 0xa010aaa0, 0x85522ba, 0x81002aa, 0xa929682c, 0xa112d288, 0x2bfff2b8, 0x2ffffcb0, 0x8fcaabf0, 0x8491abe5, 0x4418054, 0x84559154, 0x95908556, 0x80008554, 0x2ffc2f00, 0xaaaa0a88, 0x200, 0x8100f80, 0xa0aea8, 0x2feae88, 0xbf9b23c, 0xb8b5bfc, 0xbfe53f0, 0x3fc63e5, 0x2111f14, 0x17c55, 0xb013554, 0xb45fa94, 0x5ab2fc0, 0x5aa8780, 0xffa82, 0x20aa000, 0x80800800, 0x22000aa2, 0xaaa150a8, 0xba0567a, 0xaa28652, 0xba0251e, 0xaaaf91e, 0x2c29be14, 0x2054f005, 0x2157d154, 0xa95fa854, 0x215ffa50, 0x8183fe2a, 0x2e00eff8, 0x2abfff2, 0xa08a8a0, 0x2220a2a8, 0xa00154aa, 0x800554f8, 0xa088003a, 0x8501227e, 0x43f957c, 0xbff51ba, 0xaffd02f2, 0xabc14a22, 0x15093016, 0x95be9418, 0x954ba82a, 0x438a9aa, 0x40a83e8, 0xa1558ba2, 0x22aaaa08, 0x882a00, 0xabfffa2, 0x2fffe80, 0x288a280, 0x8a82800, 0x8a80c2aa, 0xae1410bc, 0x945107e, 0x855294b8, 0x2153164e, 0x2848b8, 0x2bfffaf0, 0xbffffa0, 0xaabea00, 0x50ba848, 0x80004000, 0x22000, 0x28aeb800, 0x2aa28c10, 0x8802aa14, 0x294efa14, 0x847d514, 0x2814cea0, 0x8515ea4a, 0x604a01a, 0xae090a1e, 0xac01298c, 0xae0a82e, 0xab2a8028, 0xba5412a, 0x2afbef80, 0x2bffe80, 0x8010000, 0x154800, 0x8010a888, 0x2c2aae, 0xa0aabe, 0x228c5bbe, 0x2ab9000f, 0x8e80e212, 0xc93e010, 0x2197f114, 0x2159604, 0x6156028, 0x2a013f8, 0x848bffa, 0xabfffe8, 0x202ba200, 0x8a000000, 0x152000, 0x82008852, 0x228fefd0, 0x80aefff0, 0x2aaafebe, 0xbe2beebe, 0xac050856, 0x81151054, 0x9045556, 0x29445554, 0xa222022, 0xb80ebfa, 0x2efffb0, 0x8bfbfe0, 0x22affea0, 0xaaaaaaaa, 0xaaa882aa, 0xaaa2828a, 0xaaa0a212, 0xaaa0a882, 0x2a52226, 0x9015f052, 0x9157ff92, 0x850fff12, 0xa00ffa1f, 0xaaaff06e, 0xaa20a82a, 0xaba5540a, 0xaa80102a, 0xa855450a, 0xaa0000aa, 0x22208282, 0xaa000102, 0xae91002, 0x2ba889a2, 0xaea82a14, 0xae85fa88, 0xbd557010, 0xac294814, 0xaa80bf0, 0x2e902fe0, 0xae15aa92, 0xae12a052, 0x2828200a, 0x2b808108, 0x2fa010aa, 0xa2802288, 0xa82aaaaa, 0x2a8afa80, 0xa014ff82, 0xaa855ab8, 0x8fa150bc, 0xac01522e, 0xa540214a, 0x50e015a, 0x82f8a03a, 0xa3a2caea, 0x2a96a008, 0xae0ee880, 0x2820afaa, 0xa8aaaa52, 0xa155554a, 0xa015550a, 0xaaaaaa8a, 0xa2aa050a, 0xaa244656, 0xa0000556, 0xaaa05014, 0xaa01fffc, 0xa2012ffe, 0xaaa920fe, 0x8a008052, 0xabfee116, 0x85bfc152, 0x856ea25a, 0xa200281a, 0x20828a88, 0xa1555a0a, 0xa20aaaaa, 0xa8a200, 0x802aa820, 0xabfff80, 0x21008eaa, 0x550a00c, 0x1505500c, 0x1500527a, 0x13bfcaf1, 0x8fffc555, 0xafac0054, 0xa802294, 0xba03ff0, 0x2faabff8, 0x13baff0, 0x24000bfa, 0x2a0a1408, 0x20080882, 0xa02aebea, 0x82bffff8, 0x82e8bff8, 0xb880154, 0xba81555, 0x8082f55, 0x8a013ff4, 0x890fff8, 0x58282e2, 0x896a00f8, 0xac0aa802, 0xaaaaa880, 0xb82ba90, 0x2aba8550, 0x8a00820, 0xa882aa0, 0x8002e0a, 0x25400ffa, 0x5a08ff0, 0x848a6bfa, 0x4fd5bfa, 0x3e56fe8, 0xb112fc0, 0xa0f0a50, 0x8bff7810, 0x2baf6850, 0xe0e5400, 0xe0a8528, 0x82a4a0, 0x8283000, 0xaaa080};
//first channel is topmost bit

// Layer: L2
// QuantType: 2bitsym
#define L2_active
#define L2_bitperweight 2
#define L2_incoming_weights 16
#define L2_outgoing_weights 16
const uint32_t L2_weights[] = {0x10922988, 0xbf394a2d, 0x3844766, 0x182c6013, 0x321388cd, 0xaf609844, 0x3907b582, 0xb6def070, 0x274bd891, 0x84b234c9, 0x15682aa9, 0x29b114bb, 0x2c953bfc, 0x2c64f138, 0x80e08867, 0x981dcdb};
//first channel is topmost bit

// Layer: L3
// QuantType: 2bitsym
#define L3_active
#define L3_bitperweight 2
#define L3_incoming_weights 16
#define L3_outgoing_weights 10
const uint32_t L3_weights[] = {0xbefee925, 0xcbb856ab, 0x29abc6aa, 0x9ada339f, 0x337aa86e, 0xc6dabae7, 0xd0fecd33, 0x382b6bbd, 0xe2e6c89b, 0x6f21be88};
//first channel is topmost bit

#endif
