// Automatically generated header file
// Date: 2024-04-18 12:15:36.973737
// Quantized model exported from a11_Opt12k_cos_Aug_BitMnist_PerTensor_4bitsym_RMS_width64_64_64_lr0.001_decay0.1_stepsize10_bs128_epochs60.pth
// Generated by exportquant.py

#include <stdint.h>

#ifndef BITNETMCU_MODEL_H
#define BITNETMCU_MODEL_H
/*
Total number of bits: 100864 (12.3125 kbytes)
inference of quantized model
Accuracy/Test of quantized model: 99.00999999999999 %
*/

// Number of layers
#define NUM_LAYERS 4

// Maximum number of activations per layer
#define MAX_N_ACTIVATIONS 64

// Layer: L1
// QuantType: 4bitsym
#define L1_active
#define L1_bitperweight 4
#define L1_incoming_weights 256
#define L1_outgoing_weights 64
const uint32_t L1_weights[] = {0xba9b9999, 0xaa8a9aaa, 0x9aa9a888, 0x8aa99ba, 0xbba9a811, 0xa889aaaa, 0xbbaa9019, 0xa88a989, 0xa9989000, 0x9a8a9a, 0x9b809888, 0x18a88999, 0x980180b8, 0x30809ab9, 0x800a01cc, 0x901101bb, 0x133448d, 0x8a008809, 0x133774c, 0xc988a80a, 0x90826759, 0xaaab8a89, 0x82114741, 0x89aa0900, 0x3121322, 0x10000121, 0x82222111, 0x1120230, 0xa8040000, 0x22319, 0x99908888, 0x2132089, 0x801012, 0x9001881, 0x11101231, 0xdd121801, 0x8282668, 0xff549a88, 0x808a857b, 0xfa51cc81, 0x8809b57c, 0xf44cd811, 0x118ba37c, 0xd69fb133, 0x8a9a079, 0x80cc1100, 0xccccb01, 0x18023000, 0x8bca9808, 0x88121010, 0x9032101, 0x9190132, 0x11238918, 0x9800011, 0x108082, 0x80888802, 0x108b8901, 0x11088881, 0x10898092, 0x82800008, 0x81808188, 0x90108890, 0x80088991, 0x88a88088, 0x23424142, 0x42433213, 0x12111100, 0x10011243, 0x22109212, 0x8990212, 0x11101012, 0x99b88912, 0x20801810, 0xbb818912, 0x81888, 0x80188000, 0x18999a81, 0x80098022, 0x1989a901, 0x11991114, 0x10a98019, 0x12081312, 0x19890219, 0x90100032, 0x18803542, 0x11318021, 0xbea8011, 0x23522888, 0x19deecb9, 0x9a8909b8, 0x8beffff, 0xffffdc80, 0x108bdfff, 0xffffc801, 0x310089aa, 0xbab88112, 0x11109891, 0x188, 0x8019008, 0x88080008, 0x88088818, 0x880200, 0x88880801, 0x81980111, 0x888088, 0x80008909, 0x80101000, 0x90008981, 0x12208808, 0x88000011, 0x882399a9, 0x99000212, 0x88157761, 0x80808, 0x9ceb9036, 0x18098900, 0xacffffff, 0xb8908888, 0x99cffffa, 0x180198, 0x1454443, 0x80800, 0x1565430, 0x80098, 0x10820890, 0x89010000, 0x9bb88, 0x99988900, 0x31112018, 0x8888110, 0x21089aaa, 0xcffcb902, 0x18acfbdc, 0xfffa8011, 0x28cfffff, 0xea901981, 0xabdbcff, 0xf8881081, 0x9b08ceb, 0x332009a0, 0x28b91167, 0x72888ac9, 0x280a8122, 0x29808888, 0x20999089, 0x89322548, 0x1101009a, 0x81101443, 0x10010180, 0x8001401, 0x2000222, 0x1210002, 0x11888188, 0x88998822, 0x10210811, 0x888a8343, 0x13443011, 0x10125452, 0x12212223, 0x31446522, 0x12232423, 0x10301001, 0x21001109, 0x80810001, 0x129aa818, 0x91108180, 0x20999080, 0x8088080, 0x9810100, 0x80118, 0x809089, 0x800012, 0x19800888, 0x189aac81, 0x10889, 0xbab88921, 0x1108223, 0x21323533, 0x8001246, 0x77775463, 0x89889911, 0x46763421, 0x8aa98bde, 0xfeedbdc8, 0x8cb8089b, 0xefffffd9, 0x99a90a00, 0x98abbcb8, 0x188a9990, 0x10098901, 0x1808110, 0x1811000, 0x1088802, 0x429a9001, 0x20009a05, 0x72efd800, 0x8899a9b4, 0x72fff821, 0x18880ac4, 0x70ffa542, 0x11089ac3, 0x7bff5553, 0x800110b1, 0x7df45323, 0x11898081, 0x3e842089, 0x18a88890, 0x891189a9, 0x18000090, 0x81009988, 0x210080, 0x10088081, 0x89098091, 0x911118, 0x908080, 0x10099089, 0x881800, 0x81818988, 0x10020800, 0x88009a90, 0x10808808, 0x8088801, 0x18100090, 0x1088181, 0x9a989112, 0x9898a9, 0x98002533, 0x2200989a, 0x80024545, 0x31099988, 0x98254313, 0x43298808, 0x90120354, 0x57542112, 0x88100018, 0x21454534, 0x99a9aacf, 0xcd920120, 0xaabdcccb, 0xb0128a00, 0xa9bab999, 0x9880889a, 0x9aab9118, 0x8aa9808a, 0xa9988888, 0x98898889, 0x802001, 0x89a9aa9a, 0x9002002, 0x809bca8, 0x9029900, 0x80198b98, 0x98889aa8, 0x8809a98, 0xa8a889ac, 0x9a8a8aa9, 0x88912221, 0x8989980, 0x9103352, 0x10001018, 0x88889042, 0x32120121, 0x8aa99b02, 0x20181332, 0xadfecdc2, 0x51022331, 0x9dffffff, 0x33898823, 0x8cffffff, 0x22809001, 0x89822bc9, 0x11102890, 0x14775219, 0x90899091, 0x36722238, 0x8099908, 0x2110210, 0x88898808, 0x10009122, 0xb0009888, 0x88080808, 0x99981000, 0x8009898a, 0x80911080, 0x8a9809, 0x89808018, 0x80a8989, 0x80110000, 0x90080809, 0x89808988, 0x81001001, 0x8100008, 0x8080024, 0x42220000, 0x98880376, 0x64332128, 0x813648, 0x98012100, 0x82232aee, 0xb9266400, 0x809bddb3, 0x3431bba8, 0x88aeca22, 0x19ceffc9, 0x9bba9181, 0x1bfcdeba, 0x90180190, 0x9b0818b9, 0x10129ba9, 0xa8820099, 0x10118908, 0x9031288, 0x88280909, 0x8121808, 0x8180881, 0x10800008, 0x89892398, 0x93100990, 0x8819a988, 0x8a808918, 0x12000021, 0x8098000, 0x1889818, 0x9999812, 0x89a810, 0x10cba880, 0x219b9128, 0x28cc9900, 0x20890888, 0x23aba801, 0x2300098b, 0x27cfbb81, 0x1433228c, 0x77bffa11, 0x33321080, 0x77ff8120, 0x21008882, 0x7bfb3118, 0x1890083, 0x2ca80001, 0x8812183, 0xa011a01, 0x210100, 0x1101801, 0x10800a, 0x90808, 0x880989, 0x8202110, 0x21188900, 0x88909888, 0x20800811, 0x8010002, 0x8899aa, 0xa9900810, 0x89aaba, 0x98923201, 0x9aaba9, 0x15567631, 0x9998815, 0x67767621, 0x88980246, 0x49cba088, 0x811118b, 0xfffffdc9, 0x9911319a, 0xc8209dcb, 0x888b0a98, 0x89984288, 0x89988880, 0x10818031, 0x99099880, 0x12410231, 0x89a01899, 0x81001111, 0x1001, 0x10011011, 0x8088120, 0x18880a80, 0x80988988, 0x8980aa90, 0x80080908, 0x88819981, 0x11800100, 0x8a98800, 0x22180000, 0x8121110, 0x12000888, 0x80000181, 0x1188180, 0x90011001, 0x11010888, 0xa8099008, 0x12800009, 0x91008, 0x10098298, 0x18991080, 0x10198890, 0x10998a90, 0x81018, 0x21a0a98, 0x800120a, 0x832a8888, 0x988089c, 0x36091191, 0x101211ea, 0x72ba0082, 0x121109f5, 0x73999120, 0x800aed5, 0x749bb812, 0x899ced84, 0x520acb02, 0x18aefc83, 0x75299911, 0x8aa804, 0x55299822, 0x88988aaa, 0x98801218, 0x80108bdc, 0xcca14310, 0x11109bb, 0xdfe83421, 0x11123bb, 0xffe81328, 0x1201311d, 0xffc00220, 0x1222245e, 0xffb22110, 0x1029035a, 0xfe100889, 0x880a9038, 0xa3430899, 0x8999a80a, 0x90119808, 0x80a98028, 0xa8ba8900, 0x9b90111, 0x80090020, 0x80028208, 0x1211220, 0x1012380, 0x8011180, 0x91002000, 0x8988099, 0x80101101, 0x82888088, 0x98910008, 0x81001808, 0x8809, 0x221100, 0x8000899a, 0x88111011, 0x1010110a, 0x98210011, 0x122021b9, 0x880901, 0x22801890, 0x88001991, 0x11180122, 0x9a8a9090, 0x2456403, 0x2a989980, 0x240bef2, 0x59012321, 0x80bfff17, 0x1a280808, 0x9bfff376, 0xda899080, 0x9cef8779, 0xc9899218, 0x9ac9132a, 0x80008100, 0x98a10011, 0x19801188, 0x819001, 0x9808808, 0x8018, 0x8081888, 0x888880, 0x189018, 0xaaaacba9, 0x989989b, 0xa9abad88, 0x110908aa, 0xbabbaa91, 0x11812000, 0xabaabc83, 0x12332118, 0x9b080ba8, 0x8b803000, 0xa901018a, 0xdab80188, 0xa8232444, 0xa8100898, 0xb9220375, 0xbba01889, 0xbbacb913, 0x9bb98989, 0xa9abba15, 0x11810988, 0x89883433, 0x11018b99, 0x81188223, 0x988aa88, 0x90201211, 0x10818918, 0x91204120, 0x12220019, 0x98013202, 0x26340189, 0xb8000111, 0x3521199a, 0x99a99aa8, 0x8990899a, 0x9a899889, 0x89aa8808, 0xa8888911, 0x88899119, 0x98098122, 0xaa02211, 0x80000233, 0x21431, 0x1101555, 0x32333363, 0x14122463, 0x321232, 0x92344898, 0x80008018, 0x911219a8, 0x100a8809, 0x98190802, 0x89888aa, 0xba988112, 0x80818089, 0xaa998880, 0x8001089b, 0xb9a0998b, 0xb8890aaa, 0x99009988, 0x899a99ba, 0xba80a988, 0xa899baaa, 0xbaa8889a, 0x89a8898b, 0x88890008, 0x88080908, 0x1001880, 0x8880a80, 0x18989909, 0x88891891, 0x890800, 0x88009880, 0x8900098, 0x8890a898, 0x18088908, 0x98008890, 0x811109, 0x8808899, 0x89aa98, 0x9a888a9a, 0x110dbcca, 0x81809898, 0x4777774, 0x10188, 0x80167777, 0x31111800, 0x98bcfdbb, 0x81128020, 0x89dfffec, 0x80990828, 0x9b88131, 0x8880108, 0x18133308, 0x80810080, 0x1131001, 0x8080811, 0x890899, 0xab989889, 0x98088890, 0x880a9880, 0x80808888, 0x88981010, 0x89008800, 0x89888028, 0x9208888, 0x88802821, 0x8928918, 0x8100110, 0x9bb98990, 0x282200, 0x9cfeffff, 0xffdebecc, 0xaabaaabc, 0xeefffffd, 0x233531, 0x80bccffb, 0x34545444, 0x22232298, 0x23422235, 0x46645743, 0x22319181, 0x83335651, 0x10208221, 0x9024311, 0x100890, 0x30898008, 0x8010011, 0x1880080, 0x98008180, 0x11211080, 0x8123241, 0x22342110, 0x81121211, 0x1312111, 0x2231211, 0x13111081, 0x81110101, 0x19888, 0x12201021, 0x1908a990, 0x88081984, 0x54411008, 0x89018822, 0x44434089, 0x89115643, 0x23230a98, 0x9ab90311, 0x88aaa888, 0x9acbaefe, 0xccda9988, 0x9819cbba, 0xaccc9aa8, 0x18000a, 0xbbba9ba8, 0x88980a9b, 0x9abbaa99, 0x98089ac, 0x98ab99a9, 0x880889ab, 0x89baaa88, 0x21121111, 0x20118802, 0x13188088, 0x89810211, 0x108a9180, 0x81188100, 0x998880, 0x121900, 0x899990, 0x18111080, 0x18810111, 0x8882, 0x808220, 0x9a819b80, 0x28998209, 0x9808bea1, 0x31898881, 0x122bff91, 0x10800014, 0x52affd91, 0x10182476, 0xbfea110, 0x2922102f, 0xffc91100, 0x21bff, 0xfd221201, 0x8fff, 0x94418000, 0x108aefa, 0x14180110, 0x219aaa2, 0x43000022, 0x88009889, 0x19808018, 0x899098a, 0x88908010, 0x18988189, 0x8889880, 0x8888800, 0x80009812, 0x8008808, 0x10a00081, 0x11080800, 0x10081810, 0x11800898, 0x80098889, 0x9001090, 0x82188088, 0x11898808, 0xa210a900, 0x8998a01a, 0xb3309a88, 0x99a9843d, 0xf4409da9, 0x9982249f, 0xf4522bb9, 0x102153cf, 0xf354609a, 0x23432cff, 0xd4347198, 0x22afff, 0xc3474308, 0x1000afff, 0x81453211, 0x12121200, 0x80812132, 0x313218a9, 0x80912222, 0x32110a00, 0x3382122, 0x1210999a, 0x12112180, 0x13109199, 0x23109a98, 0x28081099, 0x4418aba9, 0x8899c82, 0xc073889b, 0x20018902, 0xff5418c9, 0x19010914, 0xcc256af9, 0xa900822, 0xc8458fe9, 0x1a98888c, 0xb130efc8, 0x98ab9a8, 0x8a9bff80, 0x19a89002, 0xabbc991, 0x28888888, 0xa998010, 0x18081899, 0x10000911, 0x2200808a, 0xb8898821, 0x10100888, 0x88810008, 0x1100098, 0x8088010, 0x1101880, 0x2809810, 0x10010888, 0x8098a080, 0x80818208, 0x81118111, 0x10118aa, 0x88880110, 0x98012210, 0xa0889808, 0x9ab02777, 0x32120980, 0x8bfffe85, 0x61211101, 0x109fffff, 0xa8080108, 0x225519de, 0xc9800108, 0x80135762, 0x8988008, 0x898a9b98, 0x8988801, 0x89aa8988, 0x18880890, 0x8990110, 0x8a888000, 0x19099, 0x90898108, 0x9ab89244, 0x6420aaa9, 0xbaa80113, 0x454420ab, 0xbaa808ba, 0x8453110a, 0xaaaa8a82, 0x80467629, 0xccbb8c99, 0xba577738, 0xabba0bba, 0xff877720, 0xa9012889, 0xbd936658, 0x82321011, 0x9d822308, 0x82221808, 0xac133088, 0x200000, 0x99139080, 0x89188010, 0x109109, 0x90818000, 0x98809008, 0x90218888, 0x9a998818, 0x9a010889, 0xa8982898, 0x9a889188, 0x889808ab, 0x9a9a8909, 0x909899aa, 0x20211882, 0x33100001, 0x1019890, 0x23399a80, 0x218999a8, 0x2440aca8, 0x218888ab, 0x83738ee8, 0x2000109a, 0xc6750ffc, 0x1800098b, 0xf5748ff9, 0x8888901b, 0xf572ceca, 0x8011008a, 0x947ada81, 0x11000088, 0x58a9021, 0x30898888, 0x82981230, 0x10880108, 0x88011012, 0x118a0089, 0x801801, 0x11288818, 0x98008980, 0x12809880, 0x80080888, 0x11108080, 0x18199982, 0x20880008, 0x81002, 0x98800108, 0x9089a98a, 0x88001300, 0x10888189, 0x88021899, 0x80082018, 0xa1121098, 0x10081010, 0x81210199, 0x2188911, 0xa1102288, 0x89008100, 0x99988981, 0x98880182, 0x9cedd953, 0xa8010831, 0xbdf9166b, 0xa0a98880, 0x8b02770f, 0x890080, 0xa05777ff, 0x898310, 0x803441dd, 0x8000019a, 0x80132108, 0xa98928ba, 0x9833389a, 0x99a00aca, 0xa880208a, 0x918089bb, 0xa8880018, 0x801199ba, 0x108909a9, 0xa8a00010, 0x8000990, 0xaa028880, 0x1818188, 0xa9811001, 0x288a8, 0x8881318, 0x10811108, 0x2329000, 0x10a12199, 0x83100022, 0x901090, 0x8a821800, 0x98800220, 0xc980818, 0x99800121, 0x2aa08999, 0x8a9a856, 0x8cac8198, 0x888b8257, 0xefcb8118, 0x82211067, 0xffda9311, 0x14618236, 0xcfdb8231, 0x12232422, 0x9fdc8321, 0x80223311, 0xafed8128, 0x88010901, 0xbdbb9000, 0x12001020, 0x80001221, 0x212008c, 0xecaa8001, 0x21889cff, 0xecc89801, 0x100ceeb0, 0x81031800, 0xbfe057, 0x64110081, 0x18eb2640, 0xae908a00, 0x88431ab, 0xa1428da0, 0x889883, 0x762acdb8, 0x18b98823, 0xabcaa81, 0x18180229, 0xdca01211, 0x1218198b, 0xc9800213, 0x20109cd9, 0x21009813, 0x12099980, 0x2089a911, 0x32880111, 0x9abba883, 0x12101200, 0xa1010822, 0x2128898, 0x1201120, 0x21201808, 0x8011, 0x230808a8, 0xaaa89822, 0x1199acdd, 0xefeda881, 0x8aeefff, 0xdfcb9a80, 0x8bfffff, 0xffcbaa18, 0xaacffff, 0xfc009111, 0x9a80ac9, 0x25734344, 0x30201344, 0x23081435, 0x40082311, 0x20a80913, 0x11880810, 0xa918988, 0x1199008, 0x9a88aa01, 0x188090, 0x20889802, 0x18900002, 0x18018a12, 0x20980000, 0x81201132, 0x20180109, 0x81083432, 0x32212121, 0x22334342, 0x18818888, 0x88190800, 0x1888988, 0x88998881, 0x108a8a88, 0x1088aa88, 0x90080, 0x988180a8, 0x88b0118, 0x999899a, 0x19808010, 0x1108000, 0x89000ab9, 0x98919800, 0xbb88900, 0x9880089, 0xbdb9110, 0x88098808, 0x2008ddd9, 0x80801880, 0x356420bc, 0x898, 0x32477777, 0x50091281, 0x81357773, 0xa0010101, 0x9aaacdc, 0x91881981, 0x9abffd9, 0x808a8001, 0x1009aa98, 0x81001111, 0x12211, 0x8bb81101, 0x1032240, 0xeff94400, 0x111255, 0xfff15431, 0x808a9067, 0xefe76508, 0x89aab57, 0xdf3620a8, 0x89889a27, 0xdf721dca, 0x9000a85, 0xd139bc91, 0x8a010881, 0x988a8808, 0x91800080, 0x18800110, 0x18988081, 0x19000000, 0x8801808, 0x18188008, 0x80808, 0x8900880, 0x80800000, 0x818898, 0x10809988, 0x8909891, 0x18080888, 0xa0890980, 0x11880888, 0x80080880, 0x22108080, 0x2111102, 0x10098908, 0x300111, 0x1289a821, 0x28018081, 0x289c9090, 0x19800100, 0x18a90802, 0x19190211, 0x10a08322, 0x2caa1221, 0x89008025, 0xfff0121, 0x18812980, 0x1cffba08, 0x201019a1, 0x43ffca88, 0x10888092, 0x60efab89, 0x2989e8, 0x59fc9980, 0x10140a0, 0x29b9b900, 0x10888228, 0x1928b910, 0x10808188, 0xba188810, 0x1008a80, 0x80020110, 0x20000818, 0x88821100, 0x8aa999ac, 0xaba99a8a, 0x8899bcbc, 0xcdbbaaa8, 0x8abbbbbc, 0xbaa80008, 0x88a80139, 0x89a8808a, 0x9aa00121, 0x88909a18, 0x989a8812, 0x21189998, 0x98890982, 0x10122289, 0x1000010, 0x81821190, 0x2288800, 0x991a988, 0x81241288, 0x99bab828, 0x89881211, 0x9a98231, 0x99dbbbfe, 0xdcb12330, 0x89acefff, 0xca022450, 0x18a03, 0x45334521, 0x82375777, 0x76662289, 0x98356676, 0x66442888, 0x11089881, 0x34241101, 0x208a924, 0x24652088, 0x10000033, 0x4489bba0, 0x1188812, 0x9ffffff9, 0x120012c, 0xffffffcd, 0x8122012a, 0xcc9808b9, 0x1081189, 0x92653331, 0x1001821, 0x11221354, 0x8009aba1, 0xa990982, 0x88989a88, 0x192029b0, 0x18890810, 0x921a89b8, 0x80800021, 0x11889998, 0x81121208, 0x90121ba8, 0x1888008, 0x80aacba0, 0x1889a, 0x90aa0001, 0x11001098, 0xaaa88000, 0x89889988, 0xaa99aaa0, 0x9aaa989b, 0x822aaba9, 0x89ab9aab, 0x900999ba, 0x9aab9bdc, 0xa980ba, 0x999a9bbd, 0x98a08ac9, 0x8888a89a, 0xbce9cbb9, 0x10108199, 0xcffbeec8, 0x12224308, 0xbbabdba, 0x12465311, 0x39018a9a, 0x4432000, 0x8331442, 0x80108884, 0x444661, 0x99089924, 0x20133641, 0x8ab99a11, 0x90908210, 0x89990800, 0x3080128, 0x89081009, 0x1891288, 0x98881281, 0x200088, 0x18008089, 0x90801008, 0x888898, 0x10898020, 0x899188, 0x81188980, 0x8090131a, 0x19992, 0x80c9045b, 0x191aa00, 0x8acca570, 0xa8a90801, 0x9dc877d, 0xd2080122, 0xaa8576f, 0xc18a0033, 0x198a478f, 0x20211, 0x913ad, 0x8919882, 0x8088828b, 0xaa188b10, 0x81980810, 0x8909a801, 0x18888118, 0x10801110, 0x18901090, 0x9089000, 0x11080992, 0x1a088810, 0x1881080, 0x808880, 0x12100008, 0x98a88012, 0x10880981, 0x28abbb00, 0x11088081, 0x8ceca818, 0x11090819, 0x90375653, 0x1080811, 0x37776331, 0x1888899b, 0xdeffffea, 0x18080081, 0x9cfffffd, 0x18108810, 0x346429ab, 0x880108, 0x1132409, 0x989800, 0xa9080090, 0x810080, 0x10020808, 0x88809808, 0x8888a00, 0x10100898, 0x81888902, 0x8088818, 0x80988a02, 0x20908081, 0xa080011, 0x11000080, 0x11101000, 0x9990099b, 0xbb8998a8, 0x80032219, 0xa9899988, 0x91365775, 0x808889a, 0x91346777, 0x51180989, 0x8899edb, 0x81009008, 0x9affffff, 0xd9888808, 0x99ac0933, 0x2000080a, 0x80457752, 0x89808180, 0x13108aaa, 0x8880000, 0x199ab889, 0x80088020, 0x88881110, 0x88881121, 0x88881, 0x98088089, 0x81888, 0x818a9980, 0x8001800, 0x9088890, 0x88800000, 0x88010899, 0x99818008, 0x100998, 0x21133211, 0x11103232, 0x32221088, 0xb8881001, 0x21120818, 0x808a9001, 0x31233018, 0x199118a1, 0x13800100, 0x88800410, 0x21190089, 0x11010908, 0x2100882b, 0x92121020, 0x209022f, 0x14123108, 0x1023bf, 0x13183bb0, 0x880028ea, 0x65199cc8, 0xa08abb3, 0x71b99aa0, 0x8abb9936, 0xafcb9a81, 0xac91361, 0xff908a88, 0x8aa2431b, 0xfda00802, 0x8332239, 0xfda98001, 0x20221319, 0xdb991023, 0x88aa98, 0x81200888, 0xa999a0, 0x80420089, 0x88080298, 0x98241899, 0x80010899, 0x10200988, 0x8880899, 0xb8808998, 0x120981, 0x18a9a89b, 0x23b918, 0x365210ac, 0x81118bbc, 0x24454328, 0x8911119f, 0x99054348, 0x9a80230f, 0x9b145458, 0xaa99818b, 0xbc164320, 0x9ab98008, 0x90360019, 0x9cdb9898, 0xa845118a, 0xa9888aa, 0x935320a9, 0x89898bda, 0x25521988, 0x88089aaa, 0x12308009, 0xa9881432, 0x1898a999, 0xaa024748, 0xba88a9ab, 0xb924751b, 0xb990acaa, 0xa035669f, 0xa9128a99, 0x912164ff, 0x8889a, 0x940375ff, 0x49188208, 0x43477fd, 0x38081008, 0x1442378b, 0x98088a98, 0x82102429, 0xaa09a9ba, 0x8089a030, 0xb89098a8, 0x99010, 0x98808120, 0x99010080, 0x8801118, 0x99980818, 0x18188008, 0xaa988080, 0x10098009, 0xa9a80810, 0x88089a, 0x99ab9a88, 0x988188b9, 0x88988898, 0x8809008, 0x9899980, 0x99988008, 0x8880108, 0x189a098, 0x99008a11, 0x18889888, 0x8889989, 0x80808891, 0xa9890000, 0x9880009, 0x9889988, 0x99988aa, 0x98a011a9, 0x880aaaa9, 0x9a908998, 0x8a9aa80, 0x8998991, 0x9081010, 0xa189a, 0xd9821122, 0x12808ce, 0xc8244422, 0x2442347, 0x77652312, 0x83547677, 0x66401880, 0x81021221, 0x9bba00, 0x8989ddef, 0xfeed9a99, 0x22210098, 0x1101321, 0x1001089b, 0x98081113, 0x31909a98, 0x89109982, 0x11900990, 0x80989b81, 0x98a99, 0x91811122, 0x201198a0, 0x81133232, 0x11888a95, 0x411a9122, 0x10200898, 0x429cd901, 0x10800089, 0x8109ed92, 0x9002118, 0x8330ff91, 0x800112a, 0x247dff81, 0x10818089, 0x145ffe81, 0x8911888, 0x20bffa80, 0x10199901, 0xadfd881, 0x10021222, 0x19dca801, 0x32221810, 0x88ab8012, 0x110099a, 0x89991018, 0x8019bbed, 0xb9998902, 0x118acfff, 0xe989aa88, 0x12123429, 0xbca00990, 0x23577777, 0x3aa88990, 0x34557431, 0x12180880, 0x10abfffa, 0x10110901, 0x8cecc933, 0x80000, 0x89813528, 0x89198212, 0x8210999, 0x11011, 0x12198988, 0x81121080, 0x11891111, 0x8810000, 0x20990988, 0x8089800, 0x10110000, 0x88a9a800, 0x2300110, 0x90889a00, 0x12008898, 0x8888981, 0xb9aa99aa, 0x899aa99b, 0xbba98990, 0x988aabb9, 0x9980aa91, 0x808999, 0x98118a80, 0x898998a, 0xa0022001, 0x99998899, 0x82233090, 0x89999aa8, 0x831261fa, 0x19999899, 0x34247afc, 0x8882298, 0x35677ef8, 0x29180029, 0x36777cf1, 0x8988110a, 0x245539b9, 0x99802099, 0x23421098, 0x98188899, 0x83311089, 0x1988809a, 0x91320889, 0xaaa8119a, 0xa0110000, 0x808a98ab, 0xaa900810, 0x9b999a9, 0x110111, 0x11080181, 0x18111032, 0x31888818, 0x8008212, 0x11112119, 0x19808202, 0x8821000, 0x89888808, 0xa9900888, 0x9b913242, 0x1130801, 0x8cdb9077, 0x54312211, 0x9beffff1, 0x31990880, 0xaabfffff, 0xf890a900, 0x83328bff, 0xca089999, 0x80224442, 0xa89b188, 0x890891, 0x9918008, 0x90288101, 0x80088880, 0x11111881, 0x98089900, 0x819888, 0x18009080, 0x10810809, 0x9a880811, 0x881918, 0x801, 0xb, 0xa8908990, 0x1020089b, 0x8218a990, 0x122110ab, 0x9aa908, 0x101129a, 0x88812453, 0x110120b, 0x5777773, 0x319802b, 0xdcdffc99, 0x1818012, 0xbffffffb, 0x1210115, 0x2089ffec, 0x10080094, 0x322439cb, 0x88990801, 0x20301a9, 0x80998099, 0x1002199a, 0x1080019, 0x200989, 0x888a800, 0x10818818, 0x10999ab0, 0x21089080, 0x1188010, 0x12000010, 0x1020109a, 0x9a991011, 0x10009bbe, 0xddca8011, 0x1009bccb, 0xca999998, 0x80ab8ad, 0xccbaaa88, 0x10998014, 0x67564320, 0x19988155, 0x77765462, 0x8000b, 0xfffa8800, 0x188808a9, 0x9cacdb80, 0x8808801, 0x111900, 0x10a88019, 0x99980881, 0x19811098, 0x12008080, 0x10901091, 0x99888212, 0x10908181, 0x81010033, 0x81808981, 0x2212, 0x10898880, 0xa0801212, 0x22881090, 0x180000, 0x88123441, 0x12180908, 0x134332, 0x2210a988, 0x44331, 0x1320dda8, 0x11333131, 0x230bdba, 0x22511211, 0x322affeb, 0x2322104, 0x76affed9, 0x2211157, 0x6dffcba9, 0x9090144, 0xbffb9010, 0x9a990880, 0xfea13021, 0x89800809, 0xfb001118, 0x8800a989, 0xfa008100, 0x98a998, 0xb88988a9, 0x99888, 0x9a9b9a98, 0x88088188, 0x9a898988, 0x8010880, 0xabaaa999, 0x8808989, 0xa9a88888, 0x89a89890, 0x2880989, 0x88a99901, 0x33341008, 0x899a8210, 0x82112108, 0x9899808a, 0x8111308, 0x888b099a, 0x90008000, 0x8998908a, 0x82010909, 0x9889b911, 0x19818891, 0x19a801, 0x18989b90, 0x90814330, 0x899ab10, 0x3212332, 0x30011221, 0x8321a903, 0x31124322, 0x1009993, 0x22543443, 0x98821023, 0x2334731, 0xa8890088, 0xa8935488, 0xa8aeeeea, 0xaaa88109, 0xaaaaefff, 0xedbb8889, 0x128880, 0x1200101, 0x1028aaa3, 0x42089800, 0x1089ee94, 0x20889981, 0x109bff16, 0x49899180, 0x218bff87, 0x1d980021, 0x210cff17, 0x2b108821, 0x8cfc47, 0x99001124, 0x18c074, 0xf8809111, 0x2221a141, 0xf2098088, 0x112a983a, 0xb8100889, 0x1118aa89, 0x99908198, 0x1018a01, 0x9810188, 0x9ba988, 0x81009022, 0x19800018, 0x89100123, 0x11099881, 0x88888112, 0x1088908, 0x80811011, 0x88888089, 0xb8908998, 0x8009889b, 0xba890888, 0x8110a9, 0x8880018, 0x8990209a, 0x8229810, 0x99a90188, 0x2020911, 0x8ba88209, 0x88132020, 0xab88088, 0x9a022321, 0xa81298a8, 0x8ff14243, 0x189892, 0x2ff84553, 0x800a8084, 0x9ff66322, 0x809baa05, 0xcf276221, 0x888aa000, 0xa2433080, 0x809a180, 0x80201088, 0x89999898, 0x80088819, 0x99992188, 0x8898089, 0x99091198, 0x90888099, 0x8a08a88a, 0x89990089, 0xa8999abc, 0xb8880989, 0x888899db, 0x81002a8a, 0x99891998, 0x99082909, 0x98322898, 0x98881188, 0x98110880, 0x18808111, 0x99889800, 0x21888031, 0x3339f, 0xda900132, 0x98130dff, 0x89a92121, 0xaccefff0, 0x38a91111, 0xadfffd05, 0x399a9b80, 0xaced9244, 0x21aa9b00, 0x8a821351, 0x43212131, 0x221212, 0x14575653, 0x88021212, 0x33565630, 0x90801100, 0x11188, 0x80022344, 0x33131909, 0x88821234, 0x40002800, 0x80080aa1, 0x18981199, 0x90a9a9, 0x99b88998, 0x88999a9a, 0x8a80999a, 0x8108aabb, 0xc9001099, 0x2343318, 0xa800028a, 0x14544765, 0x33121109, 0x25442315, 0x21222120, 0x25311131, 0x98998030, 0x33211210, 0xc08a999a, 0x898988, 0x9209bbdb, 0xa8bcca80, 0x99acfd9, 0x8aaceeea, 0xcdba8ba9, 0x88aabb9a, 0xfd9219a8, 0x889b0008, 0xb9002199, 0x990098, 0x1200110, 0x1081109b, 0xa2330010, 0x82229a, 0x10102111, 0x1011229a, 0x81001101, 0x88998199, 0x111001, 0x8002039a, 0x63202210, 0x8a218bff, 0x66433223, 0xacceffff, 0x42110128, 0x9bcefcb9, 0x20981009, 0xa00921a0, 0x11198, 0x8180a9b, 0x9a028889, 0x30089a, 0x88889a88, 0x10081912, 0x89988890, 0x89a91180, 0x809aaa99, 0x89081088, 0x180aa989, 0x80998828, 0x89999890, 0x32212120, 0xacba0002, 0x31200211, 0xbffcb801, 0x23180012, 0x8cffe902, 0x128ac882, 0x21bffea1, 0x109aa8a9, 0x120bffd8, 0x20a9110c, 0x12effb, 0x1090882a, 0x92210ffb, 0x2109890a, 0x91322afb, 0x3199888a, 0xa24318a9, 0x20889009, 0x82418910, 0x11b12, 0x22129122, 0x8098a13, 0x830811, 0x219a8010, 0x88b10013, 0x30990110, 0x89081131, 0x31121888, 0x81221332, 0x22112110, 0x2542243, 0xaa889aaa, 0xbababa89, 0x98980998, 0xb9ab9998, 0x990980b9, 0x8a899110, 0x8998aa88, 0xa898108, 0x99999088, 0x9a900080, 0xa19b8ab1, 0xaa83280, 0x9089990a, 0xff922399, 0x889888df, 0xe5554008, 0x88a9a9c9, 0x77421002, 0xa800a986, 0x74311011, 0x80011234, 0x18898230, 0x2000209, 0x9800522, 0x1222010, 0x88101201, 0x80123088, 0x8011828a, 0x121080, 0x80818a, 0x8a102122, 0x2020809a, 0x11110888, 0x89888880, 0x8889a988, 0x8aa9a088, 0x80009900, 0x9998a880, 0x8880018, 0x98008988, 0x80899809, 0x8a981099, 0x8801888c, 0x99832119, 0x880100a8, 0x9f950339, 0x10189882, 0xbf163419, 0x80898000, 0xff762209, 0x999118b, 0xf8750888, 0x8ab909bf, 0xc7732890, 0x9a921aba, 0x12322413, 0x909aa21, 0x121442, 0x88a08208, 0x800232, 0x89a90501, 0x88810, 0x8902181, 0x18011110, 0x11021342, 0x8880100, 0x1222463, 0x2280b980, 0x10132342, 0x28889b91, 0x20090801, 0x11090091, 0x8880821, 0x118889a0, 0x80008a81, 0x30babcea, 0x88b88824, 0x41bdedeb, 0x10b08018, 0x9189aacc, 0x2108a80c, 0xc21302b9, 0x43220189, 0xa8333109, 0x33242310, 0x21321a11, 0x42333466, 0x63200a00, 0x34422112, 0x1888a990, 0x12238189, 0x89100a98, 0x11118ab8, 0x8188900, 0x11089999, 0x99188000, 0x9aaaaabd, 0xdabcaba9, 0xa9a9908a, 0xa999a89a, 0x9b808880, 0x18a99aa, 0xa9908888, 0x9099a999, 0xb9008a88, 0x8809cb9, 0x980aabaa, 0x9990aa89, 0xb9bacefe, 0xba819232, 0xb9a9ab90, 0x18903764, 0x8182576, 0x42134564, 0x83221454, 0x21122121, 0x81298121, 0x10000810, 0xa1090021, 0x30108808, 0x98a80002, 0x10008008, 0x980a1121, 0x23210009, 0x99801231, 0x22220888, 0xaa088001, 0x103010aa, 0x11182121, 0x28011110, 0x88892445, 0x40101801, 0x108b9c92, 0x34202001, 0x9dfffff, 0xfdaa0800, 0x9aaafff, 0xfeba98a9, 0x18224777, 0x510888a8, 0x13466777, 0x4321108a, 0x1318abcd, 0x99808921, 0x88bab900, 0x81008200, 0x9881110, 0x88808080, 0x80209809, 0x88080800, 0x18100180, 0x8088880, 0x11008080, 0x80808981, 0x80219808, 0x898890, 0x11108a90, 0x899a881, 0x21191198, 0xaa9a9010, 0x1211008a, 0x98110122, 0x11018add, 0xb1200002, 0x210099cb, 0xa1408a01, 0x122099cd, 0x328aa98, 0x188a89bd, 0x34a98889, 0x81189ab, 0x22ba8aa8, 0x22242218, 0x89908180, 0x11028211, 0x888108, 0xacabb8, 0x80088802, 0x109a9aa9, 0xa0020233, 0x20313454, 0x56514521, 0x111234, 0x54766500, 0x89b8baa, 0x88989bb8, 0x9aa89ab, 0xcefffeb0, 0x10089a98, 0x9b9aba80, 0x12100088, 0x98999802, 0x9a99a888, 0x188099, 0xa9a88356, 0x54211088, 0x99023575, 0x42111088, 0xa9213777, 0x31099008, 0x9233576a, 0xaa189b88, 0x46632df, 0xeb0bbbaa, 0x155508cc, 0x909cccb9, 0x5218909, 0x9aa8aba9, 0x82088018, 0x9898a09a, 0x99a99200, 0xa081980a, 0x8988b08a, 0x90918229, 0x99aa9088, 0x83108010, 0xa9889108, 0x899108, 0xa980a898, 0x809809, 0xaa988008, 0x18029aaa, 0x89988a98, 0x88888aa9};
//first channel is topmost bit

// Layer: L2
// QuantType: 4bitsym
#define L2_active
#define L2_bitperweight 4
#define L2_incoming_weights 64
#define L2_outgoing_weights 64
const uint32_t L2_weights[] = {0x1231aa2, 0x29c09a90, 0x20a16b50, 0x8c938109, 0x320a2301, 0x2810008, 0x89114a9a, 0x9fb1c101, 0x899c90, 0x2889329, 0xab0b9bcc, 0x9a419319, 0x8209091a, 0x2b8da0b9, 0x282144a0, 0x3fb8881, 0x3809019, 0x209b1519, 0x14a081, 0xb801a09a, 0xb11a1249, 0x88cc2120, 0x89a1f202, 0x98c1399e, 0x38b028a2, 0xa288b883, 0x839a08b, 0x190801da, 0xa501900d, 0xc1ab0008, 0x1b88c4e9, 0x11b821d0, 0x899a3fa1, 0x8b01911, 0x8fab9129, 0xaa38829b, 0x3002194, 0x11121209, 0x1c0330a8, 0xc2081b1, 0x1593814c, 0x8b1c4228, 0xb120a212, 0x412c995, 0x89a31bb0, 0x390b3d9, 0xc8120098, 0xb8121d0c, 0x880282, 0xc133a931, 0x2018b8b8, 0xa1203c11, 0xaa99e9bd, 0x8981ea9, 0xb9dc192, 0x859a9503, 0x4a1348, 0x91421139, 0xad9a100b, 0x3912313, 0x12011ba1, 0xaa3c93bd, 0x289303c1, 0x18d024, 0x9aaa3139, 0x20b88820, 0xb9210010, 0xb921c289, 0x89a023f8, 0x3b02cca2, 0x80019196, 0xc8b81f2f, 0xa092841a, 0xd83c19a8, 0x14a61103, 0x88a828b1, 0x919919e1, 0x92a8c920, 0xb3908a31, 0x921f8ba0, 0x819eba1, 0x850a8b20, 0x3ab2a892, 0x20382f0b, 0xa0a9ba00, 0x21808959, 0xb01caa31, 0x949a1aa8, 0x98b08a02, 0x112292a, 0x2d810290, 0x80128080, 0x289811ca, 0x39bb310, 0x3cb9221, 0xa98fe101, 0x989a2819, 0x280a001b, 0xa8939621, 0x941a9d2, 0x3892082c, 0x28a11020, 0x10b4888, 0x889888d, 0x383f1da0, 0x89928993, 0x1eb9ca99, 0x8810899a, 0x8a00908d, 0x190000, 0xa588288, 0x20812891, 0x92130001, 0x1282948a, 0xc20b2083, 0x9b092540, 0x121204aa, 0x10109043, 0x12b20833, 0xa0bb9210, 0x81193008, 0x82b49890, 0xb0298890, 0xccb20081, 0x29c20719, 0x28018807, 0x5b88a818, 0x98b28982, 0x8b942b8, 0x199a8191, 0x981f918b, 0x9dc8c120, 0xb328c31, 0x8a816829, 0xbc043c2, 0x11008339, 0x82af092, 0x4102893b, 0xc03298a8, 0x80390989, 0x88a140, 0xbaac49b0, 0x11090a02, 0x932045c1, 0xb11a8848, 0x88099018, 0x1d90f0c3, 0xa81a9003, 0xf998928b, 0x22019211, 0x9218b214, 0xa32c3019, 0x8b10b030, 0x22a881c8, 0xb9884902, 0x21a1a901, 0x909070, 0x2f017c01, 0x838b9908, 0x8cb1230b, 0xb9ab4990, 0x8048a828, 0x20020a9, 0x802fa028, 0xa302218c, 0x29299293, 0x3b1c1a2, 0x129a9a90, 0xb94a000, 0x2299800, 0xb3308a91, 0x1208392c, 0x90caf85a, 0x1f984d80, 0x42f9983, 0x192160b, 0x82cd2913, 0x181189, 0xa09a21d, 0x312393b3, 0x8a884021, 0x80b013c8, 0x11961991, 0x890ba2b9, 0x80a9089, 0x8121da28, 0x98480cba, 0x911c1d20, 0xa032028a, 0xc32881a4, 0x330a918, 0x13981c89, 0x96808278, 0xb1c3400, 0x11828290, 0xa193da97, 0x8c810ba2, 0x84c80190, 0xcb821a80, 0x8310a2b, 0xaa08f, 0x99958881, 0xb8822b2a, 0xfc9a1e8a, 0x8500380, 0x3008c01a, 0x89008818, 0xa2811822, 0x80a1a951, 0xdf28538, 0x8108298a, 0xdc28c816, 0x1022188, 0x898b0083, 0xb5b80a0a, 0x8bc18901, 0x2ad43189, 0xa9192ba0, 0x2210c490, 0xa8b284a9, 0xa8828208, 0x19f11190, 0x1080088a, 0x81b2301, 0xb005a988, 0x1281bb00, 0x21c819c3, 0xb98f0949, 0x241aa188, 0x20250b13, 0x121bb908, 0xc1a18980, 0x1a2901c8, 0x2800aab8, 0xa13b3100, 0x228c283b, 0x19ccd049, 0x8b388a29, 0x318e8238, 0x82289388, 0x8a881a90, 0xcc825cf9, 0x882388, 0x18b0810b, 0x88989138, 0x8c008009, 0x1d1885ab, 0x33608902, 0x200100ab, 0xb1220081, 0x11081282, 0x21282009, 0x90903989, 0xaa9bb39a, 0x1b224a9f, 0x20091092, 0x8ea82ca8, 0x21301888, 0x80f8181b, 0x3383211c, 0x28ac8091, 0xac8480ac, 0x13a93092, 0x22001a0, 0x391e201a, 0x292a8120, 0x914a128e, 0x12299112, 0x8d220890, 0x90a1b2e9, 0xc1100008, 0x21209f18, 0x91838d2b, 0x21291618, 0xc8988318, 0x3828295, 0x2323901, 0x910110a8, 0x811222b0, 0x99298a91, 0x80282182, 0x1800981a, 0x1aac8b1c, 0x599b2108, 0x38a2890, 0x112113d8, 0xa803c01, 0x49189822, 0x8e19a2, 0x2010a834, 0x8c993d2d, 0x31298a9a, 0x89080a90, 0xf888a8a8, 0x11022200, 0x30988e83, 0xa3c02e, 0x5f2984b9, 0x1300994, 0x53b9b013, 0x88c1102a, 0x190ac031, 0xa8189a4c, 0xb980a19, 0xab511498, 0x1891b09b, 0x20b14c18, 0x89aa8839, 0x1c888389, 0x9198180, 0x82080d21, 0x89a8b269, 0x1c1a1c29, 0x89131888, 0xac1fd199, 0x31e8041, 0x1ca01199, 0x3a2091c8, 0x3fa890a9, 0xaa818812, 0xa0140880, 0x99019903, 0x52a3887, 0x88a00948, 0x101aa180, 0x82289e7d, 0x98b983c1, 0x1801ab31, 0x198198cd, 0x1aa61c90, 0xa0114818, 0xbd012b8d, 0x88218041, 0x1289015a, 0x8090008b, 0xab28a893, 0x138a0a9, 0x3a8b103a, 0x8910b20a, 0xbba01c10, 0x42a28e60, 0x882878c8, 0xd9a00220, 0x1208a600, 0x282d9193, 0x79a8940e, 0x1000b2c, 0x888b0909, 0x4898b2e0, 0x3c13ab59, 0xb00028b4, 0x99928aa9, 0x89da0898, 0x11284938, 0x820413b1, 0xb10200e8, 0x1b13a181, 0xfbeb8010, 0x1a00003, 0xa8f988a1, 0x38812390, 0xcd28cc2, 0x10082810, 0x9b90821b, 0xa881a0, 0x9811a0aa, 0x3e003a08, 0x80001011, 0x81ab38, 0xf0a280, 0x9888bb10, 0x9b889012, 0x81883051, 0x29144089, 0xa200ba3, 0x99c12310, 0x8340182, 0x889999b0, 0x125ca181, 0xaa918648, 0x22aa99a, 0x3309928, 0x801b400, 0xed0ab820, 0x8b9810d1, 0x98033ba9, 0x23021310, 0x11c8908b, 0x1d188222, 0x39e10900, 0x1aa90e89, 0x1200100, 0x989a8a39, 0x8b82024a, 0xbd12821, 0xb93a9ab2, 0x1413493, 0xa900419, 0x90a13a38, 0x9a201988, 0x2a9d2d00, 0xb92bb192, 0x80e82919, 0x229b99a8, 0x108119ba, 0x1b210389, 0x98100c82, 0x38a31008, 0x1ab28bd2, 0xc8198098, 0x212880b8, 0x18000a09, 0xc10620, 0x109a4291, 0x18ab08e, 0x1b192b2, 0x80c08212, 0x1901188a, 0x4231018, 0x80b891, 0x2c389251, 0xba983804, 0x11b010a2, 0x908a38a, 0x8aa1cba0, 0x200818a9, 0x22b13122, 0x30a00f1a, 0x80099b13, 0xa2a0114e, 0x83c1399a, 0x819aba1, 0xc8d03330, 0xef318060, 0x2889898a, 0x93288091, 0xa8211858, 0x298081, 0x9998418, 0x8000e030, 0x2b281581, 0xba81f929, 0x9212f19, 0x102b9938, 0x21181a11, 0xa959028a, 0x99b90a18, 0x89929920, 0x3b929121, 0x4da8b9, 0x900980, 0x5a91a10, 0x2dbaf2b, 0x8009000c, 0xc209089a, 0x30220a80, 0x188abda0, 0xa0a81a04, 0x109190b0, 0x9c04018b, 0x4820088d, 0x8892a882, 0x8818b029, 0x98f011a1, 0xc9a79899, 0xa1909bc8, 0x94a30015, 0x9e23a5a, 0x148a1199, 0x320cf1, 0x10118a80, 0x839013b0, 0xaa98839, 0xca1112a3, 0x3c90a095, 0x829209c1, 0x8990d998, 0x82999a41, 0x821da88c, 0x2c1982, 0x110e9990, 0x12baf022, 0x2eb28c98, 0xac480088, 0x81ac328a, 0x83228380, 0x8881a920, 0xa2f0200a, 0x2138d002, 0x9b8e89ba, 0x18a81b2b, 0x8aa8ea30, 0xbc6ca8c3, 0x9420a980, 0xb1003928, 0x819081e, 0xa8181898, 0x10001412, 0xda8080b8, 0x3119a38c, 0xa845b228, 0x1008da50, 0xf08bab49, 0x9888a59a, 0xb02f8a18, 0x52088148, 0x2da1a29c, 0xa038a181, 0x32888aba, 0x8a180b99, 0x320c394, 0x80b0ca09};
//first channel is topmost bit

// Layer: L3
// QuantType: 4bitsym
#define L3_active
#define L3_bitperweight 4
#define L3_incoming_weights 64
#define L3_outgoing_weights 64
const uint32_t L3_weights[] = {0x2022921c, 0x9eaa2100, 0xb822a411, 0x988000f9, 0xb3db008, 0x9389b831, 0x8102988c, 0x901c002c, 0xb8811925, 0xa89880ad, 0x12c8b001, 0xba1bb138, 0xaa2a190c, 0x3948a003, 0x18b99a22, 0xada2fa1, 0x33a81b83, 0x22a18902, 0xa2a08908, 0x141f2a9b, 0x88c88030, 0x922190, 0x8a092802, 0xa3aca1d3, 0x218a0881, 0x1a300908, 0x11904a1a, 0xa8131901, 0x1100aa92, 0x22860988, 0x1300330b, 0xa008908a, 0x22203809, 0x88810212, 0xad9cab, 0xa9e118d0, 0xa9b12b19, 0x81389213, 0x9131402, 0x988a0139, 0x2581809, 0xa9b91049, 0x14a98901, 0x910a128, 0x90001089, 0x11321909, 0x90981b21, 0x8980060, 0x82ca89a9, 0x1008a01a, 0xa0b0aba, 0xab80aa82, 0x10828a01, 0xa38108a, 0x293012a2, 0x58228a43, 0xab0f2919, 0xd8031ba3, 0x41a0b12a, 0x9133c808, 0x1a999bf2, 0x818849a1, 0x3881421c, 0xa1900283, 0x2099abbe, 0x281c1803, 0x1c9a8bba, 0xb1f20980, 0x80b0dc90, 0x33310229, 0x180292b9, 0xb4aa02e, 0x990281b2, 0x329052a0, 0xac0a9289, 0x32080000, 0x102aa023, 0x3991993, 0x184d018b, 0x2318bac2, 0x809e2988, 0x61822923, 0x4228a80b, 0x88f2b980, 0x81b029d0, 0x8219911a, 0x5199110a, 0x8d88993d, 0x9acc10e, 0x22001c00, 0x8099ada, 0x1b329c09, 0x93020088, 0x10b021b, 0x2001a208, 0x12000aa8, 0xcaa998a9, 0x88290911, 0x898a899b, 0xaa2a810, 0x20a89cb9, 0x810340d8, 0x1a1810ca, 0x23002993, 0xbca2b289, 0x29a18306, 0x31a90a21, 0x839901b1, 0x889a19a9, 0x286b4a0, 0x8a84a088, 0x888a98ea, 0x12c120d0, 0x4ba98201, 0xae8c3188, 0x220dea91, 0x12113910, 0xf80d9018, 0x823a8ba1, 0xa2f90199, 0xa8ac2892, 0x280001c, 0x198c1c3, 0xc1a2003, 0xc328982a, 0x2849a190, 0x9b808088, 0x310afe01, 0x1a92992d, 0x1c1bd8ab, 0x59289a11, 0xa9122d91, 0x9a99110d, 0xa083b20a, 0xd0818099, 0x2824100, 0xa040aa46, 0xc3122998, 0x204b100, 0x8a38930a, 0xa999a390, 0xa0ab19b1, 0x30a93a28, 0xb8981020, 0x11e1911d, 0xb9398880, 0xdb0111a9, 0x80282191, 0xc02901b, 0x12929a1d, 0xb4908120, 0xb2489b9, 0x2aa9911a, 0x29bc1890, 0x192581e1, 0x831db139, 0xc020a11a, 0xf03dca10, 0x30d8c11, 0xa0cd1010, 0xa329a1e, 0xda8c1889, 0x48049508, 0x2909922d, 0x9999819, 0x839281a, 0x938a2118, 0x831d109a, 0xc0b20312, 0x1aa0822, 0x23a2d291, 0x3129b10d, 0x9899b, 0x19a99ac4, 0x28b0c22, 0x98d12a21, 0x81421928, 0x8380a2be, 0x818982a1, 0xdb989088, 0x8888038a, 0x8a29910b, 0xa1118013, 0x2c9b0a08, 0xce082912, 0x9b2922c8, 0x8300a129, 0x11c0894b, 0x8a11398b, 0xe21a988, 0x1aa08a2d, 0x90901002, 0xbfa1a00b, 0x891a12a1, 0xa8800080, 0x80331b0a, 0x1a1d8909, 0x1b290a81, 0x2041000a, 0x1382ab31, 0xe900b211, 0xac210290, 0x42088a3, 0x802ca910, 0xa8221c18, 0xda4c8918, 0x19baa30, 0xaa9ba918, 0xaf1b21ab, 0x93214abf, 0xd10b990a, 0x8000b189, 0x8f0980ce, 0x481529a5, 0x94a90808, 0x19913883, 0x8820c6b0, 0x90b208be, 0x8cb800a9, 0x19b088b2, 0xb3389304, 0x89b8a9bb, 0x888c0a80, 0x8908098e, 0x9ba2028b, 0x3f0983a8, 0xab1d00b2, 0x94811b31, 0x8e1901a8, 0xaa91c99a, 0x9280b9aa, 0x908428a4, 0xd49a088, 0xa93888ca, 0xc918a1a3, 0x9c310848, 0xc8ab9431, 0xb8c80d98, 0xb10882, 0x92010a02, 0x800d11b0, 0x98031a81, 0xcd81808a, 0x8a31a290, 0x1b90a2ae, 0x59b32d10, 0x818c2019, 0x89800990, 0x8892aa29, 0x18218933, 0x18315091, 0x83223028, 0x88a8da98, 0x83988a09, 0x9411904a, 0xbc099008, 0x131a0221, 0x809218aa, 0x99089010, 0x39d49aa1, 0xc3a8a9c3, 0x31809080, 0x310283a, 0xa8b11c1b, 0x83a9a1aa, 0x23823828, 0x3a1c9888, 0x31080911, 0x221a2c9a, 0xb4081b9e, 0x10b98b9, 0x908102b2, 0xc92c821c, 0x18a410aa, 0x23139190, 0x2908c1a1, 0xb0a99089, 0x801038, 0x12aa2938, 0x9b818a10, 0x101198db, 0xa8818199, 0xed230181, 0x805b1098, 0xaa29805c, 0xa991ec18, 0x80011093, 0x10818119, 0x3a191c08, 0x998180a3, 0x139aa38, 0x93112009, 0x2a0b080b, 0x81b10092, 0x20e8008b, 0xa2933323, 0x1b809331, 0xdd894a11, 0x9004138a, 0x2b11008a, 0xb21c982, 0x19992d83, 0x13ac8a3a, 0x9819cb22, 0x129d90ba, 0x93802100, 0xad8191cd, 0x308a12d9, 0xa1922110, 0x80d21221, 0x20230a5, 0x820803dc, 0x19018b10, 0xa2100b9b, 0x1020131, 0x89181a19, 0x9001bce, 0x918e088a, 0x13c9033d, 0x884ba308, 0x829af92, 0xb908014, 0xb8011128, 0x910a800b, 0x3a1d1002, 0x2ea0000, 0xbbba89cc, 0xb2189222, 0x20318890, 0x28b9808a, 0xca5a1803, 0x83c01a09, 0xa0289119, 0x88f0fb02, 0x188f1b90, 0xb28025a0, 0x62980890, 0x89b9a11b, 0x9820108b, 0x19ba12aa, 0x40210840, 0xa3c1a948, 0x1a281102, 0x13a82b08, 0x919201, 0x44008098, 0x1d2a1802, 0x3180d289, 0xd21aab00, 0x98981000, 0xd90b91a1, 0xaaa134c9, 0x2893992, 0x81950929, 0x92faa810, 0x9aca9480, 0x20113098, 0x181f1102, 0xa8a19192, 0x1fa89a19, 0x108881b0, 0x2bab4922, 0x8a9cba48, 0x2a091009, 0x10293e80, 0xf81a1eb9, 0x2ab0ca3, 0xc1d91081, 0x9020182, 0xa998802c, 0xd0012898, 0x991a219b, 0x811a329, 0x3b138100, 0x808a1018, 0x805bb18d, 0x20801b10, 0x192a00aa, 0x5c10589a, 0x1c1a8b89, 0x2a90381c, 0xc922b92e, 0xb11999a9, 0x20c02cf4, 0x90b99a91, 0x843a80a1, 0x9ae0cb0, 0x4a8a901, 0x12928904, 0xc94f32a1, 0x181190b2, 0x3118a2ac, 0x228339c8, 0x42988115, 0xa9388980, 0x84b98cb0, 0x9912880a, 0x92000913, 0x98202080, 0xb18b02aa, 0x99c00c21, 0x9229949b, 0x38101191, 0xcab21132, 0xa0840c, 0x89109309, 0xac08bb8e, 0x11099859, 0xc13b048, 0xb82cc98b, 0x1a10192, 0xa2929a0, 0x108c111c, 0x9923a90b, 0x88249933, 0x3923002, 0x24a91881, 0x1112a3ab, 0x848199c8, 0xc18aa80, 0x981412b, 0xca3c8020, 0x8008322, 0xcb28b33, 0xa8220a8a, 0x501980c3, 0x198b9998, 0xb8f21821, 0x990aaa, 0x24a303b2, 0x1aa1a8f1, 0x8020db1, 0x198090b2, 0x8ac11813, 0xf9933229, 0xa11ca, 0x1b10a393, 0x33b33913, 0x9a01118, 0xa8109a99, 0x2900080a, 0x414080d2, 0xc94b9981, 0x84aa8a49, 0xb0c8b230, 0x80c08a09, 0x10988988, 0xc4c123c1, 0x310019bc, 0x28c11a13, 0x901b2c00, 0xa2c01bf1, 0xb100a819, 0x14021220, 0x82a090ab, 0xa229992a, 0x1b088bb, 0x2910bc31, 0x9be010bd, 0xa11289a0, 0x1a809ab0, 0x61144082, 0x88801299, 0x1138a801, 0xaa229210, 0x8a00089c, 0x411acd29, 0x9f19c94, 0xc10909a0, 0x848da302, 0xb9910890, 0x89223d1c, 0xa380802, 0x8e01810, 0x812ba100, 0x80021910, 0x205b8120, 0x10ca0903, 0xcb8bad19, 0x90082281, 0x993ec013, 0x82ad3c48, 0x11818080, 0x181c002d, 0x83200a31, 0x880cc0, 0x28bf0c82, 0xb9b91382, 0x48c63c1, 0x1ac31c49, 0xc0088959, 0xb8c0a9a0, 0x2a22998a, 0xb481928, 0x9309818e, 0xbb92b83b, 0x838ac28e, 0x3103d31, 0x2b0d1baa, 0x9211b92, 0xba99c0bb, 0x10921384, 0x8108981e, 0xa48109c2, 0x2c20299c, 0x203a182, 0x91ba1ab2, 0xc08801c8, 0xc1aa000c, 0x14009102, 0xb0928181, 0xa12c141c};
//first channel is topmost bit

// Layer: L4
// QuantType: 4bitsym
#define L4_active
#define L4_bitperweight 4
#define L4_incoming_weights 64
#define L4_outgoing_weights 10
const uint32_t L4_weights[] = {0x9ab302b, 0x9a89c39, 0x98d89a18, 0xba018d0, 0xa99baa1a, 0xb9284bb3, 0x11aa209b, 0x8ba8b8ba, 0x8209f008, 0xb29b2a00, 0x81bba2c0, 0xb8b1a8b, 0xb49183ba, 0x9c899422, 0xda989d2b, 0x9ba23880, 0xb4c8819c, 0x888b1b3, 0xb2b28221, 0xa289929a, 0xab119a89, 0xc9980989, 0xb92210b9, 0x91a80280, 0x3801a189, 0xbaa9baba, 0x9a193900, 0x10b8aa23, 0x9ab2a223, 0x8b09b92c, 0xaa31a91a, 0xa1899919, 0xa088ca99, 0x91021881, 0x108aaa9, 0x9023a129, 0x202a8809, 0xc9928ca8, 0x89a98ac0, 0x8828b92b, 0x1a1120b9, 0x18cac2bb, 0x8900aa8b, 0x90b20ba2, 0x890b1a08, 0x2119a80a, 0xb1aa882a, 0x31118d12, 0x1b8bcc, 0xa0b9b139, 0x10c3909b, 0xa38b2a98, 0xb000b818, 0xa282bac9, 0x33baa8b3, 0x8b9899c3, 0x90b1a113, 0x89288ab8, 0xb3ba32c2, 0xa9aa0b9, 0x2b0912a1, 0x9aa2098, 0x98a80b9b, 0x2a99b49b, 0x9c188a8b, 0x990a81ca, 0x3b2a8902, 0x1aa231b0, 0x9a82299c, 0x1088ab1, 0xaa0282b1, 0xca300a90, 0xbb918822, 0x40212902, 0x8a1bac9b, 0x2a2bb919, 0x88c28bc0, 0x98ab9a1a, 0x2a880298, 0x30a9a0b};
//first channel is topmost bit

#endif
