// Automatically generated header file
// Date: 2025-09-07 19:00:54.864931
// Quantized model exported from octav_CNNMNIST_Aug_BitMnist_4bitsym_width96_64_0_epochs60.pth
// Generated by exportquant.py

#include <stdint.h>

#ifndef BITNETMCU_MODEL_H
#define BITNETMCU_MODEL_H

// Model class name as defined in models.py
#define MODEL_CNNMNIST

// Number of layers
#define NUM_LAYERS 8

// Maximum number of activations per layer
#define MAX_N_ACTIVATIONS 256

// Layer: L2 (Convolutional)
#define L2_active
#define L2_type BitConv2d
#define L2_in_channels 1
#define L2_out_channels 64
#define L2_incoming_x 16
#define L2_incoming_y 16
#define L2_outgoing_x 14
#define L2_outgoing_y 14
#define L2_kernel_size 3
#define L2_stride 1
#define L2_padding 0
#define L2_groups 1
#define L2_bitperweight 8
const int8_t L2_weights[] = {
	-31,18,38,-1,-48,34,-29,2,27,1,15,24,20,-12,13,-107,
	49,-5,-46,8,14,-48,-16,30,-83,-15,-45,23,-20,31,5,-51,
	56,37,40,-4,-22,-44,-23,-72,19,44,-57,-38,24,12,93,92,
	22,-1,56,-33,-15,-6,2,-9,15,-11,-35,26,38,32,13,40,
	30,27,19,-58,-40,4,-22,23,44,-23,-66,9,50,-19,-17,-11,
	30,-59,13,3,-68,63,2,-52,-65,-38,76,30,49,-24,-12,44,
	8,-29,-13,-30,-3,-22,2,8,-1,-26,8,-35,20,-19,-26,23,
	34,49,-3,25,40,-66,46,15,-35,-28,4,-95,-28,-26,-34,-39,
	23,0,-38,33,-23,-39,-3,-40,26,31,-102,-18,18,-20,42,18,
	-26,-16,22,17,-34,-38,18,42,-43,-58,-46,-25,29,-35,-17,8,
	28,-92,26,-15,41,-32,41,6,-2,8,-62,4,28,-32,-5,-30,
	-1,-24,34,73,-35,-30,-125,-8,-35,25,-4,-39,41,5,-31,-59,
	-80,-24,1,11,6,26,23,7,34,-7,-49,31,31,-42,5,-67,
	-13,-44,-41,2,-4,-70,3,27,-42,-3,10,7,35,3,60,-27,
	16,76,41,-43,-11,-31,11,-6,29,3,-47,50,-28,-32,33,14,
	-51,-10,7,34,-49,-3,17,-20,13,40,-51,-4,-8,-56,-12,-32,
	-11,53,-71,53,-28,-42,104,52,-21,-8,18,-2,-20,19,34,-17,
	-13,-7,7,54,49,-48,-41,-103,22,-26,-62,-27,5,-25,-11,14,
	1,23,10,-33,5,-16,21,-102,-103,35,-7,19,7,6,-22,19,
	42,20,39,13,39,-8,-26,-44,-13,7,-2,10,-2,98,1,-33,
	2,1,24,37,-16,-26,-19,-28,-23,5,-30,31,-24,23,26,8,
	-13,2,23,40,0,19,12,12,-57,-33,10,-13,-38,-3,-34,11,
	-19,19,-128,-38,11,44,45,10,-61,-52,-24,-6,79,-24,29,-17,
	33,48,19,18,92,30,29,-23,7,-18,19,-3,25,8,4,25,
	27,-19,36,-17,-18,-18,-10,-23,-12,66,25,17,-20,-17,-28,50,
	46,-23,-44,7,6,-20,-70,-43,33,26,-41,43,-27,10,28,-30,
	-25,8,-79,10,45,-23,53,-24,38,-70,30,14,-29,-3,-54,13,
	-56,0,31,-2,42,3,-50,-36,-31,-8,-41,-110,23,56,39,-20,
	8,23,4,32,26,-40,22,7,-29,-58,-38,-30,15,24,-3,-26,
	16,-18,-23,45,9,-9,32,-18,8,38,-63,-6,11,-53,7,33,
	31,7,2,15,10,-9,1,-5,71,22,-5,43,-10,-46,-1,39,
	41,70,-14,-39,17,-35,-24,-23,47,-31,-36,24,-28,39,3,16,
	-15,15,-54,1,29,16,-27,21,44,11,-16,43,-57,8,17,-84,
	25,29,38,39,26,15,25,-27,22,-109,-55,8,17,-96,-83,-13,
	-31,-7,7,6,40,14,31,-54,40,-23,-36,-37,-55,-44,-33,-6,
	-8,45,66,-32,-6,-16,-85,-7,24,-27,-40,27,64,-24,-29,-42,
};

// Layer: L4 (Convolutional)
#define L4_active
#define L4_type BitConv2d
#define L4_in_channels 64
#define L4_out_channels 64
#define L4_incoming_x 14
#define L4_incoming_y 14
#define L4_outgoing_x 12
#define L4_outgoing_y 12
#define L4_kernel_size 3
#define L4_stride 1
#define L4_padding 0
#define L4_groups 64
#define L4_bitperweight 8
const int8_t L4_weights[] = {
	11,9,-18,7,9,12,1,-19,23,-7,9,0,10,23,-51,-35,
	-42,0,-2,-28,3,-16,0,23,-24,-8,18,5,10,7,8,12,
	-20,-7,-32,-50,-24,-26,-1,20,2,2,7,5,-34,-39,-30,0,
	11,-19,1,16,-15,0,0,9,-13,12,-11,8,4,16,13,9,
	8,11,4,18,6,4,23,-2,-4,-3,11,-9,-75,-7,19,-5,
	-31,-11,-3,7,19,-24,7,22,-26,1,-19,-7,19,-52,-19,2,
	1,-19,-6,6,10,4,6,11,5,4,8,9,8,11,10,-13,
	-17,3,14,19,-6,26,6,5,11,6,1,-24,-16,-55,1,0,
	2,12,0,6,16,23,25,-22,19,3,-21,10,4,-15,-28,-100,
	-4,6,20,-16,-22,7,-31,-42,-28,25,11,8,19,20,7,-6,
	6,33,-14,10,-15,-5,25,-23,10,-20,1,-6,-20,-15,0,26,
	3,-1,-16,-1,14,40,0,2,6,-31,5,-9,-26,-1,20,22,
	9,15,8,13,5,-6,4,5,-22,0,19,-30,-1,10,-25,15,
	11,-6,20,-13,-9,11,0,-28,-12,20,11,-4,8,-9,14,6,
	-3,-10,4,9,0,25,-22,-1,-22,-11,10,13,10,15,8,7,
	23,9,-3,18,-10,-22,14,-5,0,11,-9,-17,30,13,-34,19,
	2,-8,12,-14,27,-41,-1,-18,-53,11,20,-38,-22,1,-30,12,
	4,-23,10,14,-21,-1,15,20,2,-17,4,-25,-76,-45,-79,0,
	1,10,3,-12,17,17,-19,-24,27,18,-5,-4,8,-3,3,2,
	11,13,12,12,8,-28,-31,-11,-3,2,-2,-17,-18,-37,7,9,
	-47,13,4,-24,-11,-4,0,-3,-5,0,-6,0,-6,11,6,13,
	-4,11,5,8,5,6,15,22,7,16,6,4,9,1,-8,-24,
	-33,-30,12,22,-31,4,-1,-63,1,-42,-16,-49,-12,15,-3,12,
	10,-23,16,14,-25,-18,-28,-5,4,-3,6,4,18,1,8,11,
	-6,-7,-14,20,6,2,-14,0,7,25,2,-5,19,20,24,14,
	8,18,9,9,-1,3,-24,-34,-2,-10,27,-14,-4,9,-48,4,
	7,-34,20,-1,-128,-39,-30,4,11,17,6,4,22,10,24,7,
	12,11,7,18,-24,-8,-17,-36,11,1,-8,-24,-1,-22,26,-1,
	-31,4,4,1,13,19,15,3,25,-5,-7,-21,-2,12,-3,-5,
	15,-10,-9,10,-2,-13,16,-2,4,4,-10,17,-1,7,9,9,
	5,4,6,6,7,2,6,13,21,-13,-21,1,-1,18,21,11,
	4,-24,13,-14,-24,-24,-14,-5,11,22,6,14,7,-4,14,-1,
	-4,17,10,9,-19,-14,-9,13,3,2,-9,-24,-35,-18,25,-13,
	-6,12,-11,-72,4,7,-24,19,7,-24,-19,-6,-22,-22,-17,16,
	16,-27,8,9,-30,-1,-4,16,-3,9,17,-44,-22,-29,-18,-21,
	-21,-6,15,-31,10,14,-33,20,9,11,32,23,13,-3,18,14,
};

#define L6_active
#define L6_type MaxPool2d
#define L6_pool_size 2
#define L6_incoming_x 12
#define L6_incoming_y 12
#define L6_outgoing_x 6
#define L6_outgoing_y 6

// Layer: L7 (Convolutional)
#define L7_active
#define L7_type BitConv2d
#define L7_in_channels 64
#define L7_out_channels 64
#define L7_incoming_x 6
#define L7_incoming_y 6
#define L7_outgoing_x 4
#define L7_outgoing_y 4
#define L7_kernel_size 3
#define L7_stride 1
#define L7_padding 0
#define L7_groups 64
#define L7_bitperweight 8
const int8_t L7_weights[] = {
	-8,-48,-18,6,-7,-39,9,26,6,4,13,10,6,21,7,24,
	43,54,-2,-5,-14,32,-5,-18,42,29,5,-9,0,-8,-17,-2,
	1,-12,-6,33,38,28,14,43,9,8,27,15,-1,42,-16,-13,
	21,-32,-23,16,-26,-2,-1,-1,-11,1,-9,-21,-2,15,34,-32,
	-39,9,-8,-14,12,-29,-9,17,5,21,27,12,33,7,26,12,
	3,1,-11,-7,-9,-28,-17,0,23,54,22,37,13,18,22,19,
	12,15,6,14,-1,-4,20,16,10,13,6,6,8,3,-25,21,
	0,-27,17,-18,-26,-3,-8,-2,-11,-16,-13,53,6,-2,17,10,
	-3,14,19,-8,-37,-31,-8,27,40,25,9,13,22,51,31,2,
	-4,15,35,-14,13,24,-2,-14,-4,-16,-18,-15,-8,8,36,-3,
	-25,0,34,19,11,8,30,13,2,8,3,0,3,29,1,8,
	26,13,16,24,-13,-19,43,0,-17,-6,-5,-10,-3,31,-2,-10,
	-1,-11,-24,-11,-12,-20,-3,5,19,9,13,18,14,16,20,-42,
	15,29,-34,3,5,-20,-11,3,-17,-10,-13,31,-17,-8,25,-7,
	-4,41,1,-10,-2,-5,-6,7,-3,0,18,-12,-21,10,-4,-11,
	28,-8,-30,43,7,0,12,0,0,20,7,-3,-10,-1,49,-15,
	-22,6,2,-21,-29,36,52,37,14,20,22,-6,11,-15,6,-21,
	-24,16,-8,-19,31,0,-18,23,23,5,20,23,5,35,22,-9,
	-7,-7,-6,-22,1,-8,-25,-12,46,-17,20,-14,-22,22,1,-55,
	3,8,33,26,27,14,2,4,8,0,0,50,30,-9,26,-3,
	2,18,-8,1,-18,7,5,-8,6,3,3,7,-15,4,-30,-3,
	6,-1,2,23,5,-27,-30,-1,25,-19,4,21,-3,9,-9,18,
	32,7,51,23,-30,40,-11,1,-11,16,25,4,24,37,13,17,
	5,48,24,3,26,2,-11,13,-11,-11,-15,0,-16,-4,-2,-20,
	9,20,10,32,-1,-5,3,-4,-1,-18,-41,4,-20,3,34,-13,
	-4,-9,-6,-3,-16,1,31,54,4,-2,27,1,-3,9,2,20,
	36,20,34,54,13,43,29,-8,-38,2,-4,-12,23,-37,2,27,
	15,-5,-22,18,11,-22,43,3,-14,12,39,43,6,12,71,1,
	16,37,7,-1,-5,18,-1,-35,28,-28,-20,-2,5,27,2,-6,
	14,-3,7,26,-5,-6,11,-21,9,7,-19,32,-8,-9,25,22,
	12,-12,-20,3,-11,-16,12,-7,-128,10,-1,-76,10,-2,-51,7,
	21,47,-10,11,13,-32,-1,1,-61,3,14,-44,18,2,-16,8,
	-4,27,5,12,-22,-21,6,-24,-2,-9,24,16,16,16,32,39,
	26,23,44,27,16,5,49,12,6,34,13,1,-3,-1,62,1,
	8,19,2,3,5,1,-4,5,5,-1,26,8,30,62,6,12,
	8,3,16,35,24,42,57,-4,-8,-41,-4,-7,-6,-14,-8,39,
};

#define L9_active
#define L9_type MaxPool2d
#define L9_pool_size 2
#define L9_incoming_x 4
#define L9_incoming_y 4
#define L9_outgoing_x 2
#define L9_outgoing_y 2

// Layer: L11
// QuantType: 2bitsym
#define L11_active
#define L11_bitperweight 2 
#define L11_incoming_weights 256
#define L11_outgoing_weights 96
const uint32_t L11_weights[] = {
	0xb28200a8,0x8cee0a06,0x00893a00,0xe02c4458,0x2acac0a0,0x29a1258a,0x46f8b6ea,0x4a5f2804,
	0x2020fb1a,0x0089c22e,0xeeca8080,0xf80a90b8,0x4aa8c8a2,0xe802aa8a,0xdefab436,0x32012488,
	0xa8082202,0x08aa8aa8,0xaaa8aaaa,0xaa8aaa0a,0x2aa222a0,0xa8a82aaa,0xa0828aa0,0xa2a2a2aa,
	0x0aaa02a8,0x828a28aa,0xaaaa82aa,0x8a2aaa8a,0xaaa2a882,0xaa2a2a28,0x8a222aaa,0x2aa2a8aa,
	0xc82408a2,0xa8cca208,0xfaa8c980,0x0082aaf3,0xc4012202,0xa800acae,0xa142a8fc,0xeafaac10,
	0x8ac14098,0xaaaa80aa,0x522aaa40,0xe88aea32,0x08980601,0x82105004,0xc862b228,0xaa1e0c08,
	0xb0ac2e02,0x62000500,0xb8a1b302,0xaaac8c2c,0x20080888,0x1acbf806,0xacc8010a,0xa26366ac,
	0x3b342000,0x82821043,0x11a89e0e,0x32ea330a,0x8ebb00ea,0x910a8801,0x46003f64,0xfb848aa2,
	0x02ee0428,0xc090e100,0x24230820,0x28abaeec,0x4aea0aef,0xa02a7380,0x68abad84,0x28000a4a,
	0x0281ea82,0x228bc0ca,0xf8888e62,0x2ec0e1e8,0x2ac58800,0x036800cc,0x86087240,0xaaa327a4,
	0xa9ac8818,0xd8ead03a,0x92a4c2bb,0x8aecae8c,0x0eba4028,0xd8298830,0x0b510922,0xcae03062,
	0x31010acc,0x288bb3ee,0x08f389aa,0x10e2d8ca,0x81092186,0x0632a35e,0x34ee8920,0x18b12008,
	0xaa8aaaa8,0x8aa8aa8a,0x8a0a80a0,0xa2aaaa0a,0x22880a28,0xa2aa222a,0xaaa00888,0x202a8888,
	0x8a822aa0,0xa8a2aaa2,0x22a888a8,0x28a22a28,0xa2aaa2aa,0xa8a8aa0a,0x0aaaa828,0xaa0aaa82,
	0x03042b2a,0x33a000aa,0x18a8422a,0x0a040018,0xb2229a00,0x508a0253,0x82e80b2a,0x521228c4,
	0x280fa000,0x82840264,0x142aa0a4,0x32508133,0x0618400b,0xa2ea2b22,0x2ef2880e,0xfa40b0ae,
	0xa9083a23,0xa3070638,0xe828bb08,0xa8200920,0x8dc918fa,0x3b002ca0,0x88002266,0x0032ab0c,
	0x10a3ba02,0x0ac2a8ae,0x84a080a8,0x99be83a8,0x28a8a008,0x00399c04,0x828a4aa3,0x188209ac,
	0x2f26a602,0x9fb980a8,0x8200ffac,0x8aaf2084,0xa008a20d,0xa80444ba,0x22438065,0xaa3a8c22,
	0x24cf18b0,0x2ad1a802,0x48efa0a2,0x8800918b,0xac81aba0,0x02caefc8,0xe8a21444,0x8201218a,
	0xa8218ab9,0x40a28dfe,0xc92aa8ab,0xae0220a8,0x2a2ba020,0x20e080a8,0x8500aa88,0xfa8558a2,
	0x2af85081,0xa210bb00,0x48400a22,0x2ca281a8,0x80214081,0xaa3b8840,0x8840a1ec,0x18a5c405,
	0x0a84a00a,0xdc54aaa2,0x6becfc08,0x368e0606,0x60fb8081,0x40a7480a,0x6278e2c0,0x62eac82a,
	0xababfea4,0x00468042,0xc8ef2200,0x72ce4080,0x02a2e3b8,0x2ac22b20,0xe828330a,0xba0a9a04,
	0x24210e89,0xaa008d82,0x61cfa120,0x32ce0020,0x23028000,0x90828a81,0x2ca0222a,0x049aae10,
	0x2309a2a2,0xa033a00a,0xaaea2ba2,0x3280a1cc,0x8e96cf98,0xee8225ea,0xfb2a0a42,0x21070701,
	0xfb82a202,0xa88eb300,0xb3333b00,0x18a0220c,0x2b8ad923,0x23a8aa30,0x81aa28a8,0xaaa03281,
	0x20ba06ec,0x20ae91c8,0x00002b0a,0xa3a03f5a,0xa23a04ab,0x02804802,0x02008408,0xa0bf2f21,
	0xaaa22a28,0x8882a202,0x8a8aa28a,0x220a8a8a,0xaaaaa20a,0x80aaaa20,0x2aaa28aa,0x8aaa80a8,
	0x802802a2,0x222aaa2a,0x0aa82802,0xa0aaa8a8,0xaa8a82a8,0x8a2882a8,0x2a2a2202,0xa2a8a8a8,
	0x04ab84a3,0x6622bfc0,0x808afca0,0x8ca72b2f,0x1110028a,0x22aa3200,0x8446cc28,0x22fa0480,
	0x029062aa,0xa2044073,0x9a7c8262,0x0d0008ca,0xa60263bb,0x0300e0c8,0x804002d8,0xf3086662,
	0x202c8e89,0x0216018a,0x22006050,0xec0a4020,0x0880fa88,0x10c8ea82,0xfffe9dee,0xa2202c8b,
	0x20058832,0x02ec0ac0,0xc02a1006,0xaaa8808d,0x2ba0e820,0x0acaf2e8,0x08005c8d,0x3b80ab80,
	0x62a0ab02,0x62548091,0x40bf0808,0x406420c8,0x36af0022,0x01fb6215,0x00a2cbc8,0x64088a82,
	0x3f0e2066,0x08270424,0xb323bb00,0x82caa03b,0x06bb3208,0x2a803b22,0xca20c8cf,0xaa2b3bff,
	0xca8ce491,0xa38a8dc2,0x88239ab8,0x0ca22c01,0x0aca142a,0x4a029b80,0x1426a021,0x0598ba2a,
	0x03aa6a80,0xa227f843,0x2a402332,0x2a88b059,0x3383431a,0x63821888,0xea221088,0x0827b777,
	0x4aaa0683,0x42a2bf92,0x4b51b2a0,0x223bafb0,0x9e2214ef,0xf24250a4,0xaabe4b84,0xf2b0aa2a,
	0x818a2ae0,0x0001284a,0xf82dbb00,0x9a0abb42,0x2afa2211,0x104888f4,0x8a87130a,0x80ee0a23,
	0xa22a2aaa,0xaaa2aaa8,0xaa8a0aaa,0x8aa8aaa8,0xaa82a8a8,0x2a0822a2,0x22a0aaa0,0x2aaaaa8a,
	0x2aaaaa22,0x802aaa2a,0xa8aaaaaa,0x2aaaa82a,0xa2aaa88a,0xaaa0a288,0x2a2282aa,0xa28aa028,
	0x08a08015,0x0222a306,0x208b4210,0x23802026,0x012a3a02,0xf3bbffbb,0x2a0a00fc,0xaa3002b0,
	0x2b027820,0x2a898000,0x02208100,0x00f30c22,0x8833a2bb,0xb3803afc,0x2a28a18e,0x2aaf90ae,
	0x02917205,0x06a026b8,0x27bba6a8,0x89890d89,0x2b2e9900,0x8488ab81,0x8200a102,0x84ab2208,
	0x23ab0208,0x884e0166,0x80a82b2c,0x2b083211,0x2b23a0ab,0x0a220082,0xa80abaa5,0x28273f3f,
	0x228f8cff,0x00f00abe,0xa815040a,0x888c0e8a,0x8205e800,0x33c8b0ba,0x2a0000e8,0xbaa391bf,
	0x858010e8,0x8080e280,0x20500000,0x8209301a,0xaff888bb,0x88aaa0c0,0xa8500208,0x0205298e,
	0x0ae028a0,0xaa0a8080,0x20a02801,0xe8a228aa,0x200aa800,0x08ee20a8,0xa22a080a,0x082802e8,
	0x280a4838,0x82b800fb,0xba488800,0x2108a8ae,0xa62a2880,0x81aaa82e,0x0050a202,0xbaa8a0aa,
	0x0c028c00,0xea2b89a2,0x50aae2e0,0x40efee44,0x0cea420a,0x00424a00,0x0e4f5402,0x20c0cf2c,
	0x8a020e2a,0x0208fa8a,0xe8f0288c,0x0a8a0044,0xce02bc08,0xbe886088,0xa8a0474e,0x002fa691,
	0x80228202,0x0e0e2320,0xb262fa88,0x013a2600,0xae11c80a,0x0a2224bb,0x8aaa2202,0xb2739802,
	0x880aca7a,0x20814820,0x0afc2200,0xce402825,0xac300833,0xb30ab564,0x5a88c204,0xf3bfa22a,
	0x0baa2e64,0xace13240,0xaa899010,0x218caabb,0xb698b007,0x338a888a,0x8068048e,0xab00230a,
	0x882600b4,0x22e4208c,0x0612a3e0,0x231837a0,0x8ce32925,0x801ab1a2,0x8288892a,0x08239c22,
	0x2980e822,0x080823f0,0x3a202eaa,0x4844a80a,0x02e81a22,0x88aaa982,0x00456a2f,0xc8bbaaa0,
	0x8128424a,0xa2005828,0x42420280,0x22e02bc8,0x00f004c0,0x90100122,0x2a62bbff,0x888c2080,
	0x80052e08,0x40b08522,0xe5ae02be,0xc82185a5,0xca5932a3,0xea9aa4b0,0xaa08232a,0xe03a0828,
	0x2e2a50a8,0x288c0840,0x122a8ee8,0x0a9000cc,0x28133fb0,0xae5accc9,0x20080802,0x20232aea,
	0xf28f2883,0x320a0fae,0xae21a230,0xc8beae8a,0xa8a11e8c,0xbb190002,0x8a180852,0x8033a808,
	0x14000a06,0x08a0a2ce,0x2281a0f8,0x082c890e,0xa291400b,0x2a311a50,0x44f00e0e,0x1a18aa2b,
	0xccaf800b,0x0028af08,0x00053200,0xa0032e4e,0x8061feea,0x62baf640,0xafee8802,0x2060048a,
	0x0400fe08,0x8a180004,0x8aea1998,0xc96208b2,0x2a3a8833,0x8088b2f0,0x5180a8a4,0xb203a188,
	0x0aaaa828,0xaa88a288,0xa2aa8a8a,0xaaaa88aa,0xaa2a2aa2,0xa2a22a22,0xaaaa2a88,0xa08a82aa,
	0xa2a808a0,0x288a88aa,0xaaaaa8aa,0x00aa888a,0xaa2a8aaa,0xaaaa2820,0x222aa28a,0xaaaaa82a,
	0x28a8aa82,0xaaaaa8a2,0x2a2008aa,0xaaa888aa,0xaa822a2a,0xaa88a8a2,0xaa0880aa,0xaa28aaa2,
	0x2aa0a2a8,0x20a2a28a,0x0aa8a2a2,0xa08808aa,0x8a2a8aaa,0x2a2a00aa,0xaa8aa2a2,0x2aaa2aa8,
	0x2aaaa28a,0xaaaaaaaa,0xaa2a8aaa,0xaaaaaaaa,0xaaa28aa2,0x8aaaaa8a,0xa208aaa8,0x2a8aaaa8,
	0x2a88aaaa,0x00aa2aaa,0xa28a88aa,0xaaa8aaaa,0x8a2aa2a2,0xaa2a8a2a,0xa2aa28a2,0x2aaa8aaa,
	0x33a68817,0x809a0b0a,0x1bab9b18,0x20889200,0x23a8000a,0x1aba2383,0x00682028,0x1bd208a8,
	0x8e2b28ab,0xa823a008,0xbb8a0310,0x40c00b86,0xa2bb2223,0x2780faca,0x20008108,0x02bf0b88,
	0x8a008023,0x2aae2aa0,0x08a82ebb,0x8485afbf,0x28100189,0xbb200830,0x1048408e,0xcc23a820,
	0x142a08cc,0x88400a62,0x2882e8af,0x31529866,0x805285a8,0xa23a1846,0x2aaa261e,0x9a89882a,
	0xcf8e459a,0x80000f8b,0x2244d008,0xaa3b830a,0xaafa220c,0x0a22048a,0x23260854,0x0212850b,
	0x218afa44,0x8826aaee,0x0ad0a000,0xe8500a08,0xa82aae02,0x00eaa228,0x0a8091a0,0xc82f260e,
	0x1106acab,0xb8ecab2b,0x14e85aaa,0xca0606a0,0x8284e002,0x22828866,0xc08a8eee,0x24220ea4,
	0x8dac90ae,0xa2ec8220,0x8ba20802,0x08500b86,0x2018aca9,0x3a40a09a,0xae202a1a,0xb00d81c9,
	0xaa228a8a,0x020aaaa0,0x88a2a2aa,0x2aa2288a,0xaaaaaaa8,0x2aa82020,0x2aaaa82a,0x8a22aa8a,
	0x2880aaaa,0x80aa828a,0x80a2aaaa,0xaa88aaaa,0x8a808aaa,0xaa02aa82,0xaaaa082a,0x0a228a28,
	0x40a88ab0,0xf884aa00,0x04222000,0x080422aa,0xa008ee03,0x2b26a8a3,0x0a2a6a2a,0xbaf82b08,
	0x0f0ad104,0x806c28fc,0x5ae402a0,0xaa504f80,0xe05ae928,0xaa60a580,0x3e08aa5f,0xf8af03af,
	0xb09d2b8d,0x2022052a,0xa0242422,0x3b200dac,0xca3b8a04,0x38908a00,0xbb88188c,0x0860a218,
	0x3a641077,0x08332abe,0x80a029a8,0xd8782ecc,0x88012e90,0x0aa2e2ca,0x12c898a0,0xd932884f,
	0xae22c92a,0x64aa2a00,0x2e20028a,0xa2042442,0x00a2ca0a,0x8aab8208,0xeec89cdd,0xaa3055a4,
	0x260aea20,0xa280a2b4,0x0aa0a8a6,0xe82b6828,0x26320808,0x98fa00e0,0x44ca21cd,0xa0aea00c,
	0xa0a8a22a,0xaaa2aaa0,0x0aaa80aa,0xa2aa2aaa,0xa8a8a8aa,0x0aa22aaa,0x80a2aa02,0x88a2a282,
	0xa8aa2aa2,0x022a82a0,0xa8aaaa8a,0x88080a88,0xaaa2aaaa,0x82aa22a0,0x282aa202,0xaa2aaaa0,
	0xa28fafaa,0x28248e1c,0xa82ae455,0x8aae0a4a,0x8008ce2b,0x000a08aa,0x0ec0a2ee,0x20e0aa10,
	0x2081e204,0x0028c8fe,0xab260044,0xc8228a8e,0xaa322a00,0x8a800888,0xea6098ec,0xaa0dafba,
	0xa8aa882a,0xaa0aaaa8,0x2aaa2aaa,0xaaa88a00,0x2a2aaaaa,0x8aa2aa8a,0x2228a2a8,0x88aa8282,
	0xa02aaa2a,0x220a282a,0xaa2aa8aa,0xaaaa2a80,0x2aaa2aaa,0x0aa2a22a,0xaaaaaaa8,0xaaaa82a2,
	0x28aaa08a,0xaaa2aa2a,0xaaaa82aa,0xa02aa82a,0xaaa2aaaa,0x220aaa8a,0xa2aa82a0,0xaa20aaaa,
	0x22aaaa82,0x0a00aa2a,0x22aaaa08,0x88aaaa8a,0xaa8aaaaa,0xaa2aa28a,0xa022aa28,0x28a2a08a,
	0xaa62cca2,0x1388278e,0x08002baa,0x28240110,0x2000e0aa,0x8a24248e,0xeef2efce,0x88429d02,
	0x0083220a,0xa810e820,0xc24420a0,0x08009a82,0x46aa800a,0xa8a83622,0xd88289ce,0x608f24ee,
	0xad022a33,0xd0d62ba8,0x5ab082ba,0x4accee90,0x0ca06a32,0xfb425c08,0x0e4a0800,0x83a0ec3c,
	0x090b0290,0x202aaa40,0x30c4a2ee,0x5aba0260,0xe8288989,0x292c4870,0xaafe0b4b,0x502d0961,
	0x3a250031,0x210a29ba,0x3080ab8b,0xa8ae8e66,0xbb2bc8aa,0x190814aa,0xfdfa7264,0x9a1a00cc,
	0x2220a248,0x28238a8a,0x3a8e038a,0xba443281,0xce028991,0x81ca0082,0x4040a224,0x11a21784,
	0xaa08a828,0xaaa8a0aa,0xaaaa2aaa,0x2a88aa2a,0xaa8aa8a0,0xa882082a,0xa2a8aaaa,0x200aaa00,
	0x8aaaaa22,0xa2a8aa80,0xa0aaa8aa,0x82a80a8a,0xa8800828,0xaaaa8a88,0x2aaa82aa,0xa8aa02aa,
	0x8828882a,0x2a2aa88a,0x8a2aaa8a,0xaa8aa2a2,0xa28aaaa8,0x080aa088,0x88828a2a,0xa288a028,
	0xa00aaa88,0x0282022a,0xa2aa2a2a,0xaa0a8a8a,0xa88aa8a0,0x8a2a2802,0xaa22a02a,0xa2a0aaaa,
	0x2a82a8a8,0x2aa2a2aa,0x2a280a8a,0x8aa2a88a,0xa828a822,0x0a082aaa,0xa2282aaa,0x2a202aaa,
	0xaa888aaa,0xa882a282,0x8aa8aa88,0xaa080a20,0x2a8a0aaa,0x2a88820a,0x20a0aaa2,0x0aaa822a,
	0x82ca260a,0x2a020a56,0x8a8a8800,0x00878408,0x803b0801,0x08ff8202,0x8b802842,0x028034ea,
	0x23aae862,0x803202ef,0x6acca680,0x82a27a22,0x823b0b9a,0x0ec09028,0x44f0a7e5,0x0a6aaf08,
	0x2ba00903,0x0680b398,0xaaab2200,0x01848beb,0xbb10b033,0x8b00b28b,0xb82a00a8,0x8a2801a8,
	0x144010b2,0x0af48820,0xbaa2abac,0xab04b311,0x8035a0bb,0x2318b180,0xa9088aa0,0xa3272fa2,
	0x88a8a2a0,0xa28aa02a,0x80a2a8aa,0x88aaa8a8,0x0822aaa2,0xaa0288aa,0x082a2088,0x8a8a002a,
	0x80a88288,0x228a8a22,0xaa0a020a,0x00220280,0x22a88288,0x82a280aa,0x228a0aa8,0x80aaaa82,
	0x81a206ba,0xe8002e60,0xa888e8a2,0x20aaa626,0x04880812,0xb8abf840,0x80104262,0xbab32718,
	0x85288caa,0xa80060ea,0x42fa84c2,0x54b122cd,0xa2a1bea9,0x8c320d2a,0x76e8bf62,0x08090604,
	0x80a0a9e2,0xaeeea2a6,0xc1ea2202,0xb40c0be8,0xa080b08a,0x08a5a42a,0x2582a4f4,0xae682046,
	0x8283f8ac,0x2a802268,0x80ae020c,0xa0e088e0,0x0f302cc0,0x2982e468,0xeb89a5e5,0x8003e12e,
	0x2f81a08c,0x08acecec,0xa80738a2,0x2cac2f0e,0x0a3b9524,0x888392a8,0xba00cca0,0xacac0aa0,
	0xa898220e,0xa80f2844,0xba722f43,0x2aaa4209,0x24809a90,0x020a81a8,0x00428018,0x013b0766,
	0x92ee80a1,0xc2c0a842,0x03a4c200,0x302aabca,0x407bb8b3,0xfc328aa0,0x48022aea,0x8ab2026a,
	0x2a2218a0,0x824020a2,0x32822308,0x1070ab20,0x28b20808,0x01721062,0x208e2a02,0x182303aa,
	0x25842c88,0x2a040401,0x20bef2aa,0xc0ace184,0xaa288099,0xa128a224,0x80982662,0xb8662808,
	0x0804ce83,0xa0ca48a8,0x4aef01ee,0x320089a2,0x8a81a8b3,0x88803308,0x42e8a106,0xb381a820,
	0x0f222a10,0xeacc0463,0xcfa0ec00,0xc8270580,0x08402ea0,0xa200420a,0x828aeece,0x88889c04,
	0x2aeec2ce,0x8a8c28ee,0x82e220b4,0xae582189,0x020a8a02,0x0a408c04,0x89fa0f9f,0xaa802a3a,
	0x9eae6001,0x52f10c36,0xc82a8820,0xa827affe,0x2626b22a,0xfa8c8033,0xa100e9e4,0xfea62c03,
	0xa08810f0,0xa2fab2a7,0x20222220,0x8044f988,0x06222404,0x04aaeaea,0xb20099aa,0x822a9409,
	0xe22e802b,0xc05faeac,0x2c25f280,0x2aeeae4b,0x48924890,0x82672892,0x2e6a0b12,0x20fa8428,
	0x03ba284b,0xaa58000a,0x9ae4822a,0x48c25a6a,0xe00bc8ba,0x910a2060,0xe0a802ac,0xb80e8482,
	0x0088ef00,0x088e2400,0x002b0a10,0x0a040020,0x00f89c28,0x22a2ee22,0x88e863cf,0xa00a2ba8,
	0x2826a40a,0x88ae09ee,0x00040480,0xaafb3a90,0x0aff009e,0xccf804a8,0x4a02bffe,0x0021a2aa,
	0x05aaa9ba,0x212abf89,0x08256aa2,0x082c0f5e,0xae0680ab,0x0228911a,0x2a822a2f,0x4c3ae100,
	0x20a88bbc,0x22284a60,0x3fa20e0a,0x00020f80,0x055a8480,0xe204814a,0x38a292ec,0x012f021a,
	0x0082a482,0xf4b2a023,0xf22aaa08,0xce24882a,0xaa92e098,0x0010fa88,0xa8e388a8,0xa81aa800,
	0xa228c032,0x220c08e4,0x9824510e,0xba18202a,0x041200ff,0x0250afd9,0x1a02b088,0xf380b104,
	0x8802ce02,0x00ef228e,0xc842a014,0x28af0aba,0x082880a8,0x3aa8a8fc,0xcee0ecec,0xaa080e80,
	0x0aa422ce,0x228cc002,0xa0081e44,0x00faa27a,0x80f220a0,0x0190b0e8,0xd84408cc,0x0a824006,
	0x89000a23,0x00ab33aa,0x2020a282,0xa8ac88a2,0x3e9c2182,0x80a8012e,0x0a28000a,0x800a6ba8,
	0x9ca6883b,0x20cf8248,0xb3980a80,0x2a9d8360,0x299e88a1,0xa8c8f2fb,0x02129908,0x30aa9da2,
	0x55ac8481,0xaa0a0141,0x11ab5000,0xaa2201c9,0x40abbaaa,0x0e234b0a,0xa0fa8aaa,0x081086ba,
	0xab00ec0a,0xa20000ae,0xee8aa0a0,0x22b2aacc,0x520bac1a,0xaf6281a0,0x038a3b80,0xaaa33306,
	0x80aa8c3a,0xa8303268,0x8e888a00,0x190d2822,0x06b188b3,0xbbaa0822,0x8c802a2a,0x223a8a8e,
	0x8920a298,0x02c000c8,0x3b0a2380,0x02b233a8,0x88b88100,0x0032112a,0x68a23888,0x12820223,
	0x012655b7,0x62baeaaa,0x810aeaa8,0xb3028eb6,0xa241b41a,0x888222ba,0xa0abbb45,0xfa201e2a,
	0x09c80020,0x8248a024,0xac9a2a8a,0xa8402aa7,0x4980a2b0,0x820afaea,0x60100402,0xb388a085,
	0x00ae2403,0x2a2a8325,0x28eb4a11,0x620a8aa8,0x11222aba,0x3f2aff2b,0x84ea2022,0x200a3420,
	0xa733280c,0x82c4000b,0x001a1008,0x50a2ba8a,0x2efb2bff,0xab012300,0x37003834,0x0a8b2a10,
	0x60ab043b,0x20942f15,0x23884800,0x2a038a82,0x3addaaae,0x04effd05,0x60b8a222,0x9000f2c8,
	0x8a52ba86,0x8aba00a6,0x82680028,0x389883a2,0x04592009,0x311109aa,0x873232c8,0xb80e8908,
	0xaaa8aaa2,0xa888a080,0xaa00aa8a,0x282a80aa,0xaa8a88aa,0x2aa2a2a0,0x0a0aa8a0,0xa28aa828,
	0x2aa28282,0x2020a8a2,0xaa88a2aa,0x2aa88aa8,0xaaaaaaaa,0x8a280828,0xa80228a0,0x8aaa2aa8,
	0x0946888a,0x800a2c3a,0xee2070aa,0x72280042,0x0af84008,0x08ac0820,0xe0c0484e,0xa2282e88,
	0xb9a0aaaa,0x28884aca,0x2a160a82,0x2a2a0c08,0x80c90521,0x00803aba,0x488289fe,0xb8ad0191,
	0xe000a400,0x222233aa,0x26aa0aa8,0x18042462,0xd98a5a33,0x3b1a882f,0x8a028e0a,0x738820a2,
	0x0a8a6208,0x2aec8801,0x021888a0,0x88b88b19,0x009008ba,0xb8a11208,0x2aba0aaa,0x529fba2e,
	0xac02c402,0xffee0000,0x18b88888,0xaa456442,0x882a0e02,0x722a1a58,0x80ef9cce,0x44a030e4,
	0x088efea9,0xa0cc8224,0x02eaa1b4,0x913a4288,0xa0228e00,0x62f20e2e,0x8af01802,0xc0ab8888,
	0xa20a0e98,0x18eea583,0xa2100120,0xe2ac8ae8,0xfa9a0240,0x894860b8,0xeb82a2ff,0xee188280,
	0x888200af,0x8a89ec18,0x8901a822,0xfa99898e,0x08980c36,0x0a0ab3e0,0x8a0a00aa,0x6389226a,
	0x9228cf90,0xaab8a063,0x0a2a2202,0x080a8c2e,0x8a02ec80,0xba40ae24,0x04ec46ab,0x3872c340,
	0x1634c8b0,0xa0008822,0xa0a223ce,0xd860324a,0x6a324288,0x0040aa23,0x60ca8882,0xe2258c3a,
	0x8080a280,0x0240a6be,0x000880aa,0x280404a0,0x0afe0a00,0xa02a4a02,0x2a18cc8a,0x33b0aa00,
	0xaad8625a,0x0a0cae00,0x006289b0,0x18fa10e1,0x00312822,0x2ef80b48,0xe8b828ee,0x528b0805,
	0xa28c86ce,0x9020a82a,0x081018ee,0x0aa3ae0a,0x0a402225,0x80b802a0,0xa2540106,0xa09904ab,
	0x8421108b,0x0a5208a6,0x41eaaeaf,0x82004aae,0x8808f333,0x83bba242,0x00828064,0x2ba52522,
	0x938a8fef,0xab4a15a0,0x000acaba,0xaaaaa1a0,0x58a86208,0x22b440ca,0x102aab80,0x44acaa20,
	0x012aba68,0xa020aa44,0xe4efa1ac,0x55b0a10a,0x2ff4021a,0x0abc0221,0xbf9e0210,0x80257fae,
	0xf3812eba,0x80a88626,0x048a88bf,0x99818809,0xfb000c64,0x2a198820,0xaa18282a,0xa2012208,
	0x812410aa,0xa82aaea9,0xa2e8ecff,0xbb008ac8,0x89512caa,0xab2a291a,0x2abf8884,0x1005ad28,
	0x8822af02,0x82cc11aa,0x9b332abf,0x9f82edca,0x63ee8889,0xdd420bda,0x0d582226,0xd8222a20,
	0xbb0202d8,0x8a88ec08,0x092201e8,0x47de816b,0x0098800b,0xa8a84b55,0x202a382a,0x7381ac2c,
	0x802c0689,0xe804812a,0x8042a000,0x4aaaa8e9,0x22a820a8,0x01a6a205,0x04302b82,0xe501ae20,
	0xaf2afe10,0x82060aec,0x8030a4a0,0xb08ca242,0x28020e08,0x02f24370,0x08f2bafe,0xbb027342,
	0xa0aa82a2,0xaa28aa8a,0x8aaa8aaa,0xaaa20aa0,0xa8a2aa2a,0xaa202aaa,0xa2228822,0xa8aaa8a8,
	0x2a8aaaa2,0x20aaaa22,0xa2a0aaa2,0x2aaaa2a2,0x222a20a2,0xa22aaa8a,0x0a0a2aa8,0x00aa8022,
	0x33af04ab,0x0aa0afa3,0x24551a08,0xc02b0f8e,0xaa88ea22,0x189000ae,0x02e0a2e4,0x589a028b,
	0x86aab012,0x88c3c098,0xa3888a58,0xa80a9aab,0x08cecf0a,0x4008208e,0x10408224,0x488b85ab,
	0xa220aa20,0x2aaaaa2a,0x2aa88aaa,0xaaaa82aa,0xa82aaa82,0x22a0a2a8,0x8aa2a82a,0x8aa8aaaa,
	0x8a8aaaa2,0x2022aa82,0xaaaaaaa8,0x2a2aaaaa,0xa2aaaaaa,0xa82a8882,0xaa02080a,0x0aaaaa88,
	0xaaaaaa2a,0x2822aaaa,0x822aaa88,0xa28aa8aa,0x2822aaaa,0xaaa8aaaa,0xaaa8a282,0xa88a2aa2,
	0xaaa2a80a,0x820a2a88,0xaa2882aa,0x228aaa02,0xaaaa8a0a,0xa028a28a,0x820aa08a,0x8aa8a2a0,
	0xeeaa0e00,0x60458080,0xea823a2a,0x22efae44,0x0a8e02ce,0x58a20000,0x88e08044,0x6260ae8c,
	0xac00fb54,0x22ab1ae8,0xa022a8be,0xe84a12b2,0x0a386601,0x40000aa2,0x51ff88ce,0xf20a8160,
	0xa8aaaaaa,0x08a2a880,0x2a2a22aa,0x2a80aaaa,0xaa88aaa0,0xaaaaaaa2,0xaaa288aa,0xaaa08aaa,
	0x08208aa2,0x8aa2aa8a,0xaa2aaa2a,0xaa08a2aa,0x8a228aaa,0xa2aaaa0a,0xaa2a8888,0xaa20aaa2,
	0x4ca480a2,0xccd1aa02,0x4602ae3e,0x242a0014,0x00fa842a,0x3a061088,0x460a90e0,0x42e8b260,
	0x30caeef1,0x2a24fae2,0xfeec3a68,0x152af004,0x00a8a201,0x20b880c2,0xfaab8200,0x80aa80a1,
	0x08a8ca88,0x084c65ab,0xaa12502b,0x8845203b,0x00508a04,0x7388fe1a,0xc48808ee,0x220982fa,
	0x000a5100,0x28008e64,0x1018cbba,0x08100b41,0x1418a0ff,0xba0f0800,0x8a28bbe0,0x2c8082fb,
	0xaaaaaaa8,0x2aaa2aaa,0x8a0aaaaa,0xa0aa8a88,0xaa888a22,0x8aaaa2aa,0x8aa2a28a,0xa8aaaa8a,
	0x8a0a8aaa,0x2802aa2a,0x082a2aaa,0x808a808a,0x0aa022aa,0x0a02208a,0xaa28a82a,0x2a888a88,
	0x080449a8,0xd0aa23bc,0x14ee1a89,0xa7092406,0x092ab202,0x3b3baafa,0x00623b28,0xa2ae0a28,
	0x0ea01098,0x024800e0,0x42820080,0x8973a826,0xac3bea33,0xe2320222,0x2d00a827,0x10ab01aa,
}; //first channel is topmost bit

// Layer: L13
// QuantType: 4bitsym
#define L13_active
#define L13_bitperweight 4 
#define L13_incoming_weights 96
#define L13_outgoing_weights 64
const uint32_t L13_weights[] = {
	0xb0919000,0x0109300d,0x910b8a18,0x8000ab8a,0x888311a8,0x88801809,0x19008381,0xabb8a049,
	0x3ab8e339,0x1a0a3291,0x830a8289,0x8880800a,0x30341100,0x299b2909,0x299c8809,0x48a11998,
	0x08009200,0x4088380a,0x840809b8,0xa00b00c9,0x08bb2a0c,0x980a1018,0x88020083,0x0008888a,
	0x98a43782,0x0822ad8c,0x189c0e23,0x80c11021,0x80801b21,0x20a8b80a,0x28008f09,0x330058a8,
	0xf01a988b,0x1189cc87,0x93107881,0x88608105,0x00018189,0xa2180801,0x1a018899,0x83a11199,
	0x880a0990,0xa0988008,0x21880a00,0x0939a25c,0x99831b21,0xea028109,0xa8dadc8a,0x00c01809,
	0xb80b8204,0x01241302,0x9330013b,0x0202282b,0x0885b898,0x9490b000,0x88080a10,0xa1838a02,
	0x48b90000,0x90881ab3,0x483c740b,0x08882c85,0x0092b103,0x003b2183,0x022b8150,0x308bc21a,
	0x00820a10,0x01008880,0x80800998,0x082a9008,0xb2100088,0x0902128c,0x1092080a,0x08d1098c,
	0x9899230a,0x1a480b8d,0x2c898233,0x819a9239,0x00080098,0x91809888,0xa2008a80,0x02a8036d,
	0x2ab08090,0xcb018e80,0x11281b0b,0x08108980,0xa0a9a081,0x909c0a83,0x198d8cc9,0x090c190a,
	0x88812b09,0xb1083088,0x9c888ab8,0x4e89542a,0xa51aa80c,0x138133a9,0x29290004,0x8888ab0a,
	0xb81a220a,0xa21bd203,0xf8910a22,0x3dc39932,0x088d21b8,0x0180b888,0x2b080890,0x3503986c,
	0x0088b93d,0xa40b1d88,0x92991d89,0x0091bb80,0x308a0202,0x8800e580,0xa19884b9,0x2a291c85,
	0x0885d1c8,0x18803882,0x9a0808a0,0x801b2089,0x398702b0,0x50820280,0x48281283,0x8891b983,
	0x80cc8081,0x98808500,0x89a109ab,0x3852b2a9,0x00081930,0x5210c003,0x8c880908,0x01038213,
	0xb4081811,0xa188049c,0x2981a106,0x00b8a101,0x3821180a,0x1bc29080,0x1d0b02a1,0x928ba021,
	0x00800f81,0x1a003089,0x89000a98,0x181922a2,0x81219910,0x180ab021,0xe220298a,0x0828b002,
	0x281c8d80,0x8820bc88,0xa1848be3,0x09c80908,0x000a4868,0xb8385881,0x098088a8,0x08139211,
	0xc5853901,0xd0028439,0x0d388901,0x80a82a8b,0x208a9a88,0x019d2188,0x1a010910,0x1128b129,
	0x80802180,0x1188480a,0x20808b89,0x31480100,0xb5b00849,0x98809420,0xa939a90a,0x08499c00,
	0x88b19089,0x09231788,0xb9930309,0x09ba1883,0x008a1aa0,0x0358b808,0x19080800,0x39108b94,
	0x0130b899,0x89881983,0x01a5ab8d,0x08883c00,0x9019ac80,0x910b0008,0x0b2c8810,0x9229a490,
	0x0808a298,0x99100000,0x81008818,0x901b120a,0xda1210d2,0x0a030a3a,0x8908d18a,0x00288a00,
	0x8099a28a,0x4298b181,0xa19883d9,0x08a00020,0x880005c8,0x32a8a08c,0x11880880,0x0a2a8c12,
	0xc0192900,0xa2083188,0x8b910482,0x8808028d,0x289b3409,0x99820889,0xa0980019,0xc025d894,
	0x8001c1a0,0x12a08009,0x9b808810,0x02b00818,0x8aa00091,0x998d2199,0x10121182,0x88a88b02,
	0x00b3418b,0xbc0b018a,0xd010812c,0x842b8d88,0x88809188,0x8998c000,0x00008999,0xc400c938,
	0xa8dbb4d8,0x58012889,0x390ba083,0x88204108,0x08302308,0x1c409908,0x95388121,0xaa082a3c,
	0x08083800,0xd0909001,0x890000a8,0xd939c880,0x828201a9,0xa800992b,0x0b803188,0x8080188e,
	0xb8208000,0xe888a283,0xa0a3870b,0xd99821e1,0x80011928,0xa998e009,0x2c000928,0x8b099f39,
	0x803332a2,0x21828118,0x089b2100,0x8898c109,0x10088d89,0x21b1ca01,0x00b788d8,0x38b10900,
	0x080a1820,0x1028b881,0x408000d8,0x1524a909,0x81d92a41,0x1308a9a2,0xba9a9b02,0x80211a84,
	0x28230108,0xb8812088,0x8a1b8210,0x04d20a98,0x8080b3a8,0x3bc8288f,0x20888990,0x81210906,
	0xa91288a8,0xb1819091,0x018e360a,0x8091218b,0x108ab088,0x83a50980,0x909909b6,0x21901b5b,
	0x88031000,0x09d86009,0x40000820,0x99bc20b7,0x050a1aa9,0x88898819,0x8851508a,0x88b0520a,
	0x980ab88a,0x1a9ab38b,0x289083a8,0x2b9180a8,0x00008318,0x28802008,0xb2000490,0x9a08922a,
	0x2810821d,0x218920c1,0x8298d380,0x8880a288,0xb85c3108,0x690c8a09,0x808c8ca8,0x20b93b4b,
	0x800811a8,0x0428a800,0x20008029,0x31919a19,0x38c0d658,0x000932c9,0x2a209001,0x08203a80,
	0x1893e180,0x81100a01,0xa2500902,0x99b9982a,0x808992a8,0x0a008003,0x98888cd8,0x00091a14,
	0x8181829a,0x00858a12,0x988d288b,0x00502008,0x10c89202,0xa2009a08,0x91a98888,0xc089a288,
	0x08022980,0xf818d006,0x09000a30,0x8a038281,0xa1ac8fa8,0xb8812a19,0x18851804,0x8880330a,
	0x38da2281,0x991c2300,0xda530d9a,0x08211a22,0x08090388,0xbe80b881,0x12000988,0xa301ba40,
	0x80990190,0xb202a000,0xb2018305,0x80901c89,0x88114208,0xaeb80080,0x82020400,0x0d913913,
	0x8003aab0,0x89108808,0xbc000870,0x01949a1e,0x0102b49a,0x610192c2,0x9fe89181,0x08808001,
	0x30381109,0xa1022480,0xaa090ba1,0x38230f89,0x88009088,0x8b80100a,0x81880800,0x38101090,
	0x09aa9b40,0x8382a818,0x08ce8188,0x0038908a,0x18b8b902,0xc880d989,0x08810802,0x9830d812,
	0x88822698,0xba300881,0xb8080341,0x82282030,0xf0981dc1,0x8b80a802,0xb294a283,0x00908202,
	0xa8914901,0x18bf448b,0x69808a28,0x00b1a900,0x08813848,0xb2200089,0x88080190,0x00b4909c,
	0xa9998329,0x9a091502,0xa1a09888,0x80989888,0x18888180,0x1a80a909,0xb0a2892c,0x91800881,
	0x88023c08,0xe0988080,0x28808161,0x83b21bea,0x98e10823,0xa90089d9,0x8913100d,0x08201886,
	0xb8810189,0x1984810a,0x039e0801,0x002a0009,0x08820110,0x11e8900a,0x29000348,0x0bab8bc1,
	0xba0c908c,0x208a1009,0x00033288,0x00209402,0x2088b989,0x0a835284,0x1f100028,0x180108b0,
	0x008881a0,0x20900880,0xd2000a28,0x80501bc0,0x84883b88,0x9000a980,0x92b0b988,0x0090988a,
	0x289a1080,0x88102289,0x0188890c,0x1002b11a,0x08028900,0x0820200a,0x30008191,0x0312a32e,
	0xaab2ab09,0xa98902a1,0x80a38b80,0x00809b02,0x00090802,0xa9a0b581,0x81a88198,0x20399a80,
	0x8882aa98,0x8b880081,0x1a000040,0x899c30b1,0x198121c3,0x088ad010,0x9990180a,0x08280c04,
	0x1081ba08,0xbc192a88,0x99d0098a,0x1a02cca2,0x80889828,0x10282803,0x82888310,0x38020801,
	0xf1a2aed9,0x1100b821,0x88f92a09,0x80900801,0x5034108b,0x0ba82081,0x1c098223,0x29090a8a,
	0x80802280,0x0890108e,0x89880090,0x801ab229,0x0913908e,0xa008031c,0x801bc188,0x00a1818b,
	0xa889918c,0x203b880a,0x8d04809c,0x981014ca,0x80880928,0xb4d8b888,0x3a000990,0x903909a3,
	0xc0a04084,0xe8023b19,0x30a4a003,0x00c08080,0x00881809,0x82c10801,0x119388a8,0x93179200,
	0x08082918,0x1ab88009,0x48088920,0x84a29821,0xba834d02,0xa988d992,0xa0b19e80,0x0089af82,
	0x20098100,0x1c89a581,0x1a280229,0xbcb13989,0x00086aa0,0xa428d804,0x88800c08,0xb019cca8,
	0x4291a23d,0x1905582a,0x2b810000,0x0888c408,0x38aa0302,0x2293ba07,0x019f0a44,0x982e1934,
	0x088a2b98,0x8938b801,0x1c008099,0x38b03007,0xb8508b12,0x0902bc31,0x953b2108,0x0090ca81,
	0xb010a883,0x0aa8880a,0x31b98800,0x9a4313b1,0x08083110,0x22a09002,0xa9088981,0x2a1818c1,
	0xd11a2919,0xd18a2920,0xa8841b0a,0x8028b589,0x18a01088,0x1929b000,0x92810009,0x3a8cac22,
	0x0081c380,0x08482002,0xc8888010,0x18220200,0x82908191,0x1318caca,0x8a0a8408,0x08808b8b,
	0x88271080,0x4daf1408,0x1e998a50,0x1b99b121,0x88889038,0x31689088,0xc20008a2,0x8a802399,
	0xa8298249,0x00001822,0xa1a2b188,0x00189900,0xa8a22080,0x9a1ac100,0x500a8012,0xb901a182,
	0x0880b890,0xaa409803,0xcc800a40,0x8b02a49a,0xb912a1aa,0x2b899911,0x0a092109,0x0800c882,
	0x8808aa08,0x8859398d,0x2b898c11,0x3888b183,0x000291b8,0x90289088,0xa58802a8,0x180a8119,
	0x9ab8aa11,0xb1891888,0x81b09981,0x88b8a808,0x308b0181,0x898a0d03,0x0d89099a,0xa83b2892,
	0x8880a918,0x1a108801,0x008809a0,0x109a4c8d,0x82491300,0x828891ab,0x12008909,0x0898a908,
	0x18861a82,0xafc00b03,0x718b8990,0x3f438817,0x8804a908,0x4d387083,0x9c088708,0x4cb13001,
	0x9284998a,0x378dc239,0x2a883500,0x0008bb0c,0x9028cb00,0xb1202d01,0x03220fa1,0xb288010a,
	0x800c3010,0x9bb8c08a,0x928008f9,0x828029aa,0xb92b2a94,0xfa82af81,0xc0980989,0x08100508,
	0xa0308d0a,0x808d8082,0x98838ae3,0x00234211,0x88088990,0xb1000089,0x98808a08,0x099c0888,
	0x83b93d01,0x82030a8d,0x99999908,0x88481809,0x280b2082,0xcc0a0080,0x3c288d08,0x2b4818a9,
	0x880c0940,0x2a809881,0x908009b0,0x8010120b,0x143860e1,0xa583ab10,0x90011180,0x0890cc8b,
	0x90c89a8d,0x28a8a109,0x1803820b,0xc1a98910,0x088b92b8,0x01180082,0x120881a8,0x20210a00,
	0x19029021,0x8a8818b4,0xaa109289,0x00284a88,0x100cb582,0x909a1b80,0xba918bbb,0x82138189,
	0x08821128,0x20109089,0x09080cf8,0x82983898,0x91892982,0xe302999a,0x83a0818c,0x00288980,
	0x9092b083,0x099c2380,0x80100aca,0x189808b3,0x0089a820,0x8a101808,0x98808198,0x298a09d2,
	0x849b201a,0x02080600,0x1049328a,0x8090188a,0x10022a0b,0x898b1108,0x20300121,0x08800381,
	0x080a8c98,0x00a09809,0x8a000bc0,0x21319129,0x0983a21b,0x39889890,0x8aacaa8a,0x80880a01,
	0x88429801,0x0102aa88,0x12c889b2,0x2899118b,0x80899a30,0x02001888,0x2a8082b8,0x18b90881,
	0x00818910,0xa1008919,0x81210b00,0x00900a80,0xb0349980,0x2822ca83,0x02808a83,0x9d982189,
	0x00894180,0x82989880,0xbd088aa8,0xaab89210,0x2b080130,0x98820c2a,0x11a88909,0x8038a40a,
	0x28341c08,0x2ab11808,0x1c008238,0x19122292,0x0880b038,0x2198d880,0x93000b19,0xa2aa3ca8,
	0x0a1820b4,0x198c2c99,0xabc90b0c,0x8038b281,0x18888809,0x10929189,0x1b008980,0x92891329,
	0x00090c90,0x13a08000,0x28000b89,0x96a29893,0x8022010a,0x000a1181,0x091c818a,0x00100980,
	0x38811882,0xb2981900,0x80980814,0x2932c293,0x088bb088,0x9c002881,0xaa8888a8,0xe0981294,
	0x9a888af0,0x9908b840,0xb190a183,0x00b9ba00,0x98199800,0x98208981,0xf9280109,0x88b20890,
	0x8880a088,0x3a18e00b,0x99000420,0x5313298b,0xb83a9431,0x188299b9,0xb2cc900c,0x0819ad82,
}; //first channel is topmost bit

// Layer: L15
// QuantType: 4bitsym
#define L15_active
#define L15_bitperweight 4 
#define L15_incoming_weights 64
#define L15_outgoing_weights 37
const uint32_t L15_weights[] = {
	0x989aab98,0xd99aad88,0x98caa8a8,0xb9f98bba,0x9999a98a,0x9b99a9bd,0xadb88989,0xb9baa9c8,
	0x918a9808,0x19809102,0x108c09b1,0xd298a998,0x8809a80a,0x9981199b,0x9b898008,0x9a0ba259,
	0x99009100,0xa88b8191,0x8a809a88,0x89898a88,0x98a00f02,0x898a9898,0x1984a881,0xa28980a1,
	0x890888a0,0x19898880,0x0899a10a,0xa0a98009,0x09d92b28,0x90080199,0x9898a889,0xa8899090,
	0x829a8004,0xa80a108a,0xa99a8980,0xa0a8a998,0x1190089a,0x8998980a,0x1a988a89,0x010b2099,
	0xa0809988,0x99900808,0x2989b189,0xd9981a80,0x02d88999,0x101990b8,0x8008a919,0x0a009299,
	0x810998a8,0x91098988,0x91988909,0xba981a81,0x9aa00888,0x8398909d,0x889b1980,0x0c9a9a19,
	0x19820018,0x29808889,0x01898a12,0xa8000890,0xa819080a,0x9a98899a,0x99989890,0x189a888a,
	0xc9999088,0x98088a92,0x19b99019,0xba02891a,0x89a9ba03,0x89910a81,0x8a8a01a9,0xa0119088,
	0xb19c8ac0,0x989209ba,0x18b9a800,0x18a98008,0xab910088,0x08999119,0x288ca800,0x0100b099,
	0x388a80a1,0xc00c98a0,0x08a99b00,0x11888a81,0x0899ab99,0x8989b11a,0x098ca198,0x89a098a1,
	0xd090a0ba,0x08082a98,0x89d028a9,0x091909c9,0x99a0999a,0x0891a889,0xa19801b8,0x99819982,
	0xb1a208a9,0x889109a8,0xc890b088,0x28a19119,0xa8b10180,0x8999a00a,0x88881881,0x0018a889,
	0xb92b98a8,0x8bb00aaa,0x9ba00ac9,0xaa818a81,0x212aa9b8,0x98901991,0xac9192ba,0xbc81ab90,
	0xaa18999a,0x8a20aa88,0x898800a9,0x891b8aaa,0x188cbb99,0x89001e00,0x890a1089,0x11801180,
	0x198a0908,0x8999a019,0x98bb9a88,0xb8a09aa8,0x22881a98,0x89b98809,0x9990a91a,0xa2b99208,
	0x91980909,0xa1809881,0xb1a18888,0xca98aa81,0x01a182b9,0x02a9199b,0x88999088,0x89c018a1,
	0x9b0b8108,0x8899992a,0x828a0912,0xb8019918,0x80121090,0x29a8a998,0x89990a90,0x891a90aa,
	0x9880a89a,0x98888880,0x981a80a8,0xda9aa3a8,0x9a90cb08,0x12009881,0xa0821992,0x8a090091,
	0x0888980c,0xba0890b9,0xa030cb19,0xa0992109,0x080a1b88,0x98081088,0x9888c881,0x9caa80ba,
	0x0088a998,0x800a1819,0xaa9098aa,0xc9088b90,0xaa118129,0x09989180,0x990ca82a,0x1ab98a02,
	0x99981901,0x89991b89,0x0ab0b8b1,0x018998c9,0x089a8d9a,0x98000d08,0x98981880,0xb10198f9,
	0xa9900989,0x008a8910,0x989009c9,0x00999090,0x0a98aaca,0xa8189d18,0x918f1aaa,0x88a008b9,
	0x8999a80a,0x8b91a898,0x0801290a,0xa1a28909,0x000aa898,0x2a1818a8,0x1809a989,0x8a8119ac,
	0xfa0b88b1,0x880089a9,0x0ba010aa,0xd88a0ab9,0xb9a2ba9c,0x0a008a9a,0x82191198,0x1a9a9b98,
	0x0a9a1009,0xa08b8098,0x8a9200b8,0xd80000ba,0x9a00a19d,0x99889888,0x880a89b9,0x1d909998,
	0x208a8090,0x99a99000,0x0a9a0189,0xb9290a28,0xa090cb9a,0x9b08088d,0xa8882911,0x898a9ba0,
	0x9899ab98,0xe99aac98,0x98caa8a8,0xa9f98bba,0x9998a98a,0x9b99a9cd,0xacb88989,0xb9baa9c9,
	0x9999ab88,0xe989ac98,0x98c9a8a8,0xb9f99bca,0x9999998a,0x9ba999cd,0xabb89889,0xb9bab9c8,
	0x989aab98,0xe9999c88,0x98ca9898,0xb9f99aba,0x9998998b,0x9ca999cd,0xacb88989,0xb9baaab9,
	0x899aaa98,0xd99a9d98,0x98caa8a9,0xb9f99adb,0x8aa9a98a,0x8aa999cd,0xacb88988,0xb9baaac8,
	0x899aaa98,0xe99a9c88,0x98caa899,0xb9f99aca,0x8999998b,0x9ba99ace,0xadb88988,0xb9babac8,
	0x9899aa98,0xe99a9c98,0x98caa8a9,0xb9f99aca,0x8a99a98a,0x9b99aacd,0xadb88989,0xb9baaac9,
	0x899aab88,0xe99a9c98,0x98baa899,0xb9f99bcb,0x9998a98a,0x8ba999cd,0xacb88989,0xb9baa9c9,
	0x989aaa98,0xd99a9c98,0x98ca9899,0xb9f99bba,0x9a98998a,0x9ba999bd,0xacb88988,0xb9baa9c8,
	0x8999aa88,0xd99a9c98,0x98caa8a9,0xa9f99aba,0x8999a98a,0x9ba9a9cd,0xacb88989,0xb9baaac9,
	0x999aaa88,0xf99aac88,0x98caa8a9,0xb9f99adb,0x9a98a98a,0x8ba999cd,0xacb88988,0xb9baaac8,
}; //first channel is topmost bit

#endif
