// Automatically generated header file
// Date: 2025-09-03 13:56:57.352681
// Quantized model exported from octav_CNNMNIST_Aug_BitMnist_4bitsym_width96_64_0_epochs60.pth
// Generated by exportquant.py

#include <stdint.h>

#ifndef BITNETMCU_MODEL_H
#define BITNETMCU_MODEL_H

// Model class name as defined in models.py
#define MODEL_CNNMNIST

// Number of layers
#define NUM_LAYERS 8

// Maximum number of activations per layer
#define MAX_N_ACTIVATIONS 128

// Layer: L2 (Convolutional)
#define L2_active
#define L2_type BitConv2d
#define L2_in_channels 1
#define L2_out_channels 32
#define L2_incoming_x 16
#define L2_incoming_y 16
#define L2_outgoing_x 14
#define L2_outgoing_y 14
#define L2_kernel_size 3
#define L2_stride 1
#define L2_padding 0
#define L2_groups 1
#define L2_bitperweight 8
const int8_t L2_weights[] = {
	-19,-52,-55,23,-25,-6,-16,11,-77,-5,28,-20,1,-9,56,2,
	-34,0,-35,15,12,-37,-26,43,4,-75,-33,24,59,14,-52,-21,
	16,-27,11,17,1,6,2,8,2,47,33,-82,2,-11,12,28,
	-27,-46,-6,-16,-102,-97,-7,-49,-21,40,10,-49,-21,44,-12,15,
	11,-28,26,60,-3,-42,-2,9,-44,-64,-81,-74,-1,-16,-12,35,
	-80,-1,25,-43,31,-15,48,14,33,-12,41,85,-35,39,37,-39,
	7,25,-1,-11,-24,51,2,8,31,-60,32,23,-67,-20,32,17,
	-2,27,-7,-18,21,6,-42,42,-22,15,6,22,10,37,13,-47,
	37,21,35,-25,-14,-39,-106,21,37,24,-41,-45,-15,6,9,8,
	31,-46,-33,-4,-11,-71,30,31,-82,-39,-4,2,-27,16,-34,-10,
	62,30,-24,-37,-32,-1,54,46,61,26,-6,22,-12,15,18,8,
	-15,16,8,54,-22,-8,-4,56,51,3,4,75,54,2,-3,-30,
	-18,-40,18,26,34,12,10,-11,-48,-13,-45,40,-37,18,10,-28,
	-52,-30,15,24,-39,-39,43,15,47,41,23,-50,-12,-4,1,-23,
	-4,-34,37,3,-24,50,-66,-44,-76,0,-9,27,56,5,13,-128,
	15,-27,-11,-62,-51,-86,9,-13,7,30,14,13,33,-2,-18,10,
	16,21,-18,12,19,39,-74,-33,34,14,30,11,-4,-18,75,23,
	40,-22,-16,-18,-2,-1,13,20,19,17,-1,9,-4,-25,13,43,
};

// Layer: L4 (Convolutional)
#define L4_active
#define L4_type BitConv2d
#define L4_in_channels 32
#define L4_out_channels 32
#define L4_incoming_x 14
#define L4_incoming_y 14
#define L4_outgoing_x 12
#define L4_outgoing_y 12
#define L4_kernel_size 3
#define L4_stride 1
#define L4_padding 0
#define L4_groups 32
#define L4_bitperweight 8
const int8_t L4_weights[] = {
	-9,12,44,-8,21,31,-20,21,29,20,0,-55,-18,29,-3,-18,
	-12,14,22,6,15,13,26,1,-33,-28,-82,-49,-46,-50,7,0,
	7,-7,14,22,26,4,40,25,32,17,19,5,-2,-27,-4,5,
	-32,13,37,-35,-14,25,23,-6,-25,-9,7,32,5,10,21,16,
	5,-19,-2,19,-1,17,17,5,-46,-7,-2,-22,28,33,-17,-23,
	-25,-1,0,-6,12,39,34,-15,-1,-4,-24,-42,-9,12,-47,-8,
	27,-26,0,21,-3,-78,5,-14,-64,-7,-106,10,9,-14,-55,18,
	-3,-74,15,14,-102,4,-3,9,25,20,4,-1,20,41,-35,-3,
	-128,-20,-7,-12,0,15,27,22,27,23,-3,-8,-18,-30,-5,1,
	-41,-28,-28,4,24,-9,12,21,20,-41,-33,-18,30,12,-18,1,
	11,11,3,-55,-32,-38,-4,26,-18,23,-20,11,3,6,6,23,
	18,-14,-28,-15,-23,15,8,-25,-45,-1,23,2,-62,2,-10,22,
	2,10,31,10,16,24,2,25,44,32,12,16,2,23,1,9,
	5,-8,20,12,24,-37,16,-40,30,-20,-20,18,13,12,9,3,
	10,-14,-61,3,-24,17,33,21,35,1,-83,16,8,-38,33,-3,
	-40,-54,-44,19,-45,-18,-40,-16,24,-38,12,27,15,5,0,19,
	15,5,3,9,5,7,28,2,-25,-48,-29,-1,15,0,-22,16,
	16,-34,-6,20,-41,-86,-52,-13,7,6,8,13,12,9,15,6,
};

#define L6_active
#define L6_type MaxPool2d
#define L6_pool_size 2
#define L6_incoming_x 12
#define L6_incoming_y 12
#define L6_outgoing_x 6
#define L6_outgoing_y 6

// Layer: L7 (Convolutional)
#define L7_active
#define L7_type BitConv2d
#define L7_in_channels 32
#define L7_out_channels 32
#define L7_incoming_x 6
#define L7_incoming_y 6
#define L7_outgoing_x 4
#define L7_outgoing_y 4
#define L7_kernel_size 3
#define L7_stride 1
#define L7_padding 0
#define L7_groups 32
#define L7_bitperweight 8
const int8_t L7_weights[] = {
	-9,66,-26,-14,-56,-59,-7,28,45,-3,5,28,12,48,30,76,
	13,6,-19,-15,-33,54,-24,-7,82,84,13,3,2,20,55,43,
	11,1,1,-1,28,-94,-128,-41,-22,3,25,31,22,-100,-59,1,
	-21,10,-13,42,99,-16,3,64,34,-58,-11,27,-26,-62,-37,25,
	-43,-34,35,-25,-59,16,26,-66,65,19,51,43,23,116,22,73,
	44,14,34,0,-24,-59,-75,15,6,11,95,-10,-9,34,-10,-2,
	69,-46,-11,14,41,38,4,45,41,26,33,-4,65,-2,6,24,
	5,18,1,14,26,48,22,-12,-16,-6,10,-26,-45,-75,23,-9,
	-9,25,25,14,83,55,-5,19,38,64,-1,1,5,-3,1,-2,
	-37,1,41,-53,38,68,-73,-23,6,36,1,-8,80,22,4,30,
	23,1,84,30,56,-8,12,11,-13,-4,5,-11,-11,-40,-24,-30,
	-26,14,29,59,-19,-19,3,-6,15,33,0,51,81,27,-38,-81,
	-4,-3,-27,-8,51,49,74,24,9,-17,-26,-19,-50,-35,-12,-21,
	-17,-33,4,26,49,0,30,61,-11,-11,-43,7,-53,-24,40,16,
	26,22,-18,-28,34,-12,-43,68,-9,-53,0,17,34,44,74,28,
	112,63,18,68,71,57,35,-19,-10,-9,-18,-77,24,29,51,-16,
	-31,-2,-31,6,-7,5,35,88,-4,26,49,-13,13,31,24,30,
	33,24,31,-10,54,63,18,-33,-27,46,4,3,22,-36,3,31,
};

#define L9_active
#define L9_type MaxPool2d
#define L9_pool_size 2
#define L9_incoming_x 4
#define L9_incoming_y 4
#define L9_outgoing_x 2
#define L9_outgoing_y 2

// Layer: L11
// QuantType: 2bitsym
#define L11_active
#define L11_bitperweight 2 
#define L11_incoming_weights 128
#define L11_outgoing_weights 96
const uint32_t L11_weights[] = {
	0x0aaa36ba,0xe1afa9fc,0x00230284,0x2a0b4144,0x8aa42a4b,0x80a02f81,0x0f440a1c,0x214062be,
	0xba4285aa,0x33280016,0x8ca325b9,0x102e301a,0x7f848fa5,0x28244a30,0x88a2b0af,0x0c32aae9,
	0xa882aea0,0x0a8e02a8,0x2304813a,0xaa404098,0x0042ea04,0x4320028a,0x01bfa082,0x0a98813f,
	0xb2889f08,0x4b2e4802,0x18a7823a,0x91b387af,0x228e0aa2,0xa103a62b,0x84a523f2,0x88aaf401,
	0x22acae26,0x0c2cff90,0x89026a0e,0x118a6fa2,0x91aa2238,0x001f12bb,0x20542e03,0x0ab02215,
	0xb8e82fca,0x72a8d1ec,0x890aba1e,0xefa02790,0x7a4e1000,0x2189000c,0x28140028,0xc92a0a9b,
	0xf26aaf23,0x20201fc2,0x80382621,0x24084a53,0xbe0a69ac,0x70017ea2,0x3a027e28,0x4a63238a,
	0x021b48ea,0xea8ff0e8,0x02d2a2f2,0x4c10a110,0x1a208ab2,0x03228ec2,0xa20b030a,0x280a406a,
	0x2a8a8220,0x8aaaa20a,0x88a822aa,0xa8a2aaa8,0x8a20a88a,0x2a2228aa,0x80aaa2a2,0xa228228a,
	0x80ae8ac0,0xc1a2020a,0x02840810,0x11baecc8,0x928aea80,0x8981c810,0x8ea6e8c8,0xa0c8ec44,
	0xa28a0d42,0x00229800,0x3400a228,0xba2800a0,0xbb010a82,0x8bb06b20,0x06ee36b4,0x98a29cef,
	0xaa052c8b,0x8b811208,0x1aae0e4b,0x66828988,0x26ae8a02,0xc3a202c8,0x48baa44c,0xa380feab,
	0x4bfc2fb0,0x9404a0c0,0x0283ee12,0xca40aaea,0x402ec827,0x0248a10a,0x0a98c291,0xf2eeee03,
	0x4f98a12a,0x22120004,0xa48ba432,0xaa2a2aaa,0x02820a0a,0x1a242300,0x83caaac2,0x88088ca8,
	0xaaaa8a28,0x22a08822,0x20aa008a,0xaa28a2aa,0xa0a2a8aa,0xaa0aa22a,0xaa28aaa0,0xa0a8aa88,
	0xb108a1a2,0xaf22da8b,0xbb892430,0xa4819098,0x0fe24c2b,0x23218ea0,0xa6aa0b32,0x101bc118,
	0x28a8aa0a,0x8a222aaa,0x2808a0a8,0x82a0aa8a,0x82aa888a,0xa28a8a20,0x8a228aaa,0xa2a0088a,
	0x11008f2a,0xaa8ea12c,0x2f288a88,0x0ae5252a,0x2e0e0281,0x34af260e,0x483e0322,0xa0a020ab,
	0xa2e88568,0x2aeb014c,0x0aaaca2a,0x8eae007a,0x3a20448b,0x8241ffc1,0x8e459f19,0x40b83438,
	0x8a28f624,0xaa8542ae,0xcdf800a0,0x02a808ff,0x89842208,0x8c8c00ae,0x24a568a2,0xe6b8f6a8,
	0x1a00a4ca,0x041cb0b0,0x308884bb,0xea1aa3e8,0x21b60e13,0x41470523,0x02b82b2a,0xaae801b3,
	0x3080fc0e,0x0e0e8a0b,0x238ea06c,0xf4f2e088,0xab8a0884,0x2601040e,0x80a9a682,0x8a82e111,
	0x900004a8,0x22452bb3,0xc9e9cca8,0x81e88afe,0x88a01a88,0x0aa3e023,0xa5a510f2,0xf2c9f231,
	0x02c08f02,0x88820c6a,0x01224243,0x000226aa,0x888e0080,0xa92008aa,0x26802040,0xac8aa8c9,
	0x20a0802a,0xe80a2248,0x03a0565a,0xe2808278,0xe8802083,0x0328f908,0x820ece90,0x0ab9111a,
	0xfa782408,0xae249288,0xa020a88b,0x22aa1000,0xa484280f,0xfe280820,0x8fefa420,0xa0a22e2b,
	0xaaa8aa8a,0x8aaaa22a,0xaaaaa2aa,0x0a22aaaa,0x8a8aa00a,0x0a82a228,0xa2aaaaa8,0xa882a288,
	0x12a8ae5a,0x80612b27,0x8d095f00,0x42212e30,0x004cfb98,0xe28fe82a,0x0c00cd8a,0x48212a90,
	0x90380eaa,0xa1a00e0e,0x10898c03,0x0a85120a,0xc13fe093,0xc492a28c,0x886a8088,0x6a892833,
	0xa1832388,0x40210b35,0xaa090222,0x65809aa8,0x360383c7,0xea8e0a82,0x0bfa0bac,0xcfa4de8a,
	0x4a32a600,0x0404b0a4,0x21080083,0x34db88f0,0x24020e8a,0x9d1a2920,0xaae100a1,0xfa20faf0,
	0x10a462e2,0x180a3376,0x03885050,0x5a000af8,0xd270c808,0x3200c0aa,0x5118aa98,0xf2e868ba,
	0x001a0aaa,0xb4250aae,0x0ea18e80,0x0a010bf0,0xa9eeaa5f,0x2cbf8abf,0x58280c18,0xe5a90a9a,
	0xa8aaa288,0xaa8a2222,0xa2a82228,0x8aa82a82,0xa8a2aa8a,0x8a228aaa,0xaaa8a882,0xa82aa282,
	0x51080a02,0x5026aaeb,0x2b20ff00,0xef0102ee,0xab22010f,0x03118a10,0xaa8e2a00,0xe0aa20ab,
	0xb284edaa,0x8b2a8808,0x4388024b,0x371404ba,0x8acc0922,0x03a39002,0x26cf0052,0x8fa0e8bf,
	0x8a402ea0,0xf00482e0,0x818c8ec3,0x2aca2852,0xa52e062a,0xe10c2bbc,0xaa2a4440,0x04402e93,
	0xaa8aa288,0x2a2a8228,0x0a0aaa2a,0x8a022aaa,0xa28aaa0a,0x0a8a8a8a,0x8aa2aaa8,0xaa0882aa,
	0xaaa2a2a8,0x00228a82,0xa0a80aaa,0xa28a0a2a,0x88aa2a0a,0xa28aaa8a,0x2a2a88a2,0xa28aaa8a,
	0x2888afa0,0xa200efa2,0xb038ff10,0x805102ca,0x80fe802b,0x320990a0,0xba0081a0,0x8e8aa11b,
	0x8a2e0000,0xa0852baf,0x24194c04,0x2b19ae00,0x0200eaae,0x0bffaf22,0xacaacdc0,0x020a0a07,
	0x20e81eb5,0x0288b64a,0x89240080,0x1e3462f3,0xaa488320,0x204b9430,0x652800f2,0x8af04aae,
	0xa1420302,0x2e21a232,0x080e4e1a,0x00bceeb0,0x29220eaa,0x3d2fac0b,0x40020966,0xb4802a85,
	0x002b0a80,0x10204462,0xae024e30,0x0ea228f0,0x6f4ccc00,0x0f00bc90,0x5e82efff,0x20e80ac0,
	0x382f438a,0x5180005a,0x8980ae22,0x088ca8ba,0x2e2058c5,0x0d508d04,0x005ae9e8,0xafb10fa0,
	0x3b2ae800,0x480d2b88,0x01222e00,0xa8afbf62,0x288c02ae,0x080bb088,0x001588a0,0xa062b4a5,
	0xbee1280c,0x02241982,0x12abc461,0xe23fa17a,0x8600b492,0x8244e4a0,0x8e2fc41a,0x58b2ae2a,
	0x0190ee7f,0x32a42ba3,0x0be9e021,0x8228811a,0x6b22be20,0x33414bb8,0x310302bb,0x520fe80a,
	0x000b088b,0x42044c67,0xbbab0f21,0x0e20242c,0x2b2fc1a3,0x4f220a1a,0x0bafbbf0,0x108f0b9a,
	0x04af345b,0x4284afa6,0x2180a815,0x9088b882,0x2fa60821,0xb9018a22,0x211be58a,0x8f0aaeab,
	0xafa1a8a0,0xa023292a,0x0a0b889b,0xa2efed88,0xada00802,0x818b0111,0xa20b8120,0xa0102c02,
	0x1a120f8f,0x2a0b29a0,0x83af2aa2,0x4a20a9d8,0x982ae2b2,0xa3308ac2,0x6218a480,0x401a203a,
	0xa2e8a400,0xba0ee232,0xf10034de,0xfec80442,0x28045220,0x39cbe028,0xb482ece0,0x8a60001a,
	0xb0a0089b,0xdaca9822,0x63006478,0x60a92898,0x23c2cde8,0xa2a89c90,0xa08ba842,0x2a00f1fa,
	0x59a12820,0x81aab82e,0x0b884f42,0x4a2a81f3,0xcaa8020e,0xc28b0a88,0x50214b5a,0xb6e13aba,
	0x33faa1a2,0x22e8ef00,0xa8b2e880,0x8020b8b3,0x08a09620,0x31808802,0xa201feaa,0x88ff8043,
	0x2aa22a2a,0xa202aa22,0x2aa2a08a,0xa288aa8a,0x822aa08a,0x2aaa2a22,0x00aaa2aa,0xa28202a2,
	0xf81042a2,0xea8102cd,0x320ab8f8,0xac2aa090,0x81048620,0xb2208062,0x8efc22be,0x28101a10,
	0x6828a85f,0x43428a46,0xaa0a0e41,0x546bbe88,0x6a4ee088,0x812aae08,0x2e02ef8f,0x8888aa80,
	0x2258025b,0x7bea812c,0xceafcf9e,0x88f2f80a,0xc90202f7,0xa2baea2f,0x0a408c82,0xa22a7a66,
	0x08aa8aa8,0x008a2802,0x00828a22,0xaaa30828,0x800e81a8,0x8298a319,0xaaa0a0c0,0x8a04a0a9,
	0x8819ad20,0x0b06a0e0,0xc6a880f2,0x20bbad00,0xb02c7f1b,0x8a214388,0x022f2532,0x0508ae08,
	0x30ba24aa,0xeda82e40,0x4088580a,0x500a00ba,0xeaaaee01,0x0909ea1e,0x8112a08a,0xbaf1a001,
	0x8910a1e8,0x2a28a2af,0xabeaae60,0x18aa00e8,0x43e8ee2e,0x22fa12a2,0x0d025b9a,0xe08420a0,
	0x1824260a,0x4c8d9421,0x380e809b,0xaacbcaa8,0x350628e2,0x21398803,0x2e28a0a4,0x838a0eb3,
	0x9ee22ae8,0x400ab9e8,0x8092b233,0xa2aa08e9,0x1281e801,0x16401486,0xcec0a2d8,0xbe92c0b3,
	0xa90b8c0e,0x192a4107,0x0bc8ca20,0xaab0a13a,0x2bce3295,0x2200b489,0x884f02aa,0x02ad8802,
	0x0aaa2aaa,0xa882aaaa,0xaa82aaaa,0x22a8aaa8,0x2aaa2aa2,0xaa2a0aaa,0xaa2aaa2a,0xa2aaaa22,
	0xba814f81,0x42b51008,0x29aba8a0,0xacb2b6e8,0x3a6002a1,0x3d3d20a1,0x890021fc,0x2a0a0fe9,
	0x600a0aff,0xa082af88,0xe9aecec2,0x0818a0e2,0xb8ea804a,0x610a12b0,0x102029ae,0xa0a05202,
	0xaaa800a0,0xa82aaa2a,0x22a0aaaa,0x2a2a0a2a,0x2a8a0aa8,0x2a2a2aa8,0x2a08a0aa,0xaa0aaaa8,
	0x8bea20c0,0x00aa3088,0x0222e532,0x418a2ad0,0x6b85cfa8,0x1aaa5b04,0xaa24bf9b,0x3a5b02b8,
	0x80124ba3,0xa78cabec,0x3af4cfcb,0x5980149a,0xa1aa8633,0xf3a2822b,0xbbb882a4,0x2b02ea13,
	0xb200a2af,0x23048855,0x02228800,0x1402aa22,0x24cf11fa,0x20aa0aaa,0xee98e902,0x5aef8c0a,
	0x3aa08522,0xe88bf88c,0xc9a0248f,0xea908062,0xa4042088,0x0082e022,0x808cd9cc,0x08b0404b,
	0x0bea2b8a,0x8b2ba5da,0x9bab4529,0xa2b8b111,0x1f240266,0x23a6d3ab,0xa248139a,0xa88a2a6a,
	0xfb68a020,0xaf2b18dc,0xe8b3048a,0xe2a30062,0xbaa44d23,0x322c32a1,0x83804170,0x083b8442,
	0x995a2822,0x0081e3f3,0x728cfe81,0xcc38a88a,0x2bcc0428,0x3b024030,0x288f2070,0x96000a82,
	0x200200a0,0x220c8282,0x036200b8,0x422a6ad2,0x0b80acaa,0x080a4fa4,0x6a8a3f02,0x820300e9,
	0x8060be3b,0xa883a844,0xd4c28a93,0x2292857b,0xe33a7c88,0x91067fc1,0x005c0228,0x423e603f,
	0xba0acaaa,0x2a85c88c,0x4b0a3eb9,0xb2e19bd9,0x9aec0a2a,0x1829921b,0x22a30b10,0xfa02c003,
	0xa0148f08,0x00294086,0x002aa32a,0x20a8264a,0x2a0e2582,0xa1a1200c,0xeae84626,0x1c22eea8,
	0xa0aa0f04,0x10850227,0x8c082f00,0x2a298e02,0x6a48eace,0x030bac03,0x2c00eefe,0x4a2ca884,
	0xbb2ab888,0x80ef21aa,0x1b02222b,0x62a30190,0x1bc48ca2,0x00ac0c12,0xb2880850,0xb006f0b6,
	0xfa2a260b,0x0025108c,0xb3889cf0,0xf28822f0,0x8804300b,0x9b3b435a,0x0b82f8fa,0x0220e204,
	0xa8a0eeef,0x0a020458,0x208ac832,0x0032ef80,0x460f88aa,0xa128220e,0x5cca800a,0x00cf8c29,
	0x00b0b2b0,0x08a08060,0x0aaa5018,0x22eca8ff,0x80ae8185,0x039b818f,0x85820082,0xfaf9f281,
	0x3202ec0a,0x53080a88,0x838ae030,0xe0ba82f8,0x1b8e0022,0x0b24801a,0x16c80602,0xeaabe021,
	0x304b868a,0x03a898ef,0xae8afea0,0xa22e0a19,0x6ac8082a,0x40282e12,0xeb942faa,0x88530491,
	0x8aeaa488,0x580a6021,0x86904470,0x8e220a89,0x9006e888,0x88e8a800,0x9c158eee,0x4a102439,
	0xa2aaa8aa,0x28a8aaaa,0xaaa822aa,0xa80820aa,0x28888a2a,0xa08aa8a0,0xa2a02aaa,0x2aa8aaa8,
	0x220a88fa,0xec848b8c,0x38f04080,0x02104ea2,0xa3e00e4e,0x70f90ab0,0x4aaa6e6a,0xe5b31202,
	0xab8588a5,0xb862a528,0xe02ab0db,0xee823040,0xa24a860a,0x31a3866c,0xb828a4a8,0xa02a0212,
	0x2c08860a,0x522b800a,0x0caf8e02,0xeabffeaa,0x2ca04a89,0xad410808,0x0e578922,0x00882b85,
	0xe238ec0a,0x080e4488,0x21b6d0ab,0xe8265373,0x3b0a7908,0x2189b141,0x000a3cb2,0x283b22ba,
	0xb2ea0508,0xa982888c,0xa8202008,0xaa890a62,0xa084208c,0x2a00f8a0,0xae40dcc9,0x4e386602,
}; //first channel is topmost bit

// Layer: L13
// QuantType: 4bitsym
#define L13_active
#define L13_bitperweight 4 
#define L13_incoming_weights 96
#define L13_outgoing_weights 64
const uint32_t L13_weights[] = {
	0xb90af9b8,0x1104a381,0x0b8aa1bb,0x2609cb9c,0xd8a1888a,0xba9b9123,0x2a180990,0x8018b2af,
	0x4a99809a,0x021421d0,0xb0ca23a1,0x828c2403,0x0f1a08b1,0x01431180,0x81988990,0x01892608,
	0x28a21901,0xc9ad012e,0x0a05832b,0x99c1d208,0x8888908a,0x4a0a1996,0x02a0d03a,0xcc8c2a0e,
	0xe0101a88,0x85b35a9a,0x1bb18c22,0x0d890204,0x8844a004,0x3b08a288,0x9d09eac1,0x0283af0a,
	0xa1c02083,0x34c018ba,0x21382518,0x89901b00,0x0504ae22,0x991c0282,0x8120431b,0x0909f128,
	0x281ba08f,0xb08df0a1,0x8b008b08,0x01ff0992,0xb0809808,0x9b402020,0x1af93212,0x20809a88,
	0x89bfd002,0x19a10e08,0x82349c58,0xa40b9044,0x0820a00d,0xa91e2984,0x89bb9d19,0x8ab8acb2,
	0x0c18108f,0xa0a1a199,0xd89e8e48,0xb101a480,0xc1a8300e,0x0eb0c200,0x8048f2ac,0x80061d80,
	0x98b82080,0x89222125,0x00a0a09a,0x9030a082,0xca002c01,0x00a11b98,0xd1198db1,0x010c1220,
	0x2818bc24,0x80cbdc91,0x8a215849,0x01199449,0xa01a9011,0x90aba22b,0x8a08b890,0x82ac18b8,
	0x08d08109,0x81322a08,0x13023ba0,0x15110a32,0x890a9102,0x08213901,0x83432218,0x281dabb3,
	0x8804a80b,0x3001fb89,0x0883848f,0x89339a08,0x0998ba83,0x83a39d0e,0x39a3a943,0xa1822fc0,
	0xb0964880,0x0b9add00,0x0bc09221,0x9a088920,0x01bc800c,0x584886aa,0x80ac9bd2,0x11988ad1,
	0x11c00298,0xb01b9899,0x50384595,0x22028911,0xa80b1bf0,0x03b29809,0x000c3a1c,0xcf890614,
	0x80399985,0xa1292e9b,0x95182202,0x091dce41,0x55b0c004,0x1218c991,0x8801e6cc,0xf00828b9,
	0x9529311b,0x813a600b,0x028c8eb9,0x01007988,0x90821081,0x12113898,0x83cd0c04,0x8190ab3c,
	0x0a100882,0x933c8bd1,0x982881cd,0x099c2131,0x0b183a81,0x13d31c09,0x00985a22,0xbb990333,
	0x90320199,0x003a19dd,0x9814c129,0x8121d972,0x34a01211,0xb19280a8,0x0a229209,0x900212a9,
	0x99c23d9b,0x8002c181,0x1b0ba208,0x00033f12,0x28b3189a,0x2919258a,0x0800048a,0x8aa83b44,
	0xd8b81a10,0xcd2acb9d,0x21119101,0x82819cb1,0x901aa2b8,0x02896889,0x080fa801,0x2f004030,
	0x1944a901,0xa9133c08,0x98091222,0x0f191d41,0xe028a189,0x903db8e1,0x9a59a61b,0x0a019423,
	0x0b11332b,0x82992a13,0x8d12980a,0x089989a8,0x10692884,0x4c0684a3,0x3b909cd4,0x1081b88a,
	0xfc11c808,0x32d08399,0x3a1a320c,0x1a10ba49,0x8a81a09f,0x842b298c,0x18388891,0x99811f30,
	0xa8a00880,0xaca4348a,0xd80e0218,0x0e8b3c88,0x08402b09,0xc80c0820,0x2103ee89,0xa8099948,
	0x81418b02,0x8212b204,0x82988119,0x800186c1,0x01800083,0xb6ab1f43,0x801182ca,0x190090dc,
	0xf029e809,0x71020018,0x118b11a0,0xd008bb8a,0x0b2a8a83,0x09b8db81,0x89118b0d,0x11011628,
	0x88892012,0x4a90c921,0x6d14b30a,0x810181b1,0x09001989,0x23000104,0x0a204a18,0x01801198,
	0xa9b4830f,0x821aa08c,0x84b39234,0x0f0b1fc9,0x88bb9980,0xc8180133,0xf1cd0bb8,0x01f92920,
	0xc128389a,0xb8adb129,0x36b12a92,0x01912a10,0x2bb1b8a0,0x89bdd201,0x1b513a4b,0xb1850238,
	0x90baa819,0x100182c3,0x30a1984b,0x901119a3,0x80a05882,0x9b009d1d,0xd9409a28,0x020a8900,
	0x231f8245,0x08ab0088,0x9e980980,0xc81989b8,0x088f0818,0x20bb882b,0x2021e288,0x828d00c8,
	0xa1c80303,0x93911118,0x2f81a329,0x2192b238,0x1a0fd30b,0x80b30f81,0x960bc29a,0x3b952db1,
	0x2823880a,0xfa813b18,0xec20058a,0x0a200011,0xfa309119,0x9c810899,0x4210c828,0x88842938,
	0x98c3150c,0x82104d9b,0x82a89819,0x1c100fb2,0x6012a88a,0x881ba89f,0x9bb1130a,0x09128b23,
	0xd828148e,0x1c198488,0x089ab131,0x99840a20,0x1aa28bc2,0x02f0b980,0x8222909b,0x319ca898,
	0xc0d0809a,0x9a19929a,0x8a314955,0x0125989b,0x4a09a38a,0x45312ab4,0xbb923799,0x201814a1,
	0x0994014d,0x0a888280,0x00808113,0x8a9bad02,0x300ac188,0x9981a182,0x4bc081ad,0x081042d0,
	0xd1218a08,0xa8c01929,0x830050b0,0x3080ce20,0x881c828e,0x82806a0e,0x888f40a0,0x89809329,
	0xf091888a,0xd2d93860,0xd9390194,0x1a932910,0x23a85f82,0x9a04ad0d,0x80919819,0x2a1e59b1,
	0x130c4010,0x0eaa8a8c,0x88018900,0x10016b92,0xc0193008,0x241139b8,0x16881b10,0x9c1dd80f,
	0x0da8d283,0xb14c0983,0xfb2a0191,0xc8802802,0x3a89351b,0x0a09309a,0x02829ae5,0x3f045e09,
	0x31b04909,0x2a1a9289,0x22c9121b,0x10089808,0xcc01c88b,0x09adb304,0x8212bb9c,0x3c0b0810,
	0x221425ca,0x80919909,0x89929d31,0x2a033aa0,0x38902009,0x25a8a991,0x98f11f84,0x1819a020,
	0x9fa8538a,0x9c809a92,0x91acbc1c,0xb1081fcb,0x29d6390c,0x0000aa8a,0x0a121531,0xc00090ca,
	0x38ad0011,0x1198a309,0xb09a091e,0x1b0ca281,0xdc10810c,0x8aa04238,0x0893cc08,0x0902cd18,
	0x928409b1,0x88c13883,0x822194a5,0x8a080899,0xb8b2d183,0xc8288fb2,0x82cb2183,0x09dc9821,
	0x0a008400,0xa94c3a54,0xb281e6b3,0xb8040028,0xb439b21b,0x01292988,0x84cbc88b,0x29023bd1,
	0x88841000,0x04922908,0xa2ab0bd9,0x838a2008,0x99016a00,0xca8ab189,0x112c0dca,0x23082410,
	0x291db825,0x095fb883,0x927009b9,0x4e818d39,0x89ada18b,0x90ca8808,0x0811c331,0x8d98920b,
	0xb860e903,0xc191ea38,0xb800f0f9,0x01008192,0x88301023,0x14503b89,0x83ac68a9,0xa81a0920,
	0xd9080808,0x8a3b91b1,0xb244b70c,0x89f21091,0x5580a002,0xb8a09c1a,0x32851d29,0x018c8098,
	0x82800000,0x895adf03,0x00c1a221,0xb68cc709,0x900c1801,0x9d21a8e9,0x192d1b98,0x82fad0a2,
	0x2a80028b,0x09805091,0x18823000,0x1b839a4b,0x2b3e84a0,0x8b8e5a88,0x02300ab0,0x10888283,
	0x80b5999e,0x9290803d,0xfd0c5814,0x01902f1e,0x29802a8b,0x99132fb9,0x90d8200a,0xc2812948,
	0xe428481a,0x01331402,0x9100c209,0x39991f18,0xb1329802,0x01a23a22,0x839c8081,0x800b8281,
	0x82100482,0x030a2313,0x898a43b3,0x93929401,0x8ad390cd,0x0b0cc989,0x09438800,0x800cbf29,
	0x983d988b,0x841bb6bc,0x893f0a12,0x88812832,0x28893a09,0xbb090391,0xbdb1ce08,0x190b420a,
	0x008bc921,0x04164880,0x081a0b90,0xa510975e,0x99241104,0xaaa80899,0x2a31c583,0x88aa00ba,
	0x39a82b95,0x35901b30,0x92128108,0x898c8b4b,0x230aec12,0x8189c289,0x88b06c2a,0xd0900138,
	0xe818a11c,0x09bab10a,0x0212c188,0x000b11b9,0x23c00994,0xe080b91c,0xa1332f98,0x058b8398,
	0xb031ba99,0x93019180,0x828c239c,0x9e80dc02,0xa98a080a,0xd50a8946,0x9518a30a,0x8a381211,
	0x01299900,0xb894c10c,0x99111001,0xa09b91bf,0x2c8f8a92,0x8fa3b88b,0x0018ce28,0x18030022,
	0x10015080,0x3c19c88d,0x58231b19,0x0134aabc,0x0aa0118b,0x542008c4,0x9b0881dc,0xaa0003a8,
	0x3ba1b393,0x089af082,0x81242093,0x1318cd2b,0x98fa080b,0x9c08a28a,0xda118b2b,0x099891a1,
	0x7930190b,0x88852b04,0xd8a28f09,0x82808448,0xb5a41b00,0x0098ba0b,0x00b4ba10,0xa20b1501,
	0x1909880a,0x95af0912,0xb0a12a30,0x08808003,0xac90419b,0x1ba9b32b,0xa0c0ac30,0xab1090bb,
	0xbb92388c,0x820a300c,0x8c9b32a0,0x2c04a922,0x80239802,0x628394d8,0x11ce8b11,0x09401804,
	0xe3d89a9a,0xa21eb24a,0x0b3aa203,0x28083cd8,0xc03ac31a,0x02528283,0x02f98200,0x1c1a09a9,
	0x48249808,0xa8988fa2,0x8928148d,0x0fd88183,0xd459a990,0x19cb312c,0x19a09232,0x9a01dc1d,
	0x80a92833,0x8eaabd05,0x8824a810,0x28889d90,0x51181081,0x000294ca,0x8bda8999,0x019fdab2,
	0xdbb09208,0x92293332,0x3a982a01,0x31869d43,0x8188cbbb,0x84021208,0x98aeb018,0xf88891c8,
	0xb0149008,0x8aa00c43,0x44a11bc8,0x833612b9,0xc9001988,0x6421b2fb,0x88090711,0xc88882bd,
	0xc208113a,0x00708401,0x02ba9889,0x2b001eda,0x88229004,0xb2a9cfb6,0x41903a09,0x0d003019,
	0xe208981d,0x23bb8181,0xa8cd93a9,0xba00d810,0x102a9202,0x8811c989,0x8398b981,0x80812511,
	0x089b3081,0xe0303a8c,0x8a84c90b,0x83d282b9,0x2841220a,0x309c8283,0xa2301cdc,0x8189120a,
	0x818e0fb4,0x99f8f380,0x89286a8a,0x2180a188,0xb00dd99c,0x08ec8b08,0xa3294801,0x0030bb00,
	0x4098d893,0x21699db1,0xec900b9e,0xa28813b4,0x087a20a2,0x01d0e982,0x8208342f,0x028ccae3,
	0x980b9888,0xa2cdbf11,0xf9413de3,0x8218e38d,0xa8b8f819,0x28239980,0xbd8d401a,0x900229e8,
	0x05931831,0x8b1cba11,0x0fa8012a,0xf39bd28b,0x988d9000,0x3f9461c3,0xc31bbdc5,0x002028e8,
	0xa1220219,0xc081118d,0x68d108b2,0x3001c690,0x12b33aa9,0x10bab80b,0x81239a11,0x1a040014,
	0x200ba09b,0x1430118b,0x02a24821,0x8c499242,0x0a98928c,0xd92a9429,0xcb8ab212,0x910823d9,
	0x90932a9a,0x81820082,0x09e41866,0xb2811832,0x3099001e,0xa34a23aa,0xa029922e,0x0808b032,
	0x0280098c,0xbb08811c,0x01181d50,0xda00819a,0xa4a1209c,0x83334682,0x0bc10234,0x8f090b08,
	0x40039882,0x2a1c2808,0x32088481,0x0a880941,0x91888112,0x88c1c999,0x20188931,0xdc15bbac,
	0x381ca223,0x0090db0b,0x02a0601b,0x038c89a0,0xc0c9190c,0xb00a1c19,0xe9290091,0x84e9a90a,
	0x20a8330a,0x08021880,0x829128bc,0xa9102000,0xa8850ca0,0x82da0a01,0x0f51ac98,0x39815281,
	0x8888b101,0x40064100,0x81b00023,0x09222b08,0x3a400899,0x4209aa89,0xda2811a8,0x148bb324,
	0x99188311,0x80238090,0x01cab081,0x89880508,0x00b04814,0x911b3811,0xa931d90a,0x02b393d1,
	0x3088118a,0x419b1092,0x03019b91,0x0a800299,0x801894a9,0x95183a04,0x00b94d2d,0xbb002115,
	0x8038c12a,0x93e88990,0x81040a13,0x09299e16,0x34a13a10,0xa197bbae,0x8b2392a8,0x030aba11,
	0x898193c2,0x1d0c1101,0x0d2998b1,0x3901808e,0xb0298182,0x3c108382,0x112b2a0a,0x80128a9e,
	0x88803f8a,0x103380d0,0x092880ed,0x100d2823,0x3ad03910,0x011ab10b,0x8b882d83,0xa0189031,
	0x19398881,0x2b99b3df,0x9cb8d131,0x128c1021,0x9291d482,0x819e9403,0x5c009311,0x0803ab5a,
	0xc180968b,0x892ab080,0x8b18ad19,0x818a81f2,0x29182080,0x84a88c82,0x82a91922,0x8a99008c,
	0x6f48320c,0xb80901b6,0xaa1b98bd,0xba088850,0xa1483048,0x84119291,0x889c209c,0x8b0b99a0,
	0xc0700113,0x8ab4d904,0x718391d2,0x99710208,0x3038aa04,0x15b08338,0xb9991402,0x988ab089,
}; //first channel is topmost bit

// Layer: L15
// QuantType: 4bitsym
#define L15_active
#define L15_bitperweight 4 
#define L15_incoming_weights 64
#define L15_outgoing_weights 10
const uint32_t L15_weights[] = {
	0x2c91e1aa,0xdaeabacd,0x2b9ada08,0x00c98a18,0x00883f88,0x3b01b405,0x69afc8a0,0xde1d9eb3,
	0xb05dbdba,0x1120b33c,0xbadcdbb1,0xdd2b1b39,0x1bd90a0a,0xfa8d39b1,0x0a3112d2,0x81b8a881,
	0x9090129b,0xba2ab2c1,0x9c29121b,0xc0822cb4,0xcb1218e0,0x9c01acac,0x92c84acd,0x21110d3a,
	0x3b21f021,0x8a9c9dd2,0x10c292a2,0xa8cbb2c0,0x3ca5a1ab,0x082bb80c,0xb93488ba,0x228e3acb,
	0xc9805ba8,0x8cc10a99,0x98290b2a,0x80924229,0xaa9c08ad,0x83c31c19,0x98edf322,0xbab902ac,
	0x99b1cb22,0xc2b109c1,0x00a328c9,0x00c80ac0,0x22fbb124,0x0e08aa89,0xa823b98a,0x0992b1f0,
	0x829dd993,0xf89123c2,0xa9bdc339,0x959cbc0c,0x92c28a29,0x1dbce40a,0xcbbbb813,0xba10bcc9,
	0xdbcba3ad,0x2c2a3e1c,0xc2a2beca,0x3b228bb0,0xbcaa0caa,0x01ab3e8d,0x001c010f,0xb2a92a94,
	0x130dab89,0x23a1b8b8,0x22aba992,0xada9c0a9,0x802b8419,0xb320b0b0,0x93f9000b,0x0b29abca,
	0x9a91b80a,0x3ca91c20,0xa1393daa,0x3b21c23a,0xc1398bba,0x018b9b48,0xb9991c81,0xac88e19a,
}; //first channel is topmost bit

#endif
