// Automatically generated header file
// Date: 2025-09-02 20:31:57.108813
// Quantized model exported from octav__CNNMNIST_Aug_BitMnist_4bitsym_width96_64_0_epochs60.pth
// Generated by exportquant.py

#include <stdint.h>

#ifndef BITNETMCU_MODEL_H
#define BITNETMCU_MODEL_H

// Model class name as defined in models.py
#define MODEL_CNNMNIST

// Number of layers
#define NUM_LAYERS 8

// Maximum number of activations per layer
#define MAX_N_ACTIVATIONS 256

// Layer: L2 (Convolutional)
#define L2_active
#define L2_type BitConv2d
#define L2_in_channels 1
#define L2_out_channels 64
#define L2_incoming_x 16
#define L2_incoming_y 16
#define L2_outgoing_x 14
#define L2_outgoing_y 14
#define L2_kernel_size 3
#define L2_stride 1
#define L2_padding 0
#define L2_groups 1
#define L2_bitperweight 8
const int8_t L2_weights[] = {
	55,-43,-5,30,-27,-7,-1,6,2,59,-44,-34,46,-44,6,9,
	11,33,-14,35,-44,-47,61,29,-39,-32,-7,-38,-65,-60,-44,-35,
	10,-24,-4,58,-128,-4,-22,-17,-61,-11,-49,-62,30,-43,-23,39,
	-17,-32,-44,-51,-28,-19,-45,9,72,42,22,50,54,21,-24,-12,
	-11,-39,-41,-16,44,-59,52,2,-26,-37,39,29,-63,24,-18,12,
	41,-15,-56,20,29,53,45,-32,-29,-36,-18,-78,57,-19,-52,-41,
	41,5,9,39,-46,2,52,19,-12,-57,23,-7,12,5,-24,62,
	-16,24,66,44,-38,-2,-41,-49,34,60,-37,-56,39,-5,-23,-13,
	10,19,-75,43,45,-36,-75,-11,-69,-37,30,-4,-21,13,38,-22,
	-45,7,19,58,-24,73,25,58,-39,7,44,14,-114,-46,10,-18,
	-29,-29,-19,31,-24,21,36,-37,14,-11,-32,14,-20,-109,-49,-33,
	-20,-58,2,-84,-4,-15,1,-33,-27,36,-26,45,18,7,4,16,
	-8,6,0,-66,24,66,26,55,31,-25,-2,-21,-11,15,-24,47,
	-3,14,28,2,24,-2,-23,42,-47,-22,72,7,-78,-4,23,-23,
	2,-6,35,25,27,-34,11,28,-89,7,-14,25,14,-36,13,58,
	-40,-32,-31,-31,8,7,-36,-66,-57,19,39,-51,20,-9,-7,26,
	3,-26,10,31,42,-19,30,36,31,-50,-23,-19,12,26,-13,23,
	11,-20,21,-8,30,35,-36,-17,-106,-56,-84,7,48,-51,-9,-1,
	38,12,34,13,-74,2,45,-32,26,8,51,48,81,34,17,-7,
	-28,19,40,100,-8,13,-4,-6,-6,0,24,49,-47,-28,22,-4,
	10,54,36,12,-35,-19,-18,-64,43,56,-39,8,-11,-50,-15,44,
	14,-24,15,-21,-37,35,-9,19,23,-27,-29,66,-51,37,9,-61,
	6,18,-16,27,9,16,43,-6,-27,-12,-47,-68,-11,66,-8,22,
	24,-30,44,16,-27,-72,13,29,16,-49,-36,-119,25,24,-37,40,
	21,50,-2,2,1,-51,27,-82,1,-60,-22,27,9,-18,-12,37,
	-23,-50,20,42,14,18,-64,-11,42,-2,1,-4,-69,8,8,23,
	-31,-44,62,-14,-48,-83,-75,-23,5,-34,112,55,-19,20,36,36,
	52,-32,-13,15,-2,-32,21,27,-34,-4,29,-85,26,-4,-4,28,
	-9,-10,25,-25,-28,-15,50,-1,-27,59,42,29,5,8,-2,26,
	-10,34,4,30,-10,-9,27,41,69,-3,98,66,-38,-39,-45,-15,
	62,6,47,56,13,-29,-1,-3,52,31,35,-11,-24,-30,-76,1,
	-20,21,-15,0,48,26,33,17,-22,-11,-44,-5,-24,-22,22,22,
	79,37,1,18,69,11,7,-4,-16,-1,58,72,1,67,-8,-37,
	-26,-48,14,-50,-76,-54,24,39,-46,-11,28,15,-27,14,-55,-2,
	-20,-66,14,23,26,10,54,-5,-64,5,57,-9,30,27,23,45,
	41,29,-32,-3,20,38,9,-52,18,3,34,43,36,7,-29,-47,
};

// Layer: L4 (Convolutional)
#define L4_active
#define L4_type BitConv2d
#define L4_in_channels 64
#define L4_out_channels 64
#define L4_incoming_x 14
#define L4_incoming_y 14
#define L4_outgoing_x 12
#define L4_outgoing_y 12
#define L4_kernel_size 3
#define L4_stride 1
#define L4_padding 0
#define L4_groups 64
#define L4_bitperweight 8
const int8_t L4_weights[] = {
	-13,24,48,14,23,14,-12,11,-6,7,7,15,-1,5,-48,-6,
	23,3,-26,-2,-6,-51,10,10,-59,11,40,-40,26,19,-12,17,
	-16,-3,9,-32,62,5,9,-19,1,-5,-31,-1,26,-11,-7,2,
	34,22,-6,12,35,41,-33,-92,-33,-36,-3,-12,22,17,-9,-2,
	35,-10,33,-21,3,11,-18,34,-1,6,-22,16,5,7,-17,19,
	51,-5,17,50,21,32,-7,-3,-48,-26,21,-32,-65,34,4,-41,
	-39,-20,-65,23,-25,-9,5,25,-23,-17,6,11,19,-10,-15,14,
	-23,-12,21,-10,-33,-14,-63,-128,-12,27,14,6,-5,19,33,16,
	-6,26,36,25,25,17,43,-31,17,18,-13,-20,29,-10,-15,16,
	-21,12,33,-24,-18,-24,-17,-69,1,-52,-18,-47,-35,32,5,-28,
	18,9,-53,-48,8,-53,3,7,-40,26,2,-37,-36,10,-25,6,
	33,-16,22,41,-10,24,12,24,2,8,22,10,-1,-3,-13,16,
	-4,5,21,33,7,42,-2,-8,-23,12,17,26,-18,-11,-18,4,
	14,-4,19,25,14,-12,15,29,43,-4,-5,14,24,17,-27,-14,
	-5,-2,-45,35,19,-84,-14,17,-9,1,25,21,17,-19,-21,-19,
	-10,-1,1,17,22,17,-10,27,22,-38,-48,-16,15,-6,10,-5,
	9,-17,37,12,28,31,-29,-37,-61,-6,15,12,12,-15,4,-12,
	18,-4,-3,22,-8,27,15,-46,-26,-26,27,20,-11,6,16,-55,
	-57,-51,-56,16,23,21,14,7,4,15,19,-34,-7,-32,-47,-30,
	-17,-3,0,-21,-16,1,12,34,27,9,42,15,23,18,-1,0,
	-35,-27,-34,4,-26,-45,-37,-31,27,22,18,25,8,16,13,-21,
	23,31,-11,20,19,34,-54,3,0,3,33,-14,-1,-27,-29,-5,
	2,17,-7,-3,11,-37,7,11,5,15,8,-31,-46,-38,20,21,
	10,7,29,23,-47,-13,37,7,-20,-5,-30,-20,-5,-62,35,8,
	-83,-12,3,-19,20,35,53,31,9,18,4,-1,29,13,30,5,
	19,14,-17,6,-8,-10,5,32,-34,15,38,-31,25,25,-19,-14,
	-21,7,-8,-12,6,21,40,-45,-62,-26,-5,9,-38,-26,31,2,
	0,23,27,13,-4,24,-17,-4,23,-12,-38,-27,-42,28,-7,12,
	26,-38,-2,14,13,-2,-6,7,8,-20,48,-1,5,3,9,12,
	-1,13,13,19,-14,17,-2,-13,33,-30,-41,-36,-36,-41,-92,-55,
	-47,-21,-10,-18,23,19,6,22,31,-14,-8,12,-13,-16,-31,-8,
	25,12,-7,11,17,-20,18,16,-2,-9,-27,-2,-6,38,9,34,
	-29,-3,-2,-7,39,-9,12,32,16,-10,11,-17,-37,27,-36,-28,
	-3,-34,-2,-11,17,54,-3,15,28,-4,-18,-20,28,17,-19,2,
	24,31,8,1,14,-22,-29,-32,9,-21,-72,16,30,-32,-10,-11,
	-26,-16,3,18,24,20,3,31,-10,44,26,6,15,1,-2,-10,
};

#define L6_active
#define L6_type MaxPool2d
#define L6_pool_size 2
#define L6_incoming_x 12
#define L6_incoming_y 12
#define L6_outgoing_x 6
#define L6_outgoing_y 6

// Layer: L7 (Convolutional)
#define L7_active
#define L7_type BitConv2d
#define L7_in_channels 64
#define L7_out_channels 64
#define L7_incoming_x 6
#define L7_incoming_y 6
#define L7_outgoing_x 4
#define L7_outgoing_y 4
#define L7_kernel_size 3
#define L7_stride 1
#define L7_padding 0
#define L7_groups 64
#define L7_bitperweight 8
const int8_t L7_weights[] = {
	39,-22,-75,14,-11,-6,1,-12,8,-55,31,-20,-61,17,6,-34,
	10,3,-12,-28,-20,-14,-6,13,42,66,41,9,-8,68,8,-9,
	12,-5,-19,-9,54,-32,-20,-17,-36,3,-22,4,-1,-31,-12,-11,
	-14,-11,-20,15,21,36,15,11,25,29,43,47,22,40,41,13,
	22,40,-1,3,13,-50,-30,-42,-1,-12,-1,1,-13,-30,46,-7,
	-37,-3,1,-49,39,-1,-78,7,-1,-21,29,28,-3,38,87,10,
	-7,3,-6,21,49,-2,-41,11,17,-36,-13,1,-38,-19,-13,-33,
	-6,1,58,5,12,-21,26,73,22,-5,15,1,-18,-16,-22,-13,
	-33,2,31,-4,-34,2,49,15,49,-11,-42,5,-1,-46,-24,-5,
	18,46,62,-11,-2,-13,21,-23,-31,60,69,75,35,11,7,42,
	51,33,-54,45,28,18,16,3,22,-4,-13,13,32,36,-64,-50,
	-18,31,-19,-6,-13,-26,-24,-25,-15,10,26,47,-3,-4,-6,8,
	6,-6,8,-39,-38,50,4,-21,-43,18,23,34,18,7,15,36,
	18,-27,-9,11,1,-53,-23,-31,67,25,-4,-8,-28,-8,-36,-14,
	-11,10,-4,2,0,35,17,58,18,-1,-2,4,-3,-26,-23,-23,
	52,22,7,-13,-4,-31,-1,-18,2,58,39,49,-15,-3,-23,5,
	-23,-7,25,21,42,12,35,16,28,20,25,14,39,51,-33,14,
	1,-39,22,-8,19,6,-50,72,34,63,26,39,24,22,41,26,
	-34,17,55,-59,6,16,-36,-4,4,6,10,13,-6,4,-4,-12,
	10,61,18,-1,-44,-6,-36,-35,-22,-5,26,-26,-16,-16,-13,-20,
	5,6,20,33,6,2,-10,-5,-18,-33,57,11,-23,-24,-6,48,
	-3,-6,24,-7,-16,-38,9,-23,31,11,43,30,44,35,-7,-7,
	17,6,24,-18,-27,29,-25,-36,55,50,6,29,-11,-12,-2,7,
	3,39,12,-15,45,40,-4,-4,-24,-34,46,4,11,82,54,37,
	24,60,30,-17,-36,-36,47,27,-33,19,-3,-33,22,26,24,-24,
	-29,-23,-45,2,-16,-12,-18,-20,-18,-6,-12,-4,62,-7,14,40,
	56,-17,-26,-5,13,-1,-55,28,-5,-19,80,22,10,46,34,13,
	-34,-29,-15,29,5,15,28,-16,-12,-22,-17,-10,27,27,28,76,
	19,19,5,11,-44,-18,24,-22,-55,20,-2,-26,-8,0,27,16,
	-11,41,-14,-19,90,59,29,46,30,8,-26,-3,0,-10,-2,2,
	-17,-26,-40,61,31,12,27,25,43,1,-22,-44,0,-5,-58,34,
	6,-42,14,-19,11,-26,-25,-37,3,-19,-23,8,25,-76,33,15,
	-119,-1,16,-34,-26,15,-38,-38,32,-18,62,15,73,28,-3,-36,
	-29,-30,-13,9,-28,-7,27,-57,47,-12,-27,-10,20,19,23,-52,
	-15,20,-2,-29,-40,-8,0,16,-9,12,52,6,2,7,20,28,
	0,-9,-8,-9,-38,-17,-10,-128,-51,-17,1,6,14,17,20,-6,
};

#define L9_active
#define L9_type MaxPool2d
#define L9_pool_size 2
#define L9_incoming_x 4
#define L9_incoming_y 4
#define L9_outgoing_x 2
#define L9_outgoing_y 2

// Layer: L11
// QuantType: 2bitsym
#define L11_active
#define L11_bitperweight 2 
#define L11_incoming_weights 256
#define L11_outgoing_weights 96
const uint32_t L11_weights[] = {
	0x20022a08,0x808aa2a0,0x2a088aa0,0xaaaa2a28,0x8a8a282a,0xa8a2aaa2,0x088228aa,0xa2a82a80,
	0x82080a00,0x280882a2,0x22a0aa2a,0x0a8a88a2,0xa28aa8a8,0xaa8282a2,0xaa882a8a,0xa0aa0282,
	0x8aa8aaa2,0x880aaa8a,0x80aa22aa,0x2aaa82aa,0xa80aaa8a,0x2a80aa80,0xaa8a2aaa,0xa8aa8a2a,
	0xaaa82aa0,0xaa20aaaa,0x2a2a8a2a,0xa82aaaaa,0xaaaa88aa,0xa2a20aa8,0x228808aa,0xaaaaaaaa,
	0x08ac010a,0x4e4ea70f,0x46aaaa63,0xe58ae8af,0x0204247b,0xc023205d,0x54ae4fae,0xff022410,
	0x0a10d04f,0x080a3200,0xc4256f0b,0x06e641fe,0xeeb025af,0x222b2289,0x03ad28a3,0x83eb5af2,
	0xc82c9452,0x4c90b206,0x08a89842,0x83ba422a,0x11ee2602,0xae09a21a,0x850a44a0,0xaa4a00a5,
	0x8228aa40,0x8e51300c,0xe82543a5,0x82a20f80,0xaaa2100f,0xc02ec080,0x68886a88,0xfeb05ff1,
	0xaaa888aa,0x2a2a82aa,0x08a08a22,0xa2a28a22,0x80aaaa8a,0xaa028a02,0xaa2aaa8a,0xa2aa2a02,
	0x8aaa02aa,0xaaa2aaaa,0xaaaaa8aa,0x8aaa20aa,0xa2a2882a,0xaa22aaaa,0x28208022,0xaa28aa2a,
	0x58b287b7,0x4224e0ba,0x2eac0808,0x44201a8a,0xfa04424a,0xacffa110,0x2b05a981,0x2308662e,
	0x88880f00,0x2fca2063,0xa82c42bf,0x82268eac,0x8206fb4b,0x2a8daa1a,0xa1aa4223,0x0a0882ee,
	0x2ab002ab,0x42205203,0x0425ee83,0x60029a88,0xe053ba2e,0x61ba03ca,0xfe23c003,0x2b00a0f8,
	0x33067a23,0xc9fe3b60,0xa88933ff,0xbeda0888,0x0920a842,0x9dc01020,0x80ac2b0b,0x0e8a2048,
	0x8200aaaa,0x222aa88a,0xa2aaaa28,0x8a8a8228,0x088aaaa2,0xa8aa8aa2,0x20aaaa82,0x88aa2aaa,
	0x820a2aa0,0xaa28aaaa,0xaaa28a20,0xaaaa2aaa,0xa8aa2a2a,0xaa80aa2a,0xaa822a08,0xa8a82a00,
	0xe9e819b8,0x4a852c61,0xe025aa82,0x2a6f2ac8,0xd43f88a8,0x85b13334,0x12682629,0xbc50c08a,
	0x73abf822,0xc8adc20e,0x008676a0,0xcbca3385,0x8c28858f,0xe8a86b82,0x40cc48c8,0x4b6a40fa,
	0xe8ceb139,0x82f80068,0x8303f48a,0xe803a880,0x43b2a8b0,0x2683a20f,0xb0210f2d,0x1101ae90,
	0x8abba28c,0xe68211e0,0xe606a9f5,0xa2cb3742,0x8ca80a05,0x262432b2,0x8ecff8f0,0x808aaa12,
	0x00408a02,0xa8faa0b2,0x45a02208,0x82aaaa04,0x9a8a3aa2,0xbc20eea8,0x8c208888,0xeceb4288,
	0xc84019fe,0xa073e320,0xf88c8a99,0x88228808,0x88ea55aa,0xc8aa8a66,0x00082088,0xfe04fa8a,
	0xf2e88bb2,0x9400332a,0xfa1556ee,0x62ce22e8,0x00300eff,0x3c9f0aa2,0xdeca81a6,0x0600ae4e,
	0x80c92824,0x0a80fc22,0x51a0f090,0xc26cba00,0xa0032280,0x50c8bace,0x80b2f0aa,0x0091812f,
	0x4ea72bf2,0x2b3b08a7,0xa4a0ef2a,0xea012010,0x22bb4a09,0x09a1bab0,0x0fea81c5,0x8001cb64,
	0xb88aff8f,0x44eb50cf,0x600cdc18,0x1142bba2,0x88affa0e,0x6495b28b,0x84b21518,0x0105220e,
	0xa28a80a2,0xa8a8aa8a,0x80a8800a,0x2a2a2228,0xaa22208a,0x2aa8a0a8,0x28aaaa8a,0x2aaa02aa,
	0xaa82a88a,0x8a08a08a,0xaaaaa828,0x202aa2a2,0xaa8a08aa,0xa2aaa8a8,0xaa022a2a,0xaa088aaa,
	0xe00abba0,0x334020e8,0x0f3cbc20,0x2fa03f20,0x500a2fb6,0x2c8f8184,0x8dab0500,0x23a8221a,
	0xe811b010,0xbf14282a,0x2a01b0ab,0x128f0188,0x02bb2302,0x288c2a22,0x8a4ae2a3,0x02034b58,
	0xaa480d02,0xa4082808,0x01b08880,0xa0e3aa2a,0xf3e12003,0xa181e0b5,0x000a26eb,0x0f42b5f0,
	0xcc02ac02,0xa5842221,0xfac64afa,0xf18481ca,0x2ea8012f,0xe2e6cbc9,0x0741020a,0xeb8ba028,
	0xf80aa302,0xa054a4f2,0x0ca80948,0x820b88a2,0xe940a2ba,0xa22fa808,0x0246e8b1,0xb7052b8c,
	0x0a00a000,0x2e44a0a3,0x8c2f5662,0x8a81e8bd,0x08064f67,0xec48b20a,0x0898b2e3,0xab2a8024,
	0xccca818a,0x84043b97,0xae821cc8,0x8a0442cc,0x1800fc1c,0x3b0b20e1,0x1884002f,0x8f031da8,
	0xa4a33e23,0x4c5baea9,0x420cc00a,0xaced4c6e,0xe622f5aa,0x5a0f1120,0xefc8cf11,0xa186f43a,
	0x40a88101,0xa03b8b00,0xa0001a03,0x85af0aca,0x030290f2,0x4351bf66,0x62feba2f,0xffa28888,
	0x8b0b543e,0x898800c8,0x00aaff8e,0x03000220,0x82ca512a,0xa2be2a40,0x4894f8af,0xaf9e8054,
	0xaa20aa22,0x0a8a88a2,0x80a28a8a,0xaa28aa28,0xaa28a288,0x8880088a,0x8a28aa22,0xa8aaa2aa,
	0x2a08808a,0xa0aaaa8a,0xa0820288,0xa22a2288,0x0a2802a0,0xa82aa82a,0x8a2a2888,0xaaaa80a2,
	0x8820bb32,0x90a0ab88,0xae2140a8,0x0e9f1ba5,0x999e20af,0x081f9a10,0xa18b003b,0x248a2a4b,
	0x1e250821,0x3ea8b88a,0x00a41202,0xc00fca20,0x8a0b3fc0,0x8a2f1020,0x18230343,0x8a1be8aa,
	0x5450b219,0xc0a82a04,0x63ab1844,0xefe5e660,0x33ff4846,0x2456f2b3,0x8088aaef,0x110882b0,
	0xe92094ad,0xa2105895,0xea869a25,0xb4aeaa8f,0x220f2ba8,0xeaeefa24,0xbe430019,0xc128f4b4,
	0x5a18e88e,0xce2faeea,0x2541122a,0xf8e83248,0x20f80a12,0xee01318e,0x5ec00022,0x8a208244,
	0xf289a018,0x4502aaee,0x64aace68,0x6820bca4,0xacea80cc,0x6054f298,0xc0001208,0x2400a808,
	0xc0d82da9,0x843e0e69,0x8502b8e2,0x6c1fa888,0xa32a09a0,0x4e9500b2,0xbe28a6ae,0x5e2300c0,
	0x2aff2a03,0xa5e20320,0x00928281,0xa28626cf,0x0a2da50c,0x22c232e8,0x0ea2c460,0x020ab24e,
	0xecf068bb,0x20a8067b,0xa505aed3,0xa8880a8e,0x3aa8e9fb,0x05950b6a,0x2c2b82df,0x2f02a1c0,
	0x200021a3,0x81f0b009,0x8889b2ac,0xa88a808e,0x8e2c29ae,0x08c3202d,0x82b8f38b,0x191fa002,
	0x52672b55,0xbbca1218,0xaae8a433,0x00b84030,0xfa984a4a,0xd8ffa8de,0xa220ba0b,0x0480a8fa,
	0xb812941a,0x8aea9000,0xfa8006fa,0xb80559a0,0x40a12b00,0xec088882,0xa85a5022,0xa8b2f882,
	0xf29110aa,0xb83002a2,0x804528e8,0x48ea6341,0xe13200ea,0x0811abf6,0xed82c427,0x002aaac9,
	0xaef26a86,0xa9f120aa,0x4c29e6aa,0x1a6efb08,0x80480482,0xccaaf3e0,0x21e2eaef,0x4e4a0a40,
	0x9cca83f8,0x4b00b1b8,0x8e485a08,0x9bb14828,0x60f49a91,0x8129b800,0x568b2210,0xaa48ec52,
	0xbe80da80,0x2aaac9ee,0x4a32902a,0x086a8aba,0xe202cfcb,0x60a8a01a,0xa4ba9010,0xb8a112e1,
	0x1899cf19,0xeae89862,0x675618ee,0x2afac982,0x5acf0280,0xba7324ef,0x8eaaac84,0x850a0200,
	0xebac1389,0x26422b98,0x44aafca8,0xd0001a06,0xce8f5aec,0x80055e58,0xbaccc280,0xf82ace48,
	0xaa2b8d5a,0xfe48188a,0x84fa4072,0x08b22262,0xa081a014,0x8a950420,0x088e660c,0x8fe324f5,
	0xc1042a08,0x8568a2e8,0xa0080a08,0x44649154,0x4308006e,0xe607c8f0,0x2ea0a220,0x073bb208,
	0xa0aaaaaa,0xa80aaa0a,0x28288a2a,0x82aa2aaa,0xa2aaa2a8,0x00a8aa02,0xa2aaaaa8,0xaaaa822a,
	0x282a22aa,0xaaaaaaaa,0xaaaaaaa8,0x8aaa0288,0xaaaa8aaa,0xa8a8aa0a,0x20aaaa0a,0x2a2a8aaa,
	0x6c4ad012,0x8091a914,0x2eaa0a68,0xa2e08528,0x3be92201,0xafbff8a5,0x262128ec,0x0b00a23a,
	0x8002e200,0x0f420ea4,0xea2f52a6,0xa0a889af,0xca04a20a,0x020ea282,0xae2a5020,0x2e2884b0,
	0x82aa8aaa,0x0828a2a0,0x020a2a2a,0x20aaaa8a,0xa0a2aa02,0xaa88aa82,0xa8aaaa20,0xa28a0a8a,
	0xaaa8888a,0x8a0aa8aa,0x2aa8aa08,0x282aa820,0x0aaaa82a,0x28a2a8aa,0x28228a00,0x82a22222,
	0xa22a880a,0x2aa8a22a,0x2222a08a,0xa282aa20,0x82a22828,0xa2828228,0x80aaa2aa,0xa0aa082a,
	0xa022a8a8,0xaaaa008a,0xa08aa20a,0xa8a0a02a,0xaa88202a,0x08a2a28a,0x822a220a,0x82aaaa2a,
	0xce0ae30b,0x002008ab,0x4c8936be,0x8f899f79,0x8f8aea50,0xad8d0022,0x1aef0002,0x2801ae20,
	0x6221f220,0x0432a92b,0x00ba1860,0x328f1fa1,0x8f8b2b9f,0x0489182a,0xa1921a50,0x21a958a2,
	0xec682aaa,0x08f920ba,0x5b82a68c,0xa25e1e8c,0x2350b08d,0xaa13a82f,0xf02b2e8d,0x81a0a982,
	0x4030323c,0x6020c180,0xa6ea8e18,0x38520b8e,0x1a820ea0,0x45029ab0,0xa6a804a0,0x208e00f8,
	0x54232360,0xed851e85,0x7f407466,0xae1e3b2a,0xb0f82a13,0xce2b09b1,0x1a228183,0xaa9cea40,
	0x8949dc81,0x8ff0aa8c,0x8a26820b,0x3c8f308c,0x020e3bea,0x72eec362,0xbe73401a,0x1e8bb988,
	0xfeaa20e8,0x40aa383c,0x2baa9001,0xc110a1c0,0x6b4488b8,0xa73b2e2c,0x845588ac,0x0405eb12,
	0x08aaae88,0xb21b19a6,0x004b5006,0x82e4ba2b,0xe8a5bb80,0x4eaa6bea,0x18efbac8,0x2080a0a2,
	0xdcc8abaa,0xa0a2b282,0xac5054e9,0x0bc40ef5,0x21facccf,0xa09b2200,0x98c20643,0x264aec5f,
	0xfa812084,0x2310fca2,0x42e5e82a,0x3a0c9a42,0xe4a32ec0,0x4e28a114,0xa4421e22,0xa38688e0,
	0xef8203aa,0x12a083ba,0x1a223288,0x069b434a,0x620aa48b,0x0acf8f52,0x28132a32,0xbaa83080,
	0x0a317bb0,0x8e308508,0xe602aaa0,0x0e568a62,0xc2920042,0x858b1268,0x1082b20a,0x5383568a,
	0x5a408941,0xf0e1e1e0,0x00ee156a,0xe2ffaa40,0xb7f86048,0x22a0f0aa,0x008aa081,0x18f224fa,
	0xeeee2a45,0x246200c1,0xf203e032,0x2a84e243,0x02a20821,0x04a6fb88,0x8b5a4040,0xef03f284,
	0x0c63ea8a,0xa0cc03b8,0x82a0980c,0xc02ec848,0x678a00b2,0x238a2f2e,0x80cfaa0b,0xffc0a08a,
	0x020a100a,0x88481080,0x828aff0a,0x50aa8899,0xefc00eea,0x10aa2a68,0x022e266e,0x5918e802,
	0x2a8aaaaa,0x8002822a,0x82aa2aaa,0x00aa2a2a,0xaaaaaaaa,0x2888aaa8,0x22a2aaa0,0xa88a28aa,
	0xa2a8228a,0xaa88a22a,0xaaaaa228,0x80aaa8aa,0xaa2a2a2a,0x8aa8aa2a,0x0aaa228a,0xaaaa820a,
	0xfc888a8e,0xe2c3b216,0x91e10008,0x9e204504,0x99c8baa8,0x0cb30484,0xa0ca4465,0x24bb00b3,
	0x83aa4a06,0x032b8a0e,0xf384ec2f,0x830d1026,0x21cf18a0,0x82241160,0x0408eeb8,0xa2248a82,
	0xb0800934,0x5e088b61,0x814128c2,0x380b28ca,0xc84fa1aa,0xcc81a238,0xe8aab6a2,0xbf5aa19a,
	0x4a98a8b3,0xc941209c,0x98a0608e,0xb20a01e2,0x2f4e81ef,0x04814a88,0x40a084b2,0x1b8f4ee9,
	0x28aaa0aa,0x0a88a220,0x0aaa08a8,0x8aa82a2a,0xaaaaa22a,0xa22a82aa,0x822222a2,0xa8aa00aa,
	0x8aa22aa8,0x82aaaaa2,0x0a808080,0x28aaaa0a,0xaaa2aa2a,0x222a0a2a,0x2202a208,0x20a2a80a,
	0x4882a702,0xa0eb1884,0xb5802aa2,0x2c0181a2,0xed5b2a11,0x8db152aa,0xff208094,0x01a88bf0,
	0x80030e8a,0x8a372b0a,0x8ea9308a,0x28c85885,0x00086a2a,0x88c1992f,0xa20a8020,0x8981f88a,
	0x882a2aa8,0x2222aaaa,0xaa2a2280,0xa22aa8a8,0x2a202aa8,0x82aaaa0a,0x22aa2aaa,0xa8aaaaaa,
	0xaaaaa0a2,0xa0aaaaaa,0xa00a8a2a,0xa0a22aaa,0xaa8aaa2a,0x02a82a0a,0x228828aa,0xaa2aaaaa,
	0x4626a9a8,0xc6b511b5,0x8b82a09a,0x62620b89,0xfb227801,0x0281aaa3,0xae80eb0e,0x0520a8aa,
	0xb8b322f4,0x28a04ba0,0xac1ce4ac,0x0f8c030e,0x06000a24,0x8e0aa0b8,0xa2534430,0x080af20a,
	0xa028aaaa,0xa22aa0aa,0x02aaaa22,0x82aa88aa,0x0a0aa0a2,0x288a222a,0x22aaaaaa,0x8aa0aa8a,
	0x82a2a88a,0xaa2888a8,0xa8282aaa,0x88aa82aa,0xaaaa8aaa,0x82082aa2,0xa8020aaa,0x02a8a8a2,
	0xe01c8a90,0x45683402,0x80aa9980,0x20b3fb4a,0x24f14002,0x6a18f586,0x800a24a2,0x423ba1f0,
	0xfa286e01,0xa0582900,0xeac20422,0xf088e8a1,0x83008366,0xcae4f2c1,0x20a808e8,0xfb3b0222,
	0x3a320322,0x401a8a82,0x62cca814,0xa81a95c2,0xc85fea0b,0xa22213ce,0xe240a02b,0x27192acb,
	0x5448802a,0x32222a02,0xdcab40a4,0xe2e003a2,0x6d002f80,0xea2050ba,0x190f0b2b,0x8a81a8e0,
	0x0ca50b20,0xf0818ae8,0xa008048a,0x150ba4fb,0xec18083c,0x070ba00a,0xe802eaaf,0xf3a241ef,
	0x0208148a,0x2310ba00,0xa89efc33,0x0c640114,0x01c002a0,0xf043be54,0x0ba9a8a3,0x0e0bc024,
	0xaaaa2aaa,0x028a8a2a,0x22a882aa,0x82aaaaaa,0x82aaa0aa,0x80a8aaa8,0xa0a8aaa0,0xaa8aa22a,
	0x2a20282a,0x8a882aa8,0xa28aaa08,0xa0a2aaaa,0xa8aaaaa2,0xaaaa28a0,0xa0a8aaa0,0xaa888a0a,
	0xba3aaa08,0xbc001a0e,0x22ea360a,0xee040a28,0x1858f80b,0x8019520a,0x202b430a,0x8ae230e8,
	0x00b41322,0xa439f828,0xe0a06aa4,0xa8000004,0x0e8c0ea8,0xc0245032,0xf082ffa7,0x90a03e08,
	0x088a8aa2,0xa8aa8aaa,0x2888822a,0x8aa0aa82,0xa202aa08,0x0a202aaa,0xa2aaa822,0xa2a2a8aa,
	0xaa2a8a28,0x2a0aaaaa,0x2228a28a,0xaa2222a2,0x8aaaaa8a,0x80aa88a8,0x00aa2280,0x8aa888aa,
	0x4a606b42,0x94b58b42,0xcf82a9e4,0x0f8263e0,0xee022a4b,0x8eafaa84,0xae16c10b,0xa00c2eef,
	0x802189a1,0xeff0aa0e,0xe8cc088f,0xa88f22cc,0x030fa328,0xf8cf9348,0xc82b4b53,0x9a13808c,
	0x0a21834a,0xf22c860b,0x8eab828c,0x46051329,0x8a02220b,0x091fae4b,0xeec08c16,0x8528608a,
	0x803d2aac,0x0ea1396a,0xa08de28a,0x0a014f0a,0x20020300,0x8a8ec17a,0xf4101a32,0x01851201,
	0x2688a82a,0xbe7a1288,0x0882fe48,0x8202cb60,0x4af0acf3,0x84102a67,0x30ae0b5b,0x0affc800,
	0xe0aa9002,0x28baf8e0,0xa840fe02,0x44882b20,0x63e82a20,0x3a2ab200,0x7586ffab,0x210ab840,
	0xc00422e8,0x81ecaeba,0x8e72101a,0x203bbb0a,0x2e59603f,0x200ba92a,0x2a17ec8c,0x80fa411a,
	0x03f480e8,0x68902811,0x2ba0e04a,0x2d4879ad,0x034202a1,0x60284a01,0xe80106ee,0x3e2f510d,
	0x08c18100,0xe0f2ca60,0x455240ce,0xa002c49a,0xf888228a,0xba32caf0,0xeebaa8e8,0xaabf06a0,
	0x0e6acbb8,0x001a3b44,0xaeccfe2a,0xef089089,0xc0ee0181,0xc128dc40,0x2bcc809a,0xde02aeaf,
	0xa6600022,0x8eae1b28,0x60034310,0x001b6654,0x8a0aba9f,0xee809fba,0xae46ac0f,0x01ffaa00,
	0x8cbcbefc,0xae80fc40,0x0b8d8e00,0x1060b22f,0x404a0141,0xdcff8828,0xce222b8f,0x0850088f,
	0xaaaa2a88,0x82822aa8,0x2a0a8a02,0xa22aaa8a,0x82aa2828,0xa82a88a2,0x28aaaa2a,0xa882aaaa,
	0xa82a2a00,0x22a8a0aa,0xa2aaa828,0xa28aaa08,0xaaaaa0aa,0xa2aa8a2a,0xa0a808aa,0x28aaa8aa,
	0x00460ca2,0xfc2f0eba,0x8013b820,0x08a82a02,0x03480af8,0x40102ca3,0xb80aac8e,0xc9fe0298,
	0x88c074ac,0x0622dac0,0xa2acec91,0x6a626201,0x4928022d,0x05903b22,0xafa6f5a8,0x0008a359,
	0xec2a4efb,0xa9aeacba,0x0481800a,0xce1098e0,0x098ae8ae,0x0a1083ee,0x00ae06a7,0xbb80a003,
	0x401d9823,0x0578aacc,0x18a40802,0x2a9918a4,0xc98a4aee,0x2a1451e0,0x10a8aa82,0xa2a1aec8,
	0xaa0aaa8a,0x8aaaaaaa,0x08aaaaa8,0xaaaa82a8,0xa202aa8a,0xaaa2aaaa,0xa88aaa8a,0xaaaa228a,
	0x88aaa2aa,0xa822aaaa,0xaaa88a28,0xaaaa8aa0,0xaaaa882a,0x2a2a2a82,0x0a800a08,0xa8aaaaa2,
	0x02aaaaaa,0x282a288a,0x22288a2a,0xa8028a2a,0xa0aaaaaa,0x80aa2222,0x22aaa88a,0x8a20a820,
	0x22aaaa8a,0x82aa80aa,0x202aa800,0xa22a2a88,0xaaaaa0aa,0x2020aaaa,0xa222aa82,0xaaaaaaa8,
	0xf200e002,0x0564aac4,0x842608ae,0x64af2a0e,0xa30801b4,0x2f95ae22,0x0e8ab3ea,0x40bba882,
	0xafe2bc84,0xa1910010,0x23aec044,0x404a38fa,0x8b0aa201,0xa2af0388,0x802680f8,0x2bab506c,
	0xcec003ea,0x6baf0fab,0x4500b380,0x00415185,0x2a0bca90,0x8c890f8a,0x022002a7,0xbb400e40,
	0x7aa2beaf,0xa2b28933,0x200860b4,0x23852b80,0x01a2880e,0x88c48002,0x0520888a,0x08254c9a,
	0xaaaaa82a,0xa2aaa022,0xaa2a028a,0x28aa008a,0xaa00aa2a,0xa288a8a8,0xa22aa222,0xaaa0a282,
	0x0022802a,0xa8a8a08a,0xaaaa028a,0xa0aa2882,0x0aaa2aaa,0xa08aaa20,0x88aa0882,0xa2a8aa28,
	0xeeacb1b8,0x82f12521,0xcf1b2acc,0xa2a722dc,0x43303831,0x258b0224,0x20802e2d,0x8524a98a,
	0x03333aa1,0x299011a0,0x80c2e1ac,0x888e33ae,0xeba220b4,0x002042b8,0xa6ecb9b9,0x888b0403,
	0x0cfa0e3a,0xeeaa82fa,0xe4d2063a,0x00a8a832,0x54f0cbb8,0xfb2241e0,0x18e90125,0xa410a65a,
	0x021880a0,0x8282c3ea,0x5420f90e,0x52a24007,0x34f0a2f0,0x2ea060c4,0x2e20cea0,0x23aae8a3,
	0x98095949,0x4ba0017c,0xaa6e2488,0x6eff1060,0x102a2b8e,0xffb0f09a,0xaa502685,0xe9abe38a,
	0xbfba3301,0xcab4bb2c,0x827008a1,0xbeba6824,0x8143118c,0x0402b640,0xef8c42a8,0xbfa442a0,
	0xa2e205aa,0x50eb2562,0xae0ce0d0,0x2110e1d8,0x2a5220b8,0xa289828f,0xa0058f2c,0x05a12f98,
	0x0abfb8af,0xaa8a4127,0x88aa64a0,0xc2e8b2ae,0xa005a2c4,0x0e2c228f,0x14cbba8a,0x8191a82a,
	0xe88a331a,0xaa9a4a9a,0x0bbf8834,0x8ef08932,0x7a8808b2,0xbf3b28a0,0xa0013abc,0xa0809a24,
	0xa098aaed,0xa2931ae1,0x22228434,0x42e0980e,0xaaa1bb8d,0x003fa0c4,0x3eab0001,0x27b34a6b,
	0x54d0b80e,0xbe6e0fcf,0x859b2133,0x002a83b3,0x2a209a82,0xbfb30588,0xbf09202e,0x0eef1404,
	0x02ec0208,0x04fbbbcc,0x426f9c02,0x70648065,0x42218a8c,0x000b6211,0xafc2c265,0x27af0a5a,
	0x9c08a0fa,0x28818531,0x4343ba1e,0xe62e8a40,0x76f8a3f0,0x003bac08,0x60fe2c99,0x81aa2043,
	0x2a12a80c,0x123b2202,0xa428fc2a,0x812a81a0,0x9afa44a1,0x6410b820,0x4adae4e2,0x2063c220,
	0xa00a2a2a,0x0aa2222a,0x80aaa8a2,0x8aaa8aa8,0x0280a02a,0xa28aaa8a,0xa2aaaaa2,0x8a8820a2,
	0x2a8a8a2a,0xaaa282a8,0xa802a008,0xa8aaaa28,0xaaaa22aa,0x28aa8aaa,0x220a8a0a,0x8a8aaa8a,
	0xda24aa1a,0xe022170a,0x08c02b2a,0x14abaa4a,0x62a4202f,0x5411bf67,0x628baf0a,0xebea3acc,
	0x88e85a0a,0x9e38e1a4,0x8848ffc4,0x15463348,0x86062846,0xc020024a,0xb5a4fa2f,0x0c0a8006,
	0xfa408b9a,0xf21a991b,0xa0fc22b8,0x88f12038,0xcc18ab85,0x2d38108a,0x8a2a0004,0x00fa3bf2,
	0x20224b12,0xaab22b6e,0xf8e1b8b0,0xa8a81884,0x28893a08,0xe880a93b,0xf008cbb0,0x01b10858,
	0xeeeba38a,0x2e026b02,0x0faa0201,0xe0007400,0x41a8ce2a,0x050e8a62,0x15050829,0xe281a85f,
	0x01a2a69f,0x0b52c8a0,0x4a008814,0x8a21ba02,0xc9e0a3a2,0x440838e6,0x00a28eca,0x012541a6,
	0x50aae000,0xe0f0c182,0x2b1aaaee,0xa4ea1aa8,0x82e31212,0x063bbadc,0xb2fc0e19,0x048892ac,
	0xeb88604a,0x8baf0706,0xe5edeefe,0x19c25260,0xe2eac385,0x04088210,0x02cc9004,0xe1eac806,
	0xcccaa8fb,0x2aa8b0fa,0xa608168c,0xe442b280,0x4134dab2,0xaea821e8,0x12a01084,0x0b00825b,
	0x4309ae00,0x601aa3b3,0x500a084f,0x0aa4b800,0xe4f5b080,0x6e04bad0,0x90bae809,0x0212eae2,
	0xfc8ea628,0x02048740,0xcfbaf088,0xb200e282,0x88423072,0x2a1f924a,0xb0806c22,0x26e248e8,
	0x8a383838,0x2e65290a,0xf20402bb,0xe8de2844,0xcea283a6,0xeb660238,0x8288fea2,0x84020808,
	0x00f84208,0xe2f38f66,0x4602a809,0xeaa68986,0xaaffc1ea,0x0662ffea,0xe42a2aa2,0x224a8020,
	0x228004f9,0x2082ba41,0x8880ee81,0xf3c8ce08,0xacff4098,0xea08ee05,0x022ee8ec,0xef8b09e2,
	0xe0ba018a,0x4a01b8b0,0x4e3a1e60,0x202e10a8,0x204a1480,0xaf30b8a8,0x8411aace,0xaa2aab10,
	0x4898eab8,0x2f5808a2,0x986a4250,0x06a08bef,0xa204a08e,0xecaf78ca,0x4cfe22b0,0x20ac4aae,
	0x82822288,0x0808a022,0x82a82aa8,0x288aaa08,0xa08aaaaa,0xa282a2a2,0x228228a2,0x8a228aaa,
	0x2088aaaa,0xaa88a0a8,0x2aa22a2a,0xaa2aaa82,0xa282a222,0x82aaaa28,0xa0a0802a,0xaaaaa8a0,
	0xaa0200aa,0xaaaa8a8a,0x28222022,0xa82a8a2a,0x8a0aaa2a,0xaaa8a8a2,0xa82280aa,0xaa82a8a2,
	0x2aa20aa0,0x2aa80822,0x82aaaa82,0xa08208a8,0x2a8a02aa,0x0a2aa2a2,0xaa82228a,0xa8aa8aaa,
	0x0882aa2a,0xaa8aaaaa,0x0002aa0a,0xaaaaa22a,0x2a8aa88a,0xaa22aa0a,0x0aa282aa,0xaaaa820a,
	0xa80202aa,0x8a2aaaaa,0xaa2aaaa8,0xa8aaaaaa,0xaaaaa2aa,0x8aa22a20,0xaa2a0aaa,0xaaaa8aa8,
	0x58808402,0xc4fac2a1,0x32a00bce,0xa00006aa,0xff8a125a,0x08188fe2,0xae84eecf,0x25084be8,
	0x81380a0a,0x2ee14002,0xaccc802c,0xaa088f8e,0x888a0201,0xcceee00a,0x80288a47,0x8198e08b,
	0x440880aa,0xa002a882,0x28220248,0x0228c000,0xa0e0a31a,0x2a09e800,0x5aa88a8c,0x00ab260a,
	0xe0ab8240,0x2a38ffa2,0xba2a2a25,0x22a2ea12,0x40020106,0xb22fe582,0x8a428b0a,0xa821a284,
	0x008808a0,0x2aaa2aa2,0x00222288,0x0222822a,0x28020a2a,0x2aa0aa08,0x2aa2a88a,0xaaaa020a,
	0x2a2008aa,0x28222240,0x2a08aa2a,0x6aa000aa,0x80aa248a,0x20aa2800,0x02088282,0x2a22888a,
	0x82aaa2aa,0x822a08a0,0x0282aaa2,0xaa8a28aa,0xa80aaaaa,0x2aa0aa0a,0xa82aaaaa,0xa8aaaa2a,
	0x0a2a8a8a,0x8a088aa8,0x22aa8aa8,0xaa82aaaa,0x2aaaa0aa,0x2aaa2a22,0xaaaaa20a,0xaa00aaa0,
	0xeaaa8bac,0xa0d149c6,0x0fabae28,0x0b022b0c,0x02283b3a,0x180f09a0,0x818391a8,0x84aa220a,
	0x20a43a09,0x0fc52e22,0x480ae400,0x20eeb8ef,0x8b8faba2,0x6a8e2a30,0xbeecf22a,0x08038248,
	0xee8a24a1,0x0ad5a1a5,0xaf420fe8,0xaa8230e2,0x028a08a4,0x033ba8c5,0x00ff202d,0xaa8a1308,
	0x88140804,0x0e0b9ca4,0x00aab8aa,0x91efa12e,0xeaafb526,0x000e2b8a,0x1ee8e18b,0x0ae38400,
	0xe1a26af8,0x4a2d296a,0x2688cc23,0xc41b23cb,0xc08ee4fe,0x042384ac,0xa26ba285,0x2e082484,
	0x42891908,0x0200b888,0xc0a44883,0xfa87a025,0x2f2813af,0xee85aac4,0xa4a9fcb2,0xe88b00c2,
}; //first channel is topmost bit

// Layer: L13
// QuantType: 4bitsym
#define L13_active
#define L13_bitperweight 4 
#define L13_incoming_weights 96
#define L13_outgoing_weights 64
const uint32_t L13_weights[] = {
	0x90218190,0xa9008112,0x6900c929,0x33823083,0x889da088,0x1708a0f0,0x212cb8c0,0xdf82190a,
	0x9082d804,0xa931112a,0x2000a088,0x8f3a0939,0x08d90e00,0x1cf05050,0xd4881998,0x1a58028b,
	0x01522a20,0xe9013020,0x30b0a028,0xa4ba800d,0x20aa311a,0x88c1c043,0x3090ba01,0x01a98112,
	0x88020240,0x0a60e001,0x4420229b,0x030aa092,0x08623bc0,0x1ca118a8,0x88032098,0x32907808,
	0x8019b91c,0x0e01a081,0xa4885189,0x00b89324,0x08589820,0xb8bed0b3,0xd111cb25,0x391a8411,
	0x98c0a8a9,0x01884890,0x30b0a098,0x19000802,0x0a038000,0x2c25108a,0xc809c001,0x03220ebb,
	0x89819888,0x1964b811,0x2c482888,0x480d0d89,0x29f8e193,0x812f38a0,0x911030a1,0x08744388,
	0xa993801f,0x1080907b,0x98a11388,0x13118150,0x90518cb0,0xb2ee81d3,0x80e09242,0xc51cb481,
	0x108e99a9,0x6111c080,0x403a9081,0x8a8d9a08,0xc881a00a,0xac25c038,0x1881b990,0x0a3a89d8,
	0x802b0d09,0xc098c832,0x48c803e3,0x382bb008,0x98a9e2ad,0x8e0c0008,0x10854868,0xcb188108,
	0x3008a98a,0xe200b8da,0x88315081,0x8aa00522,0x00420a28,0x59d8b105,0xa9d80a91,0x182ac181,
	0x00a89008,0x0d0830c9,0x3831b008,0x4094a98e,0x8911901a,0x380881bc,0x09838081,0x19100a13,
	0x80531509,0x1840200e,0x89308902,0x20209a08,0x988aa803,0xc4880021,0xb98a41a0,0x38387588,
	0xa98020da,0x19191808,0xaa1b7200,0x10228b81,0x18d000b9,0xa20c089a,0x61a022a1,0x93d80983,
	0x8889f188,0x820ca088,0xe9935990,0xed0e8c08,0x018f01cb,0x8331d089,0x1e932011,0x1c000a0c,
	0x00a08540,0x49c30000,0x4bd1980b,0x90011c00,0x889d8394,0xaa098000,0x9038a0c0,0x4291c00a,
	0xb888512b,0x92eab860,0x824ab119,0x14890301,0x80340210,0x18a181d8,0x82009180,0x2a81e182,
	0x80089890,0xc0981080,0x808220a0,0xcd9c9c08,0x0888909a,0x2080318b,0x2c882390,0x89a200b1,
	0x802389da,0xa0c1b0a3,0x8580a889,0x8982b182,0x018182af,0x8989c0e0,0x3848a828,0x9302d986,
	0xc018b03f,0x983900d8,0x28bb0088,0x8d498512,0x098b8b98,0x5aad800a,0xc308ec20,0xa8418019,
	0x00bbaaec,0xfa8a2808,0x50fbd881,0x9082b911,0x0100a820,0x13b1098a,0xa9ecc210,0x800212dc,
	0x800b82a9,0xc023302a,0x98380a41,0x19106389,0x80826960,0x81010108,0x901938b1,0x99324807,
	0x208880e6,0x9b90682b,0x172e1d88,0x9911098a,0x880a9949,0x1b81a9b9,0xf8a02d80,0x30bd0119,
	0x89420b82,0xac831920,0x88909138,0x4bcb0b0c,0x189a208e,0xc1a198e4,0xb2d84808,0x03100a10,
	0x994b04a1,0xd99c90d8,0x08002ea0,0x4fa9b41a,0x01d2e2a3,0x028b38b8,0xb0998810,0x0a4aba08,
	0x4021a892,0xfc82384e,0x0842c000,0x8ca18d14,0x183c9231,0x89aac8a3,0xa3a8835c,0xb1de0891,
	0x900a5911,0x1a1b1029,0x31b1a0b8,0x420b0202,0xa90c98bf,0xd0aa20d0,0xb4ad1901,0x16008b9b,
	0x00a381c8,0xaa4c9110,0x9930b09a,0x93a4a201,0x8830200c,0x5380b890,0xb90938a0,0xab0a4301,
	0xa008a9df,0x298a000b,0xb0991188,0x885a8830,0x88110849,0x282bb8d0,0xb8111880,0x45893021,
	0x80116a89,0x28821869,0x00801008,0x2ab87389,0x208ab8a2,0x498a4190,0xb2be2a80,0x82d88c08,
	0x00b08898,0x32998a4a,0x03b8a1a9,0x88098882,0x909210a1,0x1a0808c8,0x8010a010,0x9996bb09,
	0x0898a83a,0x02ab28c9,0x11862299,0x9c190543,0x003c0a90,0x9201a1b3,0x1f8020e0,0x2c8ae102,
	0x00c1b2c1,0x188d20a8,0xa1919819,0xcb4cdf0c,0xa802b031,0xda8a013a,0x1b32e890,0x89890044,
	0x998b0890,0xc1c850d8,0x98091d42,0x0890a38c,0x0818b12a,0xb2000008,0x08b95090,0x0b3bc893,
	0x28298092,0xad140029,0x9a48c888,0x0c800fe8,0x88828108,0x0d90b009,0x50b9310f,0xcc92b898,
	0x90257924,0x938090c8,0xe9828218,0x129cc991,0x180b10a9,0xaab308aa,0x8a089388,0x81a89b8a,
	0x029b0281,0x1283481b,0x34c88100,0xa288f391,0x88020315,0x8101a010,0x10082010,0x10b0fc93,
	0x88894819,0xf4ac3800,0x68419981,0x9980803e,0x00028fb9,0xa9434914,0xc980511a,0xc843208a,
	0x00309059,0x29148830,0x98209880,0x18b01910,0x18820804,0x999b90a3,0x0b8a9f08,0x80908ab9,
	0x08b99920,0x90aea9c2,0x0190539a,0x90fc5002,0x08222180,0x0982b838,0x08a28130,0x28ddac00,
	0x118d88bb,0x012800c3,0x82a08981,0x98a8108a,0x18b908a1,0x8862388d,0x3201519a,0xc3823180,
	0x81401a18,0x2d95f100,0xa8183081,0x89c8509c,0x008c0898,0xba4a18a2,0x09214c88,0x9d81893c,
	0x98910880,0x85cba9bd,0x408900d2,0x89809594,0x801802e1,0xc1891838,0x01a21868,0xc818bd01,
	0x3080108a,0x01220821,0x2b038790,0x99c8892a,0x000e87a0,0x8810a00a,0x0248e098,0x58e19805,
	0x10e413d9,0x859ca0e0,0x01a1c8b0,0x0a560a93,0x9010b811,0x9132300b,0x80298281,0x0f31033c,
	0x09c10430,0x128198b1,0x03d8b318,0xd1e82a02,0x109a5181,0x999a9810,0x20a09bc8,0x30abac80,
	0xc98b1a9c,0xa28b00f8,0x852a3009,0x91891b90,0x00e989b0,0x1291882a,0xc500dab1,0x8ec39a03,
	0x8985808a,0x0a8280b8,0x08c0e088,0x92980a01,0x10898153,0x01ea18aa,0x8302ca81,0x8e118220,
	0x80019281,0xa18ba8a2,0xa538ab42,0x02814582,0x11881120,0x03898880,0x908a0901,0x99314482,
	0xb008a096,0x5f35983c,0x833db901,0x83801fa8,0x080c0808,0xa8701179,0x2f6823c8,0x493c190b,
	0x009898b0,0xd40fa008,0xa81b3118,0x33400709,0xa8020088,0x19099862,0x00902988,0x04420238,
	0x80aa0638,0xa9924900,0xabd13082,0x0a819c0c,0x0009e33a,0xa180a028,0x80038089,0x9daca883,
	0x381838a0,0xb28a909c,0x0e282a88,0x1a009af8,0x08418028,0x180930f4,0x8b808814,0x418ba580,
	0x0088a8b2,0xa00a1140,0xa83a0021,0xdfa8510b,0x210f388a,0x3da88081,0x101a0900,0x10818ca2,
	0x008b83f0,0xabafa8bd,0x9439bc53,0x80991088,0x91c0b8a8,0xb08b1890,0xb8fb1809,0xfd431303,
	0x98030882,0x3d36989f,0xa23fd401,0x0a218d80,0x10820808,0xcae3c850,0x489828ba,0x2241498a,
	0x08180201,0xad8b88a8,0xd8425800,0x14f29380,0x209838a0,0x3920c028,0x1a002108,0x98c8949a,
	0x08800e29,0x388640a1,0xcc892b83,0x4d438010,0x881bc04a,0xaa982820,0x10029888,0x1cbb3d09,
	0x28821083,0xc4ca099b,0x0a0c2980,0x12a299c4,0x81d28890,0x54b389c9,0x84809881,0x2d4bc898,
	0x00a2808b,0x0ca01110,0x88123810,0x0a22b897,0x889cb012,0x92ec090a,0x0a221189,0x91b09186,
	0x88a88a88,0x5a3b52d1,0x9199f891,0x48239028,0x003929bb,0x38832189,0x9008c098,0x9d1b3008,
	0x02810023,0x0aab1019,0xab0c0080,0x1e120231,0x882c0a49,0x0b02b001,0x393009b0,0x5949f101,
	0xa101b9d3,0x108c0008,0x198b8100,0xc860a81d,0x0805380e,0x888a1854,0x98982181,0x82a08821,
	0x18388028,0x08969001,0x2ad8222b,0xa33f1909,0x80b84810,0x3a0e0080,0x3039e8a0,0x54c9c389,
	0xd8019820,0x8b1ac0b0,0x81b98880,0x91a91110,0x88281180,0x0269b009,0x8a70ab99,0x0091628a,
	0x9919ab80,0x1a8818b8,0xe01a5088,0xbd823400,0x990aa195,0x4f81215a,0xa41d0c00,0x1ba18914,
	0x80481958,0x1f841024,0x39d83a1b,0xa2009198,0x88513a22,0x8a0a2888,0x281a20a0,0x309a2c19,
	0x99821991,0xfd9aa8c8,0x0a990d11,0x98a1120c,0x003c8911,0x1488b099,0xa1008d22,0x2d5da00f,
	0x90b00011,0x0a098898,0x08b9a839,0x1224b101,0x8929081b,0x40250931,0x9212a001,0x83b093b3,
	0x90538d99,0xae984887,0xac119828,0x2bb2910e,0x08289b32,0xd1133000,0xe8b82118,0x88c8a991,
	0x408d30b9,0x9bbf0180,0x39109d00,0x88001a01,0x189d0b09,0xa9c8a2c5,0x88f1e103,0x022d0800,
	0x91a8318d,0x3b881830,0x7818a889,0xa0c08881,0xb883d810,0xa18a28d3,0xa33d9188,0x080a80b3,
	0x00751ab1,0x10b8b8b0,0x9b080b1e,0xa19b28aa,0x9090eb13,0x8c9380a1,0xd9908808,0x88fc800c,
	0x209c0999,0x2b908802,0x1a960a08,0x0c481f25,0x88c891c0,0xf50450cb,0xbca00543,0x88942998,
	0x88113352,0xb81b8029,0x91ba81a8,0x99a13495,0x28892895,0x044a0908,0x2d0d6400,0x09d009fd,
	0x00800b88,0x953a999c,0xfa50a810,0x90925100,0x109a2a0b,0x2810a0a9,0xa88f0888,0xac208c80,
	0x001bb815,0x2e86082b,0x918c8f88,0x29c00ec2,0x08b89020,0xa9abb9b8,0x08a0149f,0xb28d5a00,
	0x10230904,0x28958018,0xb9930820,0x22bab88c,0x110b20d9,0xa9008001,0xa0e31081,0x088a8cba,
	0x80098b01,0x2e8a891a,0xbc980e9c,0xd0d8031a,0x80610fa2,0xaa028810,0xc0d04928,0xb8eb2b0e,
	0x311b12b8,0xaca38922,0xa0029880,0x81110110,0x00110d28,0xaef88040,0x8fa020fb,0x000e128a,
	0x80211886,0x15812818,0xb1398138,0x1121c309,0xa80309ad,0x19189974,0x1ab4c808,0x81a00109,
	0x889100c1,0xe07a8022,0x3c30002b,0xd28a9281,0x08c0f4d8,0xa31ab8a9,0x983a2008,0x22812608,
	0xc803801d,0x8130f010,0x90e32188,0x00219418,0x81c80908,0x1311c092,0x0780a891,0x9c90ab89,
	0x9890d119,0x8901c008,0x9148b0b8,0xd912881c,0xa1091039,0xc48a88f0,0x10258881,0x0d81880d,
	0x98c00211,0xa149899c,0x2b8091c1,0x91818018,0x893bd2a2,0x900b9801,0x90807838,0xdad9510a,
	0x819c299b,0x811ac882,0x1c204088,0x1b9880ac,0x08220809,0x518399b2,0x0e002a83,0x3b949a8b,
	0x918bd271,0xae1988a8,0xc8103090,0xedbe2c0a,0x088d29c0,0x18a9480f,0x1b401888,0x8d989a84,
	0x88a880e8,0xc48e0888,0xc328c000,0x40183301,0x00942899,0x369200b8,0xa12b3848,0xeb582115,
	0x1000a113,0x8a88301a,0x22888990,0x0f3a8810,0x08218880,0x08cac2b3,0x88a0f102,0xb14ae098,
	0x10ccc8fc,0x48039818,0x585d0898,0x90aa4308,0xb804b039,0x1828c1fc,0xb9ae0808,0x303200b1,
	0x10da0018,0xa30a305b,0x0000a41d,0xe8892a00,0x80931181,0x29801188,0x0029a091,0x22252401,
	0xd0900028,0x43b83800,0x93820b81,0x944c0219,0x00299019,0x29c9b071,0xab909192,0x3a2f9882,
	0x00cb2af9,0x988c3008,0x00b3b110,0x6334c18f,0x08958008,0x8098c003,0xaa998489,0x83990410,
	0x88269988,0x02fa08c2,0x4ac8b0a5,0x3323b492,0x918cb1ba,0x8a898821,0x08522928,0xaababc0b,
	0x21802819,0x305ab091,0x3c881289,0x0bb080c3,0x91d11011,0xaa5001ba,0x9a20949b,0xe39a1009,
	0x89993283,0x81018120,0x00825800,0x03ba2699,0xb81a21c9,0x8218b005,0x12119180,0x22ba00ca,
}; //first channel is topmost bit

// Layer: L15
// QuantType: 4bitsym
#define L15_active
#define L15_bitperweight 4 
#define L15_incoming_weights 64
#define L15_outgoing_weights 10
const uint32_t L15_weights[] = {
	0x110b3980,0x8a1a8b98,0xb9aa01c9,0x88ab9a89,0x918c81a9,0xa01c01ba,0xa0fb812b,0xabca1290,
	0x0a181b8a,0x1bb98f09,0x98218ba8,0xb1b0aaa2,0x12909989,0x00b2a99c,0x90198a38,0x08100d90,
	0x0088a990,0xb988190a,0xa808289b,0x19a00202,0x99ba9a81,0x0c9881a8,0x08980992,0xa81c1b9b,
	0xc089b8a9,0x8b99991b,0x8c9aab20,0x11b19a91,0x9a189020,0x0a1a2a29,0x029989b0,0x918ba998,
	0x2980b201,0x80b01aa9,0x8800a8a9,0x908b908b,0x11a1aaa9,0x081a9a01,0x1a9ba918,0x09039919,
	0xd10b91c8,0xac999991,0x19908a90,0x01110d90,0x9a81808b,0x91908910,0x09c231a8,0x1aaaab81,
	0x991980a8,0x9c190181,0xe38188e0,0x8a199b29,0x0b1bfaab,0x981b1ad1,0xf09198a1,0x8f9a01a1,
	0x00c11199,0x08c0a00b,0x2ab98119,0x89a90198,0x11b838a0,0x91c0b189,0xa82cb2bb,0x990aa88b,
	0x9b19902a,0x041091aa,0xac888a91,0x0a001b0c,0x99189188,0xb9a108a0,0xa2b0aa80,0x1888a910,
	0x91918b11,0x09919290,0x00988290,0x988a09ab,0x89819818,0x0190b001,0x2ba9b99a,0xa2988119,
}; //first channel is topmost bit

#endif
