// Automatically generated header file
// Date: 2025-09-07 11:10:55.437128
// Quantized model exported from octav_CNNMNIST_Aug_BitMnist_4bitsym_width64_48_0_epochs60.pth
// Generated by exportquant.py

#include <stdint.h>

#ifndef BITNETMCU_MODEL_H
#define BITNETMCU_MODEL_H

// Model class name as defined in models.py
#define MODEL_CNNMNIST

// Number of layers
#define NUM_LAYERS 8

// Maximum number of activations per layer
#define MAX_N_ACTIVATIONS 64

// Layer: L2 (Convolutional)
#define L2_active
#define L2_type BitConv2d
#define L2_in_channels 1
#define L2_out_channels 16
#define L2_incoming_x 16
#define L2_incoming_y 16
#define L2_outgoing_x 14
#define L2_outgoing_y 14
#define L2_kernel_size 3
#define L2_stride 1
#define L2_padding 0
#define L2_groups 1
#define L2_bitperweight 8
const int8_t L2_weights[] = {
	18,-28,-49,-21,94,-45,15,4,-47,32,-65,-21,-52,-24,57,-67,
	31,6,2,-99,4,66,21,38,-16,15,-2,9,63,-42,39,16,
	-22,23,-30,-56,-14,-39,-31,38,21,-32,18,2,41,-102,-17,-16,
	-20,40,-24,5,42,44,16,-53,-65,5,73,47,59,29,-1,3,
	-56,42,-18,-41,38,-34,85,27,-19,-69,11,61,-23,-88,-21,73,
	-55,-43,-34,-28,-19,26,-79,-73,26,8,-19,-27,-7,20,53,82,
	-28,-47,-22,-34,12,25,-30,-97,-72,9,64,-59,-21,-8,-85,-24,
	-29,76,33,41,-3,-71,-14,43,-54,44,-20,-90,-128,-29,30,-27,
	30,5,15,-76,24,12,64,35,-24,15,55,-101,31,32,18,-36,
};

// Layer: L4 (Convolutional)
#define L4_active
#define L4_type BitConv2d
#define L4_in_channels 16
#define L4_out_channels 16
#define L4_incoming_x 14
#define L4_incoming_y 14
#define L4_outgoing_x 12
#define L4_outgoing_y 12
#define L4_kernel_size 3
#define L4_stride 1
#define L4_padding 0
#define L4_groups 16
#define L4_bitperweight 8
const int8_t L4_weights[] = {
	47,47,28,45,42,36,38,5,9,-15,34,49,50,17,35,16,
	14,14,-81,57,-3,-101,-6,29,3,-51,-4,35,17,30,10,15,
	26,0,-5,-1,29,28,5,8,37,18,32,21,22,-76,-72,-31,
	36,29,-37,15,14,29,-11,26,-28,-31,54,-27,-26,32,-15,3,
	0,-7,7,26,-5,71,35,75,-13,-44,-56,32,32,-3,21,23,
	73,31,37,27,7,-24,-45,-52,-14,15,15,10,32,20,30,-11,
	-102,-112,-34,19,34,28,-8,19,63,-39,-71,-61,45,-8,-96,-5,
	-128,-12,-35,23,-11,10,38,25,35,11,-36,-16,-42,-24,2,16,
	9,29,20,20,46,24,17,-23,-1,8,9,27,27,47,47,10,
};

#define L6_active
#define L6_type MaxPool2d
#define L6_pool_size 2
#define L6_incoming_x 12
#define L6_incoming_y 12
#define L6_outgoing_x 6
#define L6_outgoing_y 6

// Layer: L7 (Convolutional)
#define L7_active
#define L7_type BitConv2d
#define L7_in_channels 16
#define L7_out_channels 16
#define L7_incoming_x 6
#define L7_incoming_y 6
#define L7_outgoing_x 4
#define L7_outgoing_y 4
#define L7_kernel_size 3
#define L7_stride 1
#define L7_padding 0
#define L7_groups 16
#define L7_bitperweight 8
const int8_t L7_weights[] = {
	19,22,39,-12,5,-17,-39,-6,-14,37,20,7,1,-4,-13,-6,
	-34,-25,1,2,0,30,11,11,20,44,15,18,34,8,7,-6,
	-10,0,2,-9,18,8,29,-15,-13,0,-36,-15,12,36,20,10,
	27,11,4,20,8,-2,7,27,53,-4,11,17,-6,0,4,10,
	12,13,1,1,8,-26,-61,-128,-1,32,41,-12,5,-3,-30,-37,
	-32,42,35,0,28,0,-13,-19,12,-22,15,37,27,1,-1,-2,
	-5,2,-1,-10,-1,-12,13,5,18,29,30,38,8,-11,-3,31,
	31,4,41,19,-3,13,21,44,-8,-7,2,-55,-49,-31,-2,-1,
	-9,-3,-11,4,46,4,16,-26,-9,0,-38,7,7,13,36,-2,
};

#define L9_active
#define L9_type MaxPool2d
#define L9_pool_size 2
#define L9_incoming_x 4
#define L9_incoming_y 4
#define L9_outgoing_x 2
#define L9_outgoing_y 2

// Layer: L11
// QuantType: 2bitsym
#define L11_active
#define L11_bitperweight 2 
#define L11_incoming_weights 64
#define L11_outgoing_weights 64
const uint32_t L11_weights[] = {
	0x8a0a28aa,0xa22888a8,0x2a2aaa8a,0x8008aaa2,0xf96e2e16,0xa8b42928,0x16869718,0xf0a0a1b0,
	0x8a7b6240,0xb28ab212,0x492c1098,0x002b2023,0x8826c13e,0x810c9ab2,0x0a23762d,0x40a42023,
	0x2a22aa08,0xaaaa0aaa,0x2a088888,0xa88aaaaa,0xb09012cc,0x9b063584,0xe0f29137,0xe2e6a28c,
	0xb091e452,0xb8c830a3,0x898cd893,0xcc820a0c,0x72a39862,0x602a7628,0x00a0fb02,0x70bb8068,
	0xa48ae002,0x120e1038,0xab020fa8,0x0faee144,0x80684a0e,0x8aa20420,0x2b0bb6b1,0xae68218c,
	0x0e5248ac,0x28eea290,0xa01280aa,0xa6238aa5,0xbc228ff4,0x180aba09,0x02c1f803,0x8489b254,
	0x50f28a99,0x682a2a80,0x21b93298,0x40b0e280,0xa6f88237,0x09080133,0x000ab003,0xb804672c,
	0x2090c8c2,0x88ae41a8,0x08c4fa2f,0x82c28504,0xe02228ed,0x2f94229f,0x99012aa7,0x813f8398,
	0xeab84abe,0x4052c2aa,0x8300400f,0xa9608a01,0x20082c88,0x048b096b,0x0accfb2e,0xfba3088c,
	0xaa2210f8,0x82aa82aa,0x8250aeae,0x65050524,0x0aac2b01,0x4202238c,0x2b28002e,0xab082f95,
	0x04a1a8ca,0xa8f01ab0,0x2380fba8,0xa6911220,0xde8288ac,0x9a18d220,0xa0a64030,0xd4b282a6,
	0x6a0f5841,0x80a00800,0x8bacc424,0xa0a0ffc2,0x50ae6e1a,0x22240d38,0x392a0484,0x1e8b8cee,
	0x88218cbb,0x31049f08,0x0382220d,0xa40081a4,0x8c6a202a,0x8a88802b,0x1d6f22a5,0x493a2583,
	0xb4fd0a76,0x100e0229,0x82a08888,0xca09e140,0xb52a2325,0x9e83a1a2,0x1b0882ab,0x80037f00,
	0x0a006440,0xb2ee36d8,0x88a8edd8,0x02022403,0x202a4a28,0xc8ca0e09,0x9f88a2a7,0x080e4f29,
	0x9aa2c082,0x216c8315,0x2f220a9e,0x4a098f8a,0x048bc2c2,0x1f2820a9,0xa52b00b7,0x488b072f,
	0x8a0a080a,0x20a8620a,0x208cbb00,0xaa32c0aa,0x2e274000,0x032a3098,0xacaa988d,0xa68281a7,
	0xaaaaaaa8,0x8aaaa2a8,0xa88aaaa0,0xa80aaaaa,0xa0a4e6b8,0x898aa93b,0x2f0a2a82,0x0d8a5f4c,
	0x4a9f0cc4,0xb438122a,0x2eb4f52f,0x02880fa0,0xb27b5080,0x5002b0a1,0xa02a9aa3,0xf282a808,
	0x029ae8ca,0x0a4220aa,0x8a802287,0x1eafc58a,0x20f8ff02,0x9aa80f00,0x23108ba9,0x40052400,
	0x0082a41a,0x020fb205,0x84b24807,0x0e82268f,0x14ed30aa,0xb0a40bcf,0xa250ee80,0x281d5808,
	0x2aa8fec0,0xc0a6a253,0xa284c231,0x12862990,0x2c4a4aa8,0x08e4ba0c,0xb08cc586,0x281f0f69,
	0x4ac80822,0x44480bc8,0x292888ce,0xe0d1c186,0x08e9fe98,0x68240aa8,0x8a227094,0x80e0c0ce,
	0x2822a22a,0xaa0882aa,0xa88aaaaa,0xa22a228a,0x2a88b094,0xa022053f,0xaf2422ac,0x2b080f08,
	0x22a82aaa,0x8aa88a20,0x20aaaaaa,0xaa0aa88a,0x9880ea03,0xf2cdf88a,0xb181e81a,0x0a2a2540,
	0xd0325260,0x02aa1a10,0xa83e48b8,0x10f9aa22,0x48142142,0xa2ce20b8,0x1aceee0b,0xee8f0c0b,
	0xf62b0a46,0x0a80340a,0xa08e1092,0xee08aa7c,0xfc56044a,0xf2ccc0a9,0x9802902b,0x2800253a,
	0x52284880,0x093612a3,0x2a223b2d,0x46200e04,0xaaa08a2a,0xa28a02a2,0xa8aaaa22,0x2aa822a0,
	0xa02382e0,0x87200b05,0x2bb88a32,0x2c314b0f,0x2400fcce,0xa024a017,0xa5a64365,0xaa22a48e,
	0xa38001fc,0x0a474613,0x60a69828,0xe48224ae,0x88f888a6,0x480ae8bb,0x0158a885,0x014bcc2a,
	0xa8195c8c,0x85ea20f0,0xa88a8aad,0x0a60e9c0,0x2a028af7,0x0000ba00,0x39a8e914,0xab18200b,
	0x421a8444,0xe2b81a01,0x3a20fa00,0x220a032a,0x0808fe11,0xa3032220,0x2fe9fba2,0x2afa8855,
}; //first channel is topmost bit

// Layer: L13
// QuantType: 4bitsym
#define L13_active
#define L13_bitperweight 4 
#define L13_incoming_weights 64
#define L13_outgoing_weights 48
const uint32_t L13_weights[] = {
	0x91ab1a11,0x8313a218,0xa4023b29,0x8d8820bc,0x429129b2,0xb1088800,0x81c30981,0x081e0d33,
	0x9b9181f5,0x879081a9,0x01860910,0xa3c1990a,0x1183b041,0x118ad204,0x9f8afd30,0xd2098c1a,
	0x00080909,0xb9abc21b,0xb3003da3,0x28ae9801,0x8a023da1,0xf682a981,0x00b32821,0x2a80aa31,
	0x07a880c6,0x04994b99,0x808b29c0,0x3108008c,0x280a8b14,0xb2688402,0x0d8b8a10,0x12a029a3,
	0x0a040f41,0x9fbc0531,0x803f1d9e,0xd9880b00,0x19140805,0x013c008b,0x04028009,0x8088811d,
	0x959b0429,0x0480cd81,0x9aa92b33,0xa19194a1,0x2a01b219,0x9083908a,0x00a881c0,0x811190a9,
	0x91948a18,0xc008898a,0x8b0a22db,0x11d9da28,0x99803889,0x8b39b984,0x89aab328,0x940f1010,
	0x93428a00,0xf488b8d8,0x1482c900,0x83f2c1a9,0xb900a1aa,0x0ca0ca92,0x0a920130,0x82989993,
	0x18a882aa,0x2b839031,0x85410139,0x9d82a001,0x5892a922,0xb9299994,0x8a29d0a8,0x1eaa4985,
	0x180a0280,0x8c086f11,0x9a2c82d9,0x9bb20820,0x158f81bb,0x8f9c1991,0x1d2fb008,0x3a422b8b,
	0x03b49a43,0x38da911a,0x9a391998,0x2018d9b8,0x810af882,0xac4a108b,0x00019111,0x180188aa,
	0x8a1a8a91,0x0b0c8a90,0x5549c8b3,0x188c1c9c,0x80baa30c,0x14aa2c0a,0x8a88e818,0xa8011b84,
	0x814a821d,0x0c13bb89,0x29392aa0,0x28a95d28,0x950a859c,0x83001a08,0x0e090808,0x9939520b,
	0x8048023a,0xbf181020,0xb89d9113,0x82132082,0x0188aa8a,0x319a210b,0x929482b0,0xa889998b,
	0x03a0049a,0xc9081f90,0x9d0c0332,0x92a1b4a3,0x2289123f,0x20c2108a,0x98a8a2b8,0x380cb891,
	0x09a802df,0x1003a9ba,0x29a52381,0x2e1b1a0a,0xd4091812,0x14811084,0x1ab90a18,0x09aa990c,
	0x0b831088,0xc430b080,0x1c001532,0x32c90118,0xd90200b9,0xa3a29a82,0x9c299228,0x8b2d1d19,
	0x0a110a11,0x9a018208,0x97810948,0x8ab0089a,0x448311a1,0x9a29b814,0x09010918,0xad090c03,
	0x19230908,0xad0b3b00,0x1d2e82ea,0x248c2eab,0x010d0a99,0xa21c188a,0x018ba118,0x88114b2b,
	0x0ac889c9,0xb02a381c,0x82803c30,0x1b5c0078,0x91003880,0x33c23101,0x88dad928,0xab291c00,
	0x88908bb5,0x4987382a,0x8828a1ad,0xb01281a3,0x39898022,0x0f280a81,0x88304898,0x5aa21318,
	0x9bf19280,0x3bc1c130,0x081a20bf,0xa229ac93,0x08001160,0x29810919,0x002090a0,0x7a39054c,
	0x0a201129,0xc82408a8,0x99aabbd1,0xa0b81f12,0x10040880,0x9183118a,0x82eb4a08,0xd033068c,
	0x99008d03,0x3da2b92e,0xb63b0a8a,0x81291a80,0x110af222,0x880c1b0a,0x03a32190,0x1cb81223,
	0x00091112,0xb809441c,0x80911d4b,0xee6631a2,0x918840ab,0x40c1188a,0x80c38889,0x0c9dc92b,
	0x1d2382a1,0xb80a50a0,0xaf8aa293,0xb48898c4,0xa90391bd,0x219a0989,0x8803d810,0x81a309ac,
	0x18a989c5,0xdc0c28e3,0x19b0d803,0x10ac9da3,0x9880192b,0x02b11501,0x0cabbd08,0xc102b9a1,
	0x042a8129,0x79a3e020,0x9289ff88,0xa1138fc0,0xa189d229,0x1a40198b,0x08d810c8,0x911902aa,
	0x8009892b,0x0322f822,0x303919ab,0x138a90c9,0x8b11aa48,0xc8829808,0x9b2a15d8,0xaa8050c9,
	0x9a0b1938,0xaf3a1a83,0x2080420c,0x8df1033b,0xa884a8db,0x90a3a882,0x08130000,0x1cd10a01,
	0x8b2099ba,0xb9008aaa,0x89a2a810,0x90912a42,0x92983009,0x0aa10991,0x0b0c8a81,0x38398308,
	0x93a80888,0x20c382ab,0x4bb39089,0x3c31b839,0xb0883289,0x30092112,0x02220018,0xa002b5a0,
	0x081a9041,0x12211a89,0x85cf0b11,0x99082239,0x010cb002,0x105c128b,0x14a41098,0x83ba4801,
	0x09108883,0xa9103924,0x0189a122,0x80a89ba2,0x0194936b,0x21288302,0x8e0aa950,0xa8151915,
	0x08c91922,0x19d8a442,0x23c11021,0x9e21b1bc,0x3d8130a0,0xd9490801,0x80387999,0xca801302,
	0x01a109c4,0x1100208c,0x8b2f209a,0x122b8a73,0x9809b822,0x2c89020e,0x0b810088,0x6aa22358,
	0x09b8014b,0x122aa098,0xb1190c4a,0xaa202181,0x90011a11,0x93240081,0x02b0b010,0xc118114e,
	0x8d8182a8,0xd8a998c2,0x29b1c5e8,0x2949b840,0x1b889930,0x289c0282,0x028ca099,0x2231c1d1,
	0x89c192a1,0x839e4bbb,0xa9eb0227,0xb01bba02,0x8a8e2828,0x498a819d,0x1bba9291,0x12a21a29,
	0x154a0001,0xa99a0202,0x11038969,0x9293a09a,0x818ab3b1,0x00099080,0x0c3d4208,0x59caacb8,
	0x183080ae,0xd2208998,0xa191d033,0x84c810a9,0xd28d51fd,0x898a0c01,0x0a19b018,0x8a8b313c,
	0x8b818c2a,0x9389c398,0xa1908b2b,0xb2112423,0x1918f123,0x3ab8c99d,0x901302b1,0x4ac88321,
	0x8d360d92,0x8b085999,0x0ab292df,0x012f0d3b,0x9319a9b0,0x2a1f2894,0x8b8af938,0x890c9b20,
	0x8a3c0395,0x18a24a06,0x01982888,0x8ab30818,0x4b802819,0x1910a001,0x18ec3c10,0x437b8201,
	0x10091132,0x081421a3,0x1094a251,0x8b9292a2,0xb80440b8,0xd9928085,0x0c083b20,0xbcb8aa81,
	0x82021139,0xd08c9a8c,0x89083d50,0x0f148279,0x3119a2b8,0x2b98038a,0x080293a0,0x200a881a,
	0x8b1f1093,0x19850b23,0x8990092f,0x9d914089,0x219d10a8,0xb9288981,0x01115b08,0x0b9da305,
	0x98808b48,0xa828c398,0x4a23a890,0x2a118889,0xbb8388b1,0xb0b19b00,0x82510109,0xc98012db,
}; //first channel is topmost bit

// Layer: L15
// QuantType: 4bitsym
#define L15_active
#define L15_bitperweight 4 
#define L15_incoming_weights 48
#define L15_outgoing_weights 10
const uint32_t L15_weights[] = {
	0x909dadc9,0x3a119cfa,0x8a9c5215,0xa8148109,0x8ac4bca2,0xb4dff1fd,0x22e2e92f,0x2ac3aff2,
	0xc4c99cd3,0xaefc1a9c,0x3151a07e,0xeb83986c,0xaaa4b259,0xbb5bb9ba,0x1c22bbbb,0x18c80911,
	0xc984c2fb,0x0d62c000,0xed39b98b,0xea99b24f,0xab0bb28c,0x846c2c99,0xc398c639,0xdc930899,
	0x4a3a4901,0xca388cc2,0x22b4c0c0,0x2dbcc40b,0xe8892a0b,0x3bbc2cab,0x9f1ab402,0xbc9c2239,
	0xec8b836d,0xba94ca8b,0x08fa2d84,0xccc08319,0x2ce02c03,0xbcb894bc,0xbb33ad82,0x5ad3a0ae,
	0x4caa1bca,0x95cbc1af,0xf102809e,0x90a88d94,0x8ad94bcc,0x8c3aba84,0xc03b91b8,0xca3a3ec2,
	0x9c1abda9,0x07b43299,0x192910ac,0x839a2e8a,0x80c88b90,0x4aaaf803,0xd3ac52e4,0x880a9b0b,
	0x32deb088,0xd0bc24d8,0xb8d90c12,0x18892c04,
}; //first channel is topmost bit

#endif
