// Automatically generated header file
// Date: 2025-09-03 08:13:12.993670
// Quantized model exported from octav__CNNMNIST_Aug_BitMnist_4bitsym_width96_64_0_epochs60.pth
// Generated by exportquant.py

#include <stdint.h>

#ifndef BITNETMCU_MODEL_H
#define BITNETMCU_MODEL_H

// Model class name as defined in models.py
#define MODEL_CNNMNIST

// Number of layers
#define NUM_LAYERS 8

// Maximum number of activations per layer
#define MAX_N_ACTIVATIONS 192

// Layer: L2 (Convolutional)
#define L2_active
#define L2_type BitConv2d
#define L2_in_channels 1
#define L2_out_channels 48
#define L2_incoming_x 16
#define L2_incoming_y 16
#define L2_outgoing_x 14
#define L2_outgoing_y 14
#define L2_kernel_size 3
#define L2_stride 1
#define L2_padding 0
#define L2_groups 1
#define L2_bitperweight 8
const int8_t L2_weights[] = {
	-10,32,45,-14,55,24,18,29,-7,21,28,38,-34,-26,-30,-3,
	8,10,-88,21,42,6,-70,-70,-14,8,25,46,12,12,38,-55,
	11,34,-7,-6,-95,-5,13,10,-10,26,12,1,24,-41,-10,0,
	-62,41,52,-39,-36,-21,-52,30,39,45,-1,-2,4,9,1,-4,
	33,-34,38,-28,-49,70,14,-36,-2,43,4,51,-37,33,-29,-112,
	21,-68,-18,-13,21,30,46,21,29,9,15,-26,8,32,-61,35,
	24,-9,50,-35,22,16,31,-10,-6,5,-62,60,-6,-50,-21,-36,
	-43,51,-36,56,12,8,1,46,-16,22,4,44,11,4,-5,-2,
	30,-28,-18,43,16,-8,17,-12,-33,56,10,17,-3,-66,-58,10,
	10,-26,-44,14,33,57,-14,-30,-57,5,24,12,6,43,-52,-32,
	37,-54,-35,-16,-87,43,51,-74,17,-13,-11,2,-38,1,31,-15,
	-75,-1,55,-31,26,0,-43,-36,48,-14,-6,-5,37,-6,36,-9,
	42,42,-26,-26,-22,-22,34,23,-13,-35,24,50,-19,-38,-11,-99,
	12,-22,-14,-25,-21,12,-7,38,44,41,30,-34,-38,4,9,2,
	-42,20,7,-41,-8,-45,-57,-73,-82,34,-13,-58,19,9,-60,26,
	-33,-42,18,-7,6,22,-2,53,127,4,-5,-28,41,19,-87,22,
	3,-34,13,-9,1,-71,-78,18,13,-55,13,1,-53,-44,-3,-2,
	8,32,-46,14,1,-68,76,24,-19,9,-19,51,-28,47,-21,-38,
	31,47,6,-16,3,22,-41,-16,44,-16,-39,-35,48,31,20,-2,
	11,24,16,-26,-62,17,30,16,20,-17,23,-24,9,24,-21,57,
	-49,-48,-50,-17,-3,40,19,-2,4,6,20,-27,94,-2,45,45,
	-39,-41,37,-20,48,38,17,-28,4,39,13,-24,-12,23,60,-4,
	52,33,-33,-12,19,-8,10,23,19,34,-2,-63,-38,10,28,27,
	17,-7,-15,-17,-13,-69,9,-74,39,52,-43,12,6,-20,-66,-54,
	18,43,-50,75,-32,-2,52,24,38,-41,-4,9,38,14,47,-38,
	-10,-4,25,61,-7,-33,10,26,-7,-66,-29,47,16,-40,-2,15,
	-7,6,16,42,34,-1,-47,-31,-46,25,14,-50,-27,-3,-3,-46,
};

// Layer: L4 (Convolutional)
#define L4_active
#define L4_type BitConv2d
#define L4_in_channels 48
#define L4_out_channels 48
#define L4_incoming_x 14
#define L4_incoming_y 14
#define L4_outgoing_x 12
#define L4_outgoing_y 12
#define L4_kernel_size 3
#define L4_stride 1
#define L4_padding 0
#define L4_groups 48
#define L4_bitperweight 8
const int8_t L4_weights[] = {
	2,17,-51,-5,-48,-4,-47,-26,28,10,14,14,23,15,-6,-64,
	-59,-57,-2,2,-32,9,45,19,-43,-32,-59,-26,-36,-4,32,27,
	-7,25,27,27,12,-15,-46,18,8,-77,10,13,-50,-12,-46,-52,
	-24,13,25,2,23,13,15,26,21,14,2,-24,-9,-13,-10,-5,
	-6,-1,25,-1,4,43,7,16,-128,0,10,-62,38,8,-52,-34,
	-31,35,-12,30,-11,-6,-41,8,-7,-15,-8,10,-12,22,22,-29,
	25,23,40,7,18,-7,13,-54,-6,-77,30,5,-19,-26,-18,36,
	22,8,8,38,14,-32,-2,2,-18,5,30,0,15,17,-13,7,
	28,-20,3,22,-4,2,-10,10,8,-60,-59,-38,0,11,30,10,
	17,25,23,-24,-34,-39,7,6,4,20,-38,17,22,-42,5,5,
	-8,-15,-18,22,-6,-5,36,-30,-1,15,-33,-27,-17,-27,24,-6,
	-15,10,45,41,-38,-12,30,9,-84,9,8,1,-23,4,-17,17,
	7,-11,12,46,29,22,-10,12,10,7,3,28,18,18,21,8,
	32,22,15,31,-18,28,5,-11,-34,-70,-5,25,-9,-38,14,13,
	14,-55,-22,-34,15,27,-36,22,17,-25,-21,9,13,19,6,7,
	24,52,17,23,14,-39,-27,-47,-76,-4,1,-3,27,30,41,-17,
	4,9,19,25,3,1,-21,-53,36,40,-31,10,20,-2,0,-6,
	-1,-8,22,20,38,48,37,-32,-11,19,-14,5,29,7,20,-20,
	-22,8,16,-20,-48,-35,-3,24,27,19,15,23,-2,-1,-9,1,
	31,17,5,10,26,29,6,3,-37,-30,-32,-20,-21,-45,-13,1,
	9,26,32,22,-7,29,-8,-33,13,17,-24,-29,-2,17,33,-40,
	-22,-46,-27,0,2,9,-3,1,9,11,3,-18,16,23,28,21,
	4,-36,-11,21,-7,-5,10,5,-2,-14,-14,2,-13,61,-3,14,
	33,-21,-25,-25,-19,9,1,47,12,8,3,26,31,-38,-18,14,
	-2,-72,-28,-24,16,-7,-45,6,34,-47,-62,-24,-15,-6,-9,20,
	3,6,41,14,-23,33,18,26,16,25,23,8,10,21,-5,21,
	-4,7,22,21,-7,29,1,17,11,14,27,19,26,27,28,28,
};

#define L6_active
#define L6_type MaxPool2d
#define L6_pool_size 2
#define L6_incoming_x 12
#define L6_incoming_y 12
#define L6_outgoing_x 6
#define L6_outgoing_y 6

// Layer: L7 (Convolutional)
#define L7_active
#define L7_type BitConv2d
#define L7_in_channels 48
#define L7_out_channels 48
#define L7_incoming_x 6
#define L7_incoming_y 6
#define L7_outgoing_x 4
#define L7_outgoing_y 4
#define L7_kernel_size 3
#define L7_stride 1
#define L7_padding 0
#define L7_groups 48
#define L7_bitperweight 8
const int8_t L7_weights[] = {
	13,37,52,7,30,51,16,40,33,44,44,43,5,-3,2,-1,
	1,1,43,2,-6,72,27,-4,20,55,-10,-64,-3,-3,-24,-40,
	-28,29,33,28,7,22,69,-15,-2,29,-13,4,6,24,5,-2,
	54,-2,-33,65,43,-11,0,54,21,9,-12,-22,-17,1,-19,-4,
	3,1,7,-27,1,60,-20,-88,7,39,45,69,58,20,88,16,
	1,8,-27,-18,-17,26,27,-43,-22,-8,32,21,-2,17,7,2,
	-45,-68,-104,56,22,-23,8,32,15,-11,34,52,-21,-43,-32,-22,
	-29,-10,42,42,29,38,10,-7,8,-12,-4,-11,-29,-26,-6,-7,
	40,-27,-34,41,6,6,20,7,2,15,-6,3,-1,20,37,64,
	-12,19,34,-2,6,63,0,13,12,7,1,-11,54,18,18,38,
	2,-2,29,58,49,7,-1,-26,-7,-10,1,-13,-7,72,13,-30,
	-18,10,-49,-92,69,54,27,14,51,23,-19,0,10,-2,12,-2,
	-23,18,45,-48,-58,-30,-10,-46,-39,-2,-41,9,32,21,31,-43,
	50,19,-22,22,-17,-9,-42,-1,8,-17,-15,23,32,18,-9,-2,
	-9,62,75,47,11,10,16,-36,8,0,4,3,-26,34,-17,-23,
	39,-25,-74,16,46,47,0,20,58,-19,-40,-43,57,22,-37,2,
	-45,-3,-19,-3,-1,14,48,51,17,13,-6,-20,-44,-52,-1,-2,
	4,5,-9,1,-77,-39,70,-23,-9,34,-15,46,10,7,-31,-37,
	51,20,-21,3,-1,-31,-8,-6,-15,11,14,12,8,5,22,-49,
	-66,-49,28,22,51,-3,-22,-7,-25,-5,-8,44,47,29,26,11,
	-11,-22,22,-25,-24,-37,-32,-9,-26,45,32,-6,61,-20,15,65,
	-21,17,33,-15,-69,-42,-20,4,-25,16,-32,-35,31,25,44,47,
	-37,-20,37,-17,-3,5,-10,-3,14,8,-53,27,7,-128,5,-10,
	-74,2,0,-3,-15,-21,-24,76,8,-18,-18,-9,-12,43,30,40,
	46,45,36,-12,16,13,6,13,42,66,5,-32,-19,46,2,-11,
	6,-49,6,-35,-69,-8,29,54,-18,10,-12,-27,-13,-31,-26,10,
	17,-29,28,-15,-39,41,-38,-40,-4,16,-33,-61,-7,44,-23,41,
};

#define L9_active
#define L9_type MaxPool2d
#define L9_pool_size 2
#define L9_incoming_x 4
#define L9_incoming_y 4
#define L9_outgoing_x 2
#define L9_outgoing_y 2

// Layer: L11
// QuantType: 2bitsym
#define L11_active
#define L11_bitperweight 2 
#define L11_incoming_weights 192
#define L11_outgoing_weights 96
const uint32_t L11_weights[] = {
	0xa9e8ace9,0xa88e0e23,0x8290118a,0xc0288808,0x8a432013,0x8295220a,0x80029e31,0x21c2af01,
	0x2b220a81,0x0bb1b322,0x0aee8701,0x0a9b0f00,0x01a2ae2d,0x120b22af,0x1230810c,0x1ea03a8c,
	0xb90b8a3a,0x0a340981,0x28281182,0x580a3f20,0xab08b160,0x2b23cf0a,0xbbcf8e00,0xb8a882a0,
	0xace2b5c0,0x11e448af,0x4f84348a,0xb24f8455,0xb6586b2b,0x2425d90a,0x3498aabf,0x0288adff,
	0xa8cc0208,0x0efee100,0x0e26a050,0xcf2b8f2c,0x002aa202,0x8a220000,0xe8b00aaa,0x6e80122a,
	0xa2e8ea88,0xaa2a0200,0xa2aaa000,0x08aa008a,0x20888822,0xa808aab2,0x002aa208,0x00aa8822,
	0xee202a88,0x82209f2f,0x090a3eab,0x2bcc0ab8,0x0a2492ac,0xb2884e18,0x02a7818e,0x8ae2038a,
	0x12260023,0x208a53aa,0xe0428c58,0x8aa9c48d,0xb8416862,0x9a4ab408,0xe60112a2,0x08a68815,
	0xbae0ea00,0x5a98a3f2,0x016ba3b0,0x8042cf00,0x208a2839,0xeb9027c0,0x086ea6e2,0xa84aab42,
	0x0bf22046,0x40a194a8,0xc82a2006,0x2b883300,0xd104020a,0x61b80100,0x88b0e8c8,0xab49b3eb,
	0xe28089a0,0x08ecb848,0x33620dff,0xaab082e8,0x809aadbb,0x24f2a1e7,0x608e1a94,0x48b09080,
	0x82a8682e,0x44e4a320,0xab8090a0,0xe26aaf52,0xe2aa82f8,0x8318f338,0xa84cff00,0xaaaba050,
	0x88aaaa08,0x22a22a2a,0xa8a2aa82,0xaa2a22aa,0xaaa82a8a,0xa2882aa8,0x88a8a8a8,0x8a8aa0a0,
	0x2aaa28a8,0xaa0aa2aa,0xaaaaaa08,0x8228280a,0xa2aaa2a8,0xa80aaa20,0xa8082a88,0xaaaaaaaa,
	0xa802a20a,0xaa288a8a,0x82228a80,0xa0a0a02a,0x82a02aaa,0xa82888aa,0x08aaaa8a,0x2a200aa8,
	0xb2004680,0x7b62caae,0xca4404fa,0x841abb82,0x08ce8025,0x3a6002ca,0x82be9a98,0xcc4039e0,
	0xa8c808a4,0xaa02240a,0xa0346422,0x80b50fa2,0x2aaa810e,0xbac82924,0xa6288f20,0x0962a888,
	0x01a4a639,0x8aec9ba6,0x09808828,0xcae8291b,0xa00e65ec,0x85211420,0xa8c085f8,0x7a6a860e,
	0xa1aa2e0a,0xa08c4a82,0x62eea124,0x226583a8,0xa802e8a0,0x40b0e1b0,0xa8260028,0xa8622f00,
	0x222c0338,0xa0aac84a,0x2b2efd28,0x2aa80448,0x2c88aca8,0x8aef0082,0x04008a11,0x2e228d05,
	0x2304b210,0x1588bb20,0x089a21ba,0x4aaaab48,0x802ba2fe,0x0289a8f0,0x90acaea0,0x8c888a41,
	0x10aaac0e,0x8a98800c,0x0ef88a18,0xce422cae,0xba6400e0,0xcae82010,0xb0020a52,0x50ca2142,
	0x86a0a6a0,0x05210838,0xdaec1cf1,0x2a083024,0x62300604,0xc0000ba2,0x0563e825,0x28f819aa,
	0x0ac0f003,0xc10a2a3b,0x888a8432,0xfa8299f1,0x802c0e2a,0x21b285c8,0xab422ee8,0xbe13abe0,
	0x8a10a6af,0x22a4a2ea,0x4aaa4a02,0x0122a002,0x902840aa,0x00224faa,0x62a11e12,0x4e4a28a0,
	0xba00e0a2,0x0a402f78,0x3042ab58,0x25af8250,0xf94008a2,0xe8a8b904,0x42b36211,0x1ac8ba01,
	0x3320e021,0x0082eff6,0x3242a1af,0x002a8010,0x662b3bac,0xaa5822d4,0x519cb041,0xe88a8a5a,
	0x88222a20,0xaaaa28aa,0x2a88882a,0xa8aa88aa,0xa8822aa0,0xa28aaa22,0xaa2a2a2a,0x0a08aa2a,
	0xaa22a8aa,0x8a2a8288,0xa2a8a8a0,0xa2a282a2,0xf0b08025,0xeaea3a2d,0x7a4a612a,0x2678e800,
	0x00abfe0b,0x849a08ab,0x449030fa,0xf2a013e0,0x1aa02a88,0x0b0a09f2,0xa0a2020b,0xa200a0f0,
	0x6a204868,0xcc18824f,0xe60035aa,0xa8e210a0,0xb8cae8a4,0xe8850aba,0xa010abb2,0xf80a0f08,
	0x22a0aa00,0x06c912f8,0x0e8f2a90,0xca22abe6,0x80ee0202,0x262ba09a,0xc82f3388,0xab208afa,
	0x2f2a4215,0x25a88c00,0x8f980411,0xaa500f0a,0x832f5b08,0x4b81ff64,0x05020ba8,0x8e2b22a0,
	0xbe2218ac,0xc82a2b43,0xa38260be,0x88628120,0x8822ab14,0x08aa0aba,0x8a9a282b,0xb21081b8,
	0x204a084a,0x48aa0a62,0x008a0a08,0x2001aaa6,0x31912628,0x21a008c9,0xafa0aaee,0x460aa182,
	0x97aefa0a,0x8a420b28,0xa0e99f02,0xf1a290b9,0xac8a8882,0x0f083382,0x8902a651,0x20806c4e,
	0x10e2a5aa,0x02008284,0x4aaedd2a,0x0128122e,0x90ae0aab,0xb2824c1a,0xa1f2ae50,0x8af82340,
	0xaaa9fea8,0x0e262ca2,0x2e40e258,0x04af11ae,0xba5280aa,0xf2e838e1,0x7aaa2a0a,0x4442f002,
	0x0308e80f,0x802b2a3a,0x23807f32,0xfaf022e6,0x0a0802a0,0x4a0beae0,0x424a2042,0x0200204a,
	0xa0f02021,0xe000f220,0xf191a208,0x02a2b008,0xaae4ee5a,0x32800b8a,0x428081f8,0xf0fb0ae8,
	0x4842200a,0xaaf8a0ea,0x800a52a8,0xaa56aaf8,0x08d88008,0x30e01028,0x6000a8ea,0x8062a18a,
	0x98606a80,0xa0204a10,0x10c9031a,0xfae889f2,0xe8c010c8,0x1e88a064,0xf2a002a0,0xe8be09b0,
	0xa22aaa0a,0x2a8a22a2,0x8a802a2a,0x8a8a2a2a,0x8a2220a0,0x8a0a2a82,0xaa2002aa,0xa088002a,
	0x2aa882a2,0x8aaaaa2a,0x82a0a0a8,0xaa8aa22a,0x2aa3b22a,0xd80468af,0x2f22bb40,0xb80a4928,
	0xaa208019,0xcab51800,0x3a0000b3,0xe4fa818a,0x42aa32a2,0x01b28ac2,0xa825a830,0x3340ab62,
	0x23028e8c,0xe0e0388c,0x6a233b4a,0x0408b04b,0x03a8f80f,0xae23a632,0xa7882f52,0xa0fa04a8,
	0x02b22ac0,0x0003bfc8,0x51e88262,0x0d088166,0x0a8c882a,0x00fa4861,0x6414ca00,0xe6bca882,
	0x122af9aa,0xc0ca2222,0xc49b9878,0xb1e2a520,0x2af50aee,0x480808e1,0x82f40a86,0x8e8cc984,
	0x88a28800,0xece0a004,0x338222a0,0x40220908,0xa03a2aa8,0xfa020222,0x2ae0b046,0x448a9828,
	0xa010a0b2,0x20228273,0x048aaaa8,0x0828aa22,0x34082724,0x396622e8,0xea648afa,0xaf8ca0a6,
	0x2a020221,0xac42ae8a,0x886e0006,0xeeaa81a0,0x1dca4803,0x2888844c,0x044486ea,0xa02928aa,
	0x2faa4c4e,0x8ced0a3a,0x4707a004,0xf4080162,0xa3403813,0x8180230f,0xa6a82b2b,0x4a4bea28,
	0x04f2ab0a,0xa5a8aeca,0x16e40bf4,0x8884ace4,0x35faee80,0x702a2386,0xa020ecbe,0xd16aa0ed,
	0x0852a200,0x00880920,0x9c4ab1f3,0xa0e80336,0x0c282a82,0x0ebb8144,0x6fea0c8e,0x070020fe,
	0x0298c6f0,0x72e08bab,0x2b4028f8,0x220fb000,0x120e4388,0x6a22f8d8,0x8af85056,0xb24a81f2,
	0xed8f82d2,0x8a808044,0xa0010008,0xb2b95aaa,0xb05028c2,0x3a08a23b,0xcc982408,0xdd23fd81,
	0x0062220c,0xa804239a,0x00280c16,0x562b8fa8,0x0f032a22,0x8311e462,0x9aea13f0,0x3480a341,
	0x2af0fab8,0x1924d3a6,0x16018aa6,0x8c070040,0xf59882a8,0x0cab2228,0x6130befa,0x8248823a,
	0xb0b0e1b3,0xa0b34f8e,0x3860aeae,0x2028a8c9,0x8aa02aaa,0xaaaa2a02,0xaa082aaa,0x0aa2a00a,
	0xaa8a8228,0x820882aa,0x2aaa028a,0x8a8080aa,0x0aaaaaaa,0x22880822,0x02aaa2aa,0xaa2a8aaa,
	0xb54892aa,0xc880a925,0x8e84988a,0x12c8a802,0xa3abf080,0x1a9fff38,0xc00f8fec,0x00068300,
	0x8ca94800,0x2a00abca,0x48c4861a,0x059ca98e,0xa8508be2,0xaaf848aa,0x68230301,0x04eaf808,
	0x232e8809,0x82a0acb8,0xab897506,0x00832192,0x10aa2382,0xb14089e2,0x0882894a,0x03812348,
	0xeb00440c,0x00041205,0xc900acaf,0xbf193302,0x414012ff,0xba0ab998,0x2102be90,0x9aea33af,
	0x00000822,0xb8ebac4a,0x0e28288a,0x12af051c,0x42f0b208,0xf826d08c,0x06a6a0aa,0x888002aa,
	0x92ea8820,0xee005c56,0x92e8b3a2,0xf8f93268,0xeed8d8d0,0x9a2a28ec,0xb4a02482,0x28f82bf2,
	0x138eaa82,0x23aa000c,0x68288218,0xbba8bfa0,0x80544280,0xb682b01a,0x8beea010,0x50aebf8a,
	0xc08aa8cc,0xab100074,0xa42a9234,0x88818264,0xa8d82808,0x72020e8f,0x0880b5ce,0x8c8ab181,
	0x9a6e2318,0xa0012498,0x8aba8890,0x5a082fb9,0xa3029882,0x8b982278,0xa02f1304,0x28e58a28,
	0xaaaa22a2,0x0a220a00,0x88a80a2a,0x2a808a2a,0x8aa08a0a,0xaaa08a82,0xaaaaa208,0xaaa2a8a2,
	0xaa8a2a0a,0xa8aaaa2a,0x2282aaa8,0x02aaa800,0xaa8a8228,0x28222282,0x80aaaa8a,0xaaa8a208,
	0x82a2aaaa,0xaa8aaa8a,0xa82a28a8,0x8aa80a8a,0xa2aaa82a,0xaa88228a,0xaaa88282,0x88a8a28a,
	0xb1688209,0xeb223ae5,0x0c809d00,0x1488aa2b,0xa3aef882,0x0aaf2fba,0x84ab0f00,0xa9a28705,
	0x2234aaaa,0x0f060f2a,0x48858a4a,0x0419216e,0xaed6feea,0x6aec20e6,0x68c8a088,0x4903a281,
	0x92a16a20,0x50212880,0x60f48a8b,0x684a2a82,0xf252d20a,0x9288f36e,0x284ef841,0x8aa80658,
	0x02ee8006,0x042a90c0,0xfabff00a,0x43103320,0x82d8e5ba,0xbbb20042,0xffe0aa0a,0x0c206be2,
	0xb0beaa88,0x0223b0dd,0x4000a488,0xcc8f91ae,0x012a8e03,0xbea8a8b6,0xfa0b1001,0x28a41880,
	0x2affa20f,0x2f2d2415,0x0b0aa2e2,0xad020f14,0x4a5a1a60,0xa221b23f,0x420e09be,0x9c02cbaa,
	0xa8aa0a22,0xaaaaa8a8,0xaaaa0280,0x08aa282a,0xa2a88aa2,0x22a8a2a2,0x228228a2,0xa2a802aa,
	0x228208aa,0xaa8a22aa,0x0a02a8a0,0x8aa2280a,0xb4b82a08,0xf8098820,0xcf22bf00,0xa0a8b90b,
	0x2a44806a,0x2a30cf28,0x0a000f80,0xe0f2858b,0x12aa4220,0x2120cf02,0x809100f8,0x26482828,
	0x02e84024,0x81a283ad,0x081a2f82,0x27f8988f,0x128fe88b,0x860f2860,0x18da9130,0xfa0604a8,
	0xc9f00092,0x0c201ea2,0x864a0f9b,0x888639f8,0x0f515042,0x9a1ae843,0xe062f2aa,0xb8e05822,
	0x22f0ea35,0x9088b3fb,0x02af8a0a,0xbc5a1ad8,0xc4b2aa0e,0xa51802fd,0x00a22a00,0xc20bcec8,
	0x9ae2ba02,0x1aa0a0e2,0x48ba9100,0x82a08bae,0xf8af080b,0xaa20550a,0xb0a01fb0,0x48662f16,
	0xea90e824,0x2120092e,0x8f0bad1e,0x26872290,0x81f288e0,0x4881fa0c,0xef028ab0,0x5ab8182f,
	0xe2024280,0x4a020898,0x5e30ffb8,0x58008120,0xf922f122,0xa1f0af42,0x91090eac,0x216220be,
	0x10fee28a,0x02a0f028,0x08a0cc20,0x20ea9280,0xe94a502a,0xb28b8590,0xf4fa0910,0x0222a002,
	0xf8f8fcfa,0xa82a0422,0xfae48a80,0xa80828a8,0xaa2aa800,0x88a00a2a,0x8028a8aa,0xa28a0aa2,
	0x0a0aa8aa,0x2aaaa2a8,0x28aaaaa0,0x88a8aa02,0x0aaaaa88,0x8a8aaa2a,0x8a28aaa8,0x22082a8a,
	0x03c89646,0x0627b091,0xa8491bab,0x0b051b12,0x00a8fa84,0xc48cb238,0xabff0231,0xac193bce,
	0xc5bc29ec,0x2f89aaa1,0x046607f2,0x9a1f1dfa,0x12ca2ca0,0x6b8e8a04,0x0ccaa28c,0x8e047a8c,
	0xa4604b90,0xfaa8a218,0x8afe2010,0x50ae2f08,0xb2cae280,0xf410aa6a,0x92ce93e0,0x60c002f8,
	0xaa0aa208,0x8a2a82a2,0xaa00822a,0x28aa008a,0xa8aa2a22,0xaaa2a0aa,0x8a2a808a,0x822a8aaa,
	0x28a02a2a,0x8aaaaaa8,0xaaaaaaaa,0xa2aa2aaa,0xf040a4a8,0x9852098b,0xdea4a08a,0x999e2004,
	0xb2ee9aa1,0x28548aea,0x206889a8,0x5c200918,0x2b4eac08,0xaf88a6ce,0x0100f656,0x08ea8e5e,
	0x2aa228aa,0xaaa2a220,0xa8aa2aaa,0xaa2a88a8,0x8a008a2a,0xaa8aa0aa,0x2a8aa002,0x02a28882,
	0x28022aa2,0x20a2a22a,0x8aa2aa0a,0x2a8a0a2a,0x4aca2824,0x220e5a07,0x21aabf05,0x20820aa8,
	0x8ac5a081,0x910ea26a,0xcf0031aa,0x8a002b2a,0x85ab800b,0xa1a855ee,0x224ea90e,0xcba0aae0,
	0x1e20e2a2,0x98ea6a04,0x61206b8e,0xfea20c89,0x20222009,0x820e0e60,0x00103138,0x23c2a88a,
	0x084aa08a,0xb8385806,0xa0362862,0xa248a398,0x0a22a422,0xaa60b308,0x0102ab04,0x87bac224,
	0x32c8e103,0x8e2221b8,0x2932e8b0,0xc037050a,0x928aeb26,0xb10545ca,0x1f05212a,0x9b92aeea,
	0x9eb0828f,0xdb6222cf,0x088ade42,0xb02e9bfa,0x2aee10b5,0xb6224e08,0x220629a8,0x88ca3150,
	0x02a3ab62,0x2a3419aa,0xa0c50158,0x8c2ec30a,0xb041a6ec,0xa232a9c0,0x08162e80,0x09e8baa0,
	0x0bae8e01,0x6442efa2,0x82681290,0x5a0a0100,0x8e2b4800,0x8f08af4e,0x2145a248,0x20a8a05c,
	0x1afa8c08,0x01c9b24e,0x0220b726,0xefb8a0a7,0x0a42242b,0xac828480,0xa40083a4,0xa6a0c52b,
	0x9ae12aca,0x81bba2c4,0xe0e50ef4,0xbf0829e0,0x98fb8228,0x4034ea60,0x80f0a0b2,0x08ca2baa,
	0xe908546b,0x62eb24a2,0xf5ba20ca,0xf0408022,0xbef0eefb,0x2afb6406,0xa0a66c02,0xa862a288,
	0xaaaa8aa2,0xa8a8280a,0xa82808aa,0xaaaa88aa,0xa2a88288,0x8a2a0aa8,0xaaa8aa82,0x8a8a8aaa,
	0xa88a8808,0xaa02aaa0,0x8a28aa08,0xa0aaaa02,0x7093a0a2,0xb8c86ba3,0x7bab00b4,0x627ef2b2,
	0x53023012,0xa830b26a,0x2a80bf56,0x3811aff4,0xc1120302,0x83232260,0x002a42ea,0x19846a30,
	0x02ee1aee,0x5422eaa0,0xc888ecec,0xe8c809ae,0xda0e5250,0x02a9a0c8,0xeef80192,0x58131220,
	0xf0b2eaea,0x01820940,0x00b81a28,0xca0800fc,0x8aaaaa8a,0xaaa8aaaa,0xaaaa22aa,0xa02aa828,
	0xaa8a2a02,0xaaa80a8a,0xa2aa88aa,0x2aaa82aa,0x22a2a0aa,0x2a8aa822,0x82a8aa28,0xa00aaaa0,
	0x63c10800,0xbb229aac,0x8a02a3aa,0x9002bfea,0x1a88aea1,0xca06204a,0x1afa0010,0xeadab1a0,
	0xcde8009a,0x218419e0,0x81c808e0,0xa8b538f0,0x6632a0a6,0x1a4223ea,0xeaea2a24,0x022028a0,
	0xb0ab8c20,0x8e02c92a,0xac5a2532,0x920a0022,0x2dac3042,0xb2b299cc,0x025c89e2,0xa2810ab2,
	0x7feb82ea,0x72812a08,0xaaef32bf,0xf850b31a,0x8a80282a,0x0860896b,0x8af0176a,0x4a32b0bb,
	0xbbb2ead9,0x85ffec51,0x40a84880,0xca003420,0xda520c38,0x1ae86826,0x65280b14,0x2aa01b28,
	0x09240a2a,0x04eeaca1,0x2a020500,0xa208bc8a,0x0208602a,0xa1888802,0xbf6e2d3a,0x8a0a8244,
	0x40e25c4e,0x891aa382,0x86eeb208,0x0e8621f0,0x0fc004a0,0x8cec1410,0x0f88a60b,0xcaec9902,
	0x248fcbcf,0xc43306e2,0x81ee0bf2,0x3c810af0,0x20581a09,0xc8c94d08,0x88030218,0x34ca990a,
	0x13a2f8ec,0xced8302a,0xafd0008a,0xf0e21598,0xd8b24280,0x2118a0fa,0x0280a808,0x2ada2a88,
	0x80aa8490,0x2a0088dc,0xcea152aa,0x244223a2,0xa1eeab20,0x60050a82,0xa020ffa1,0xd125250b,
	0xec9aa800,0x22000142,0xaaa52488,0x46b61aff,0x84fa2e50,0x28c2066c,0xcc206aff,0x33ba18ef,
	0x28542483,0xa2224c02,0x4a10c1f0,0xa4fb8000,0x084a10c2,0x6aa00e66,0x808a6eaa,0x06aa48aa,
	0xaa8a2a82,0xaaa2aaa8,0x2a02280a,0x22a800a8,0x02aa8aa8,0x280aa22a,0xa88a2a08,0x82aaa0a8,
	0x2aa08a8a,0xaaa0aaa0,0xa2a22aa8,0x82a2aaaa,0x40ea4640,0x11021444,0xeaaa7abf,0xff5a01af,
	0x0a80e18f,0x0e8a2123,0xaf80e25b,0xc8e81122,0x458f0ac0,0xaabbf884,0x000a00bb,0xa0ce00ec,
	0xb3624e2a,0x8848baca,0xe0104832,0x2ee16b4f,0x01a2ef2b,0x4832e2a0,0x0d5a0238,0x2241bbaa,
	0x00a1696a,0xe5eb8e8e,0x33ae8dc0,0x604685a0,0xa2a2aaaa,0xa8aa0802,0x0a00022a,0x8a2aa8a2,
	0xa2a2a0a8,0xa08aa000,0x8a2a28aa,0x22a0a2aa,0xaa0a02aa,0xa2a8aa22,0x2aaaaaa8,0x222aaa2a,
	0x318a2cfc,0x800a5a22,0x02bbf18a,0xcf4811eb,0xaf16a4a2,0x12a0b038,0xef8a20fa,0xe2de8b20,
	0x6b004e81,0x2bf0b2c0,0x11ecf3c0,0x48030a06,0x290a4a0e,0x810b1206,0x84affc28,0xcc5b21ba,
	0xaf942480,0x00ee040e,0x8f8028bb,0xeb298e30,0x470310ae,0x0223f620,0xadae8bec,0x280022c9,
	0x38b8a924,0xe8fe0a25,0x36228a24,0x00622000,0xa084b00e,0x00ec0632,0x2808b332,0xf0008f35,
	0x00802aac,0x2bb225d2,0x00a8a4aa,0x8c020aa0,0xa9024c6e,0x028820ef,0x26a80482,0xa3461a02,
	0x80caa8bb,0x0a84b2b1,0xb002ab21,0xe80caf08,0xb2c418a1,0xa72120e8,0x6fae38e4,0x9c3b8b04,
	0x0aa3ceff,0x10a92800,0x2af0822b,0x9b40000f,0xa38c00ab,0x8f0224b0,0x22002f60,0x2456010b,
	0x2102e000,0x01b23e20,0x02cfaa4c,0x000b044a,0x8276b006,0xab4280c5,0xe9a40012,0x82ccbf20,
	0xb0eb9a8a,0x3f698589,0x3162eda0,0x5862301e,0x20002060,0xfe98052e,0x0e0405ab,0x9fa582a8,
	0x826223ac,0x0204a2e5,0x29204c3b,0xba19233f,0x29aa5a3f,0x3a2f2052,0x05220289,0x02aab300,
	0x42142823,0xb0ba2f0a,0xab84ac2a,0x202b8150,0xf04a22a2,0x0a40a02b,0xd3a23504,0xc813f825,
	0xaaca98a5,0xa880cae8,0xaa600013,0x1a208958,0x6b022a20,0xbf0b838c,0x8188a0a2,0x3da9ab52,
}; //first channel is topmost bit

// Layer: L13
// QuantType: 4bitsym
#define L13_active
#define L13_bitperweight 4 
#define L13_incoming_weights 96
#define L13_outgoing_weights 64
const uint32_t L13_weights[] = {
	0x1992b051,0x881201a0,0x0982b0a0,0x92838a8a,0x021d32a8,0xa0858210,0xd11b850b,0xdf18228a,
	0x818911dc,0x95002bc2,0xbb0d8128,0xa080fbe8,0xa898898a,0x00bf4091,0x08111e58,0x31aa9810,
	0xa065ac30,0xd8bacb89,0x81981a43,0x2cc0dd0b,0x94a19acc,0x12e80111,0x90048a88,0xd912080b,
	0x0d09b003,0x08ae8aab,0x1a803aa3,0x12888119,0x19b81009,0x3239b180,0x1284002e,0x24e08d88,
	0x8f08a1d9,0x94998c32,0xf80b01c8,0xcaaa4a9a,0x02fa3282,0x002811a9,0x310a18d9,0x02d08089,
	0x814a0328,0x88a89390,0x301a0ab2,0x8118c801,0x003c11c3,0x8618928d,0x48a018c0,0x91c3bac3,
	0x4a190ad0,0x1980f201,0x908b80b1,0xba099489,0x212904a0,0x30dd8180,0xa99904d0,0x89980211,
	0x99993041,0x88d0389a,0x11290ab8,0x1098f0c1,0xc05a1aa2,0x8100981a,0x1214cf08,0x00908221,
	0x080a4188,0x959aaa08,0x08d80019,0x0b90810a,0x0901004b,0x83983b82,0x118d0a98,0xab1c1e38,
	0x99898888,0x81890980,0x80099089,0x99809800,0x89888890,0x88088888,0x89908888,0x99909089,
	0x08990908,0x08888908,0x98980088,0x8a800889,0x1221f830,0x8898390a,0xbd09b2bc,0x2b898828,
	0x18f303a8,0x9a021008,0x2a39801a,0x23886400,0x89909b9a,0x1f19934a,0x901a9118,0x18808101,
	0x1152da13,0x01833888,0xd88f814c,0x18a9000b,0x98a11910,0x89388201,0xc81190c2,0x0cb0a203,
	0x810ad0cc,0x028ac039,0x033880a0,0x45c31994,0x2b80b10f,0x0040a9f0,0x809c2306,0x14908ba2,
	0xc52b29a8,0x8c952400,0x123c1aa2,0x0b181b02,0x920a80d5,0x8900081d,0x9c1b8280,0x10001daa,
	0x83b082ab,0x80109221,0x110b31ba,0xf91802d8,0xc03aa810,0x81bc9088,0xb2ba0206,0x8110438a,
	0x830220f8,0x88a020c3,0xa1828a39,0xab01c890,0x88816812,0x083a50b9,0x1108b5b2,0x91a8009b,
	0x00a938a0,0x00413518,0x23010221,0xa2c80991,0x909a279f,0x03d09890,0xda030191,0x08b01901,
	0xe9d9128c,0x08289881,0x0289a199,0x9a1b04a0,0x01bdc041,0x282e2098,0x3d9d0084,0xdad85102,
	0x0b9123d3,0x0b80c008,0xa98c0a19,0x0a9cb025,0xba0cbf2a,0x00909a62,0x1901cb41,0x2a040434,
	0x9a0bdd30,0x9a219f98,0x21be942f,0x0818ab8a,0x0cd42971,0x09004948,0x410a0990,0x8c8d484b,
	0x88b183a2,0x08b43300,0x9189a19e,0xe11089d2,0xcc20b269,0x119b0880,0xd5900918,0xcb81109a,
	0x0239899b,0x199980b4,0xa9d80d28,0x8944baf3,0x98621d1b,0x18a4b8a8,0x8a088828,0x9c188429,
	0x20208d18,0x0d4b0808,0x30851018,0xa2980a93,0x08200ab9,0x0a009079,0x383904a0,0x829c0380,
	0x18980909,0x0822aa28,0x1b8182a2,0xb023810a,0x31ca0891,0x40429c90,0x9b920318,0xb2109908,
	0x8d9b220b,0x81a888a0,0xb2338331,0x20a98019,0x1aa20982,0x08fa2102,0x99101800,0x321a0808,
	0x3808bb50,0x9a03a908,0x09930aaf,0x2019fb0c,0x10a90b80,0x0883c801,0x00da8088,0x2714290d,
	0x9e8ab021,0x1828991a,0x1888c0a1,0x81080318,0xa98b8b20,0x3958cb01,0x4211859c,0xa2c02f93,
	0x9c98034b,0x00e82828,0xba488090,0x8acb2811,0x410910f1,0x8802180a,0xb3845218,0x19219991,
	0x8882b1b0,0x5a001380,0xac9008a1,0xaba89b88,0x81bacdca,0x89108b88,0xa11b81b8,0x50054ec9,
	0x88808880,0x00900980,0x89089908,0x08aa8009,0x88900890,0x80988808,0x088089a9,0x98008889,
	0x88088898,0x08008909,0x88988888,0x908098a8,0x88982a5d,0x09239839,0xa084da0d,0x9aba9f12,
	0x01989899,0x2a812a88,0x59bb0999,0x9f40018e,0x92c3b153,0x083011a3,0x00098900,0x011be52d,
	0x2138c099,0x00c4802a,0xc98a3128,0xea120c9a,0x32928980,0x0bc28080,0xa88400be,0x0280988e,
	0x83a89b1a,0x031812bc,0x519900b0,0x012008c8,0x81a91020,0x90921083,0x990a1248,0x092800b8,
	0x022098b8,0xabb28b88,0xaa03089c,0x8d18980f,0x01faab25,0x01428838,0x328f8421,0x3421bd29,
	0xa0030b20,0x002bab8b,0x39088038,0x3af80108,0x1d182131,0x98980808,0x03820b0b,0x33001803,
	0x0e9ca811,0x00500b60,0xa9001008,0xbca82c29,0xf0d83108,0x08a29814,0xa80ac6ba,0xca2894c8,
	0xd0b0ea18,0x93cd8900,0xc88f9240,0x98980a90,0x135352b8,0x8b288921,0xd2018880,0x152ec0a2,
	0x20999c01,0x11a8a11a,0x0990fbaa,0x21a20a63,0xc92a83d0,0x118b1280,0x50ab982c,0x4b88931a,
	0x1b9b9989,0x01101c2a,0x008a8bf0,0x92bd1c0b,0x8484240b,0x911a0918,0xb9819831,0x1b4a039f,
	0x12f4a018,0x892b0c90,0xad480801,0xb0b89588,0x0ca08283,0x1bb291d0,0xc3240248,0x1d029289,
	0x1a29b1ad,0x0910c8a0,0x139b18e1,0x003c9313,0xd21ab088,0x28df0000,0x1b1b82e3,0xb2083f84,
	0x08001100,0x0aa0c18c,0x03228ae0,0x92a0b2a5,0x0442b058,0x880f3898,0x02089b98,0x820e8419,
	0x892108e0,0x822d9b00,0xa15088b9,0x59d08290,0x09949980,0x89e0f124,0xf21a8449,0x1032045b,
	0x100a2000,0x80993803,0xa9932100,0xb12181aa,0x84131a30,0x0a019a09,0xabc58129,0x0090db0c,
	0x88c0a893,0x82a0b1a2,0x32258139,0x43040a2b,0xc98882a0,0x09108011,0x0181d0b2,0x32208013,
	0xec8c8c90,0x02922a99,0x201b182b,0x0a406882,0x8c8162a1,0x0a090a10,0xf90a9bc8,0xbe8908a0,
	0xb2c85025,0x90881018,0x3889b1c9,0xc80981f8,0xabbcc920,0x289b3098,0xa4808810,0x10211908,
	0x803b3012,0x0ac09ce3,0xd0a10e48,0xaa829a19,0x84b9811d,0x80100924,0x118b1191,0x994983a9,
	0xc204a110,0x01dfa118,0x980c0206,0x83983d81,0x809223b2,0x1a98b280,0x94429928,0xa902b291,
	0x00090114,0x0883243d,0x3109808c,0x4af10ba8,0x1f11b290,0xa9902881,0x95108ba8,0x15288208,
	0x881d8aa1,0x80109889,0x3b9088b8,0x0010ab12,0xe233581f,0x0014a89a,0xbc09b149,0x198085aa,
	0x21ab3918,0xb0502001,0xba108ae0,0xeb283b82,0x1041299b,0x0a202891,0xab218718,0x40b89490,
	0x15b982a0,0x80909003,0x880039ba,0x09300088,0x43188491,0x13a09900,0xcb01089a,0x0fa8e18d,
	0x10f8a9a9,0x032109b1,0x21ac8108,0x441190ba,0xabcb8b29,0x8881fc29,0x3a11ca82,0x991180b8,
	0x430e4210,0x1830ad00,0x19d1822a,0x0428a900,0x0b808101,0x00188080,0x9b828810,0xb0bfa213,
	0xa1113182,0x8801401b,0x121812ca,0x809981eb,0x1e9ba088,0x928b2001,0x814b0b08,0x01a02003,
	0x081840cb,0x09c8ba83,0xb89188a0,0xa00310a3,0xf8da4a32,0x099c0981,0x3880c498,0x91180292,
	0x0bb98c58,0xd0293080,0x88288b58,0x8d102889,0x14186013,0x08908d83,0xfae69910,0x0a91902a,
	0x32009022,0x80908880,0x3a8acbc0,0x39d00c10,0x19829410,0xa9ac3088,0x4afd9199,0x3250f409,
	0x01929013,0x8a31b101,0x1f808c90,0xd09c9838,0x11953988,0x0000920c,0x8b8da3d1,0x2dc089c2,
	0x10844288,0x80a54308,0xc3108da8,0x9020240a,0x0441180a,0x0a213021,0xaa820088,0x999c8ad8,
	0x88809088,0x08888888,0x99898908,0x80900889,0x88080900,0x09808808,0x00808908,0x89808808,
	0x00899088,0x09988989,0x98808990,0x90989980,0x2b8901ac,0x0881ac12,0xa90b10b0,0xfb1c84aa,
	0xb2f8b220,0x20cfb118,0x0dbf9292,0xf3903e02,0x88221282,0x9da892c8,0x93008c19,0xabbf02a2,
	0xa932da0b,0x18981d8a,0x888b182b,0x49d00a31,0x4b083a61,0xbc152998,0x24028c81,0x81308302,
	0x89a10c33,0x8a21a00c,0x3a888cb0,0xaa982284,0x2581ca2c,0x10341fab,0x1e091028,0x109102a8,
	0x89a15290,0x8391a000,0xb01b8ace,0x1008a911,0x090a30b1,0x83089598,0xd82b0940,0x08b393c9,
	0x4bc20303,0x00c42100,0xb3011188,0x20300a8a,0x0801a290,0x0bb4b180,0x03259309,0x3110220b,
	0x8b8edab8,0x8150a82a,0x29b902c8,0x33441e81,0x185b38c0,0x98db1229,0x13920b21,0x11388433,
	0xdb18a989,0x11118b08,0x3450181b,0x09983881,0x8820111b,0x8d000e70,0x01cf88a8,0x19183d09,
	0x532b4388,0x08038261,0x2380b0f0,0x91130080,0xdc2bd2d0,0x02c01490,0x820d900b,0x0e104900,
	0x81983290,0x832119c1,0x011c1da8,0x14328ca0,0xd2aa0981,0x99cb1b82,0x1a098838,0x39b90080,
	0x4a1eab58,0xca199f08,0x32db882b,0x1410bc82,0x8f813023,0x8c12b030,0x0aa89c20,0xccc9392b,
	0xb4a09b49,0x803d2928,0xa8130891,0x80899b18,0x20852801,0xa412a989,0xb9338a21,0x29d8018a,
	0x02a6ac98,0x02191139,0xe11114c0,0x9a3196a0,0xb3ea810b,0x00902120,0xa8090a0c,0xda8a0aea,
	0x82048180,0x81831981,0xfa911002,0x0a00848d,0x95b0ebda,0x921845a0,0x12c18818,0xa928d0bb,
	0x6140cab3,0x01a1913a,0x8991289b,0x81910f82,0xaa34a2b8,0x1b991388,0x18998ddf,0x1818f28a,
	0x0018df0a,0x841113ab,0x0d108dd0,0x1218b091,0x142ec808,0x09af1144,0x391a0985,0x08930181,
	0xc94c80d1,0x108fca18,0x13008920,0x7a88c008,0x8bc091b9,0x93008a32,0x910c8918,0x80aa113a,
	0x80002b1b,0x0034b98a,0x0a081013,0x84030b19,0x10a922a9,0x90c68181,0x891f83da,0x98380b18,
	0x988a08c0,0x811849aa,0x192b0390,0x431bc9d0,0x9fb82002,0x801e00a8,0x8881d120,0xa20b8321,
	0x998a8c99,0x382bc900,0x69b29020,0x80c98f19,0x0c3cc142,0x80d8a812,0x11910131,0x089a833f,
	0x02b2a252,0x0000a1c4,0x09812891,0xb2428a91,0xa102d080,0xb889c088,0xc1380800,0xcf081a80,
	0x812b90d2,0x89181908,0x23a08990,0x9338bab1,0x2939dbb1,0x08189999,0x120a1a24,0x15b98920,
	0x300a2b10,0x28939100,0x219a89be,0x29009a10,0x10d23015,0x05108daa,0x1b2f8ba8,0x20482a30,
	0x9f5802b4,0x90b004e1,0x12008ac3,0x21888033,0x2c19aba0,0x12b29800,0x40300829,0xbb008883,
	0x0b1bb20c,0x0b992a80,0xb19909f0,0x9b1aa999,0x31101118,0x880a8aa8,0xe1833a42,0xa909899a,
	0x1838a2a0,0x8dc59290,0xca280bcb,0x89e0a988,0x82b8bd85,0x8118088c,0x19180029,0x283c8828,
	0xd39b0859,0x80c99a12,0x4a8c8910,0x4c8288a2,0x2a2e0a48,0xdc001ba9,0x128d8a10,0x12488d82,
	0x08323826,0x8a11d904,0x0b008a09,0xfa30083b,0x8122592d,0x18298eab,0x0b898009,0x019b0a3b,
	0x18d80ea8,0x1e311120,0x18188002,0x93282484,0x0182a8ab,0x8d498850,0x802a83c8,0x9ce81580,
	0x8a090a01,0x080a4296,0x89168a92,0x92609023,0xb204aac8,0x1802c900,0x0a9b0149,0x18c8ba0a,
	0x0080a03a,0x88b03200,0x10921808,0x081d200f,0x1d032aa8,0x11990d0b,0xb9093228,0x2a11822a,
	0x22e30ab0,0x1a2a8990,0x2c160242,0x92081419,0x0b2e8010,0x08312938,0x01031238,0x20b00c1d,
}; //first channel is topmost bit

// Layer: L15
// QuantType: 4bitsym
#define L15_active
#define L15_bitperweight 4 
#define L15_incoming_weights 64
#define L15_outgoing_weights 10
const uint32_t L15_weights[] = {
	0x8a8b890b,0x0dbaad92,0x93a29a22,0xa1ac881d,0x9a012aa8,0xb98b8021,0x1899281a,0x00918a8a,
	0xa8a8df81,0x1aa988b2,0x889a8ba8,0x11c001b9,0xb000bb89,0xa08c3228,0xcb1cc9b8,0xbc9c8294,
	0xa4aaa881,0xa02a9b1a,0x8aaa8bb9,0x89e2921a,0x018c1a19,0x0b8a80c9,0x9932818a,0x88800b28,
	0xba922909,0x011028a9,0x9f120a9c,0x91813a90,0xa299a00c,0x9b84a099,0x8ca9b98b,0x0888a98a,
	0xb01cb88b,0xa9a0c1a0,0x80899111,0x3a8b9901,0x090b9001,0x2a8a29a8,0x9380a0b9,0x90a138a8,
	0x21111288,0xa381b99a,0x1e0980ca,0x9889acb0,0xa9a3129b,0x9189018c,0x0f99b02c,0x02b089bb,
	0x1b901888,0xbb0c0d0b,0xc9da821a,0x103a8a9b,0xba200aca,0x3208199a,0x1883400f,0xa9ea92cb,
	0xc98dbc89,0x1ca11091,0x2819808c,0xcaa1b02b,0x20b2b291,0x8f89cb19,0xa90bf883,0xbaab0922,
	0x1cc0a080,0x1a020929,0x9ccb88ac,0x82cbcb91,0x2819aa13,0xb089a811,0x180aa9ca,0x1b0a0a09,
	0x9a1b028a,0x9090b2c8,0x98198111,0x8a1b0191,0x8acb0818,0xa98bbaa2,0x09baa181,0x883ca82a,
}; //first channel is topmost bit

#endif
